#include "magic_wand_model_data.h"


// We need to keep the data array aligned on some architectures.

#ifdef __has_attribute

#define HAVE_ATTRIBUTE(x) __has_attribute(x)

#else

#define HAVE_ATTRIBUTE(x) 0

#endif

#if HAVE_ATTRIBUTE(aligned) || (defined(__GNUC__) && !defined(__clang__))

#define DATA_ALIGN_ATTRIBUTE __attribute__((aligned(4)))

#else

#define DATA_ALIGN_ATTRIBUTE

#endif


const unsigned char g_magic_wand_model_data[] DATA_ALIGN_ATTRIBUTE = {
  
  0x1c, 0x00, 0x00, 0x00, 0x54, 0x46, 0x4c, 0x33, 0x14, 0x00, 0x20, 0x00,
  0x04, 0x00, 0x08, 0x00, 0x0c, 0x00, 0x10, 0x00, 0x14, 0x00, 0x00, 0x00,
  0x18, 0x00, 0x1c, 0x00, 0x14, 0x00, 0x00, 0x00, 0x03, 0x00, 0x00, 0x00,
  0x18, 0x00, 0x00, 0x00, 0x2c, 0x00, 0x00, 0x00, 0xd8, 0x00, 0x00, 0x00,
  0x2c, 0x00, 0x00, 0x00, 0x80, 0x00, 0x00, 0x00, 0x78, 0x00, 0x00, 0x00,
  0x05, 0x00, 0x00, 0x00, 0x28, 0x07, 0x00, 0x00, 0x44, 0x06, 0x00, 0x00,
  0xbc, 0x03, 0x00, 0x00, 0xf8, 0x02, 0x00, 0x00, 0xac, 0x01, 0x00, 0x00,
  0x01, 0x00, 0x00, 0x00, 0xd0, 0x00, 0x00, 0x00, 0x14, 0x00, 0x00, 0x00,
  0x98, 0x32, 0x00, 0x00, 0x94, 0x32, 0x00, 0x00, 0x8c, 0x31, 0x00, 0x00,
  0xd8, 0x30, 0x00, 0x00, 0x30, 0x30, 0x00, 0x00, 0xbc, 0x2f, 0x00, 0x00,
  0x50, 0x2f, 0x00, 0x00, 0x00, 0x13, 0x00, 0x00, 0xec, 0x11, 0x00, 0x00,
  0x10, 0x10, 0x00, 0x00, 0xb4, 0x07, 0x00, 0x00, 0x6c, 0x32, 0x00, 0x00,
  0x68, 0x32, 0x00, 0x00, 0x64, 0x32, 0x00, 0x00, 0x60, 0x32, 0x00, 0x00,
  0x5c, 0x32, 0x00, 0x00, 0x58, 0x32, 0x00, 0x00, 0x54, 0x32, 0x00, 0x00,
  0x50, 0x32, 0x00, 0x00, 0x3c, 0x00, 0x00, 0x00, 0x00, 0x00, 0x00, 0x00,
  0x01, 0x00, 0x00, 0x00, 0x0c, 0x00, 0x00, 0x00, 0x08, 0x00, 0x0c, 0x00,
  0x04, 0x00, 0x08, 0x00, 0x08, 0x00, 0x00, 0x00, 0x08, 0x00, 0x00, 0x00,
  0x13, 0x00, 0x00, 0x00, 0x13, 0x00, 0x00, 0x00, 0x6d, 0x69, 0x6e, 0x5f,
  0x72, 0x75, 0x6e, 0x74, 0x69, 0x6d, 0x65, 0x5f, 0x76, 0x65, 0x72, 0x73,
  0x69, 0x6f, 0x6e, 0x00, 0xfa, 0xce, 0xff, 0xff, 0x04, 0x00, 0x00, 0x00,
  0x10, 0x00, 0x00, 0x00, 0x31, 0x2e, 0x35, 0x2e, 0x30, 0x00, 0x00, 0x00,
  0x00, 0x00, 0x00, 0x00, 0x00, 0x00, 0x00, 0x00, 0x0f, 0x00, 0x00, 0x00,
  0x4d, 0x4c, 0x49, 0x52, 0x20, 0x43, 0x6f, 0x6e, 0x76, 0x65, 0x72, 0x74,
  0x65, 0x64, 0x2e, 0x00, 0x00, 0x00, 0x0e, 0x00, 0x18, 0x00, 0x04, 0x00,
  0x08, 0x00, 0x0c, 0x00, 0x10, 0x00, 0x14, 0x00, 0x0e, 0x00, 0x00, 0x00,
  0x14, 0x00, 0x00, 0x00, 0x5c, 0x00, 0x00, 0x00, 0x60, 0x00, 0x00, 0x00,
  0x64, 0x00, 0x00, 0x00, 0x84, 0x00, 0x00, 0x00, 0x12, 0x00, 0x00, 0x00,
  0x58, 0x31, 0x00, 0x00, 0xe8, 0x30, 0x00, 0x00, 0x44, 0x30, 0x00, 0x00,
  0x9c, 0x2f, 0x00, 0x00, 0xf4, 0x2e, 0x00, 0x00, 0x94, 0x2e, 0x00, 0x00,
  0x2c, 0x2e, 0x00, 0x00, 0xd8, 0x11, 0x00, 0x00, 0xbc, 0x10, 0x00, 0x00,
  0xe0, 0x0e, 0x00, 0x00, 0x0c, 0x06, 0x00, 0x00, 0x28, 0x05, 0x00, 0x00,
  0xe8, 0x03, 0x00, 0x00, 0x3c, 0x03, 0x00, 0x00, 0x98, 0x02, 0x00, 0x00,
  0xd4, 0x01, 0x00, 0x00, 0x10, 0x01, 0x00, 0x00, 0x84, 0x00, 0x00, 0x00,
  0x01, 0x00, 0x00, 0x00, 0x00, 0x00, 0x00, 0x00, 0x01, 0x00, 0x00, 0x00,
  0x11, 0x00, 0x00, 0x00, 0x08, 0x00, 0x00, 0x00, 0x74, 0x05, 0x00, 0x00,
  0x94, 0x04, 0x00, 0x00, 0x78, 0x03, 0x00, 0x00, 0xbc, 0x02, 0x00, 0x00,
  0x30, 0x02, 0x00, 0x00, 0x50, 0x01, 0x00, 0x00, 0xa8, 0x00, 0x00, 0x00,
  0x10, 0x00, 0x00, 0x00, 0x04, 0x00, 0x00, 0x00, 0x6d, 0x61, 0x69, 0x6e,
  0x00, 0x00, 0x00, 0x00, 0x7a, 0xff, 0xff, 0xff, 0x00, 0x00, 0x00, 0x09,
  0x04, 0x00, 0x00, 0x00, 0x1c, 0x00, 0x00, 0x00, 0x10, 0x00, 0x00, 0x00,
  0x04, 0x00, 0x00, 0x00, 0xf6, 0xcf, 0xff, 0xff, 0x00, 0x00, 0x80, 0x3f,
  0x01, 0x00, 0x00, 0x00, 0x11, 0x00, 0x00, 0x00, 0x01, 0x00, 0x00, 0x00,
  0x10, 0x00, 0x00, 0x00, 0xa0, 0xfa, 0xff, 0xff, 0x19, 0x00, 0x00, 0x00,
  0x00, 0x00, 0x00, 0x19, 0x01, 0x00, 0x00, 0x00, 0x84, 0xcf, 0xff, 0xff,
  0x14, 0x00, 0x00, 0x00, 0x12, 0x00, 0x00, 0x00, 0x18, 0x00, 0x00, 0x00,
  0x30, 0x00, 0x00, 0x00, 0x20, 0x00, 0x00, 0x00, 0x02, 0x00, 0x00, 0x00,
  0x01, 0x00, 0x00, 0x00, 0x03, 0x00, 0x00, 0x00, 0x08, 0x00, 0x00, 0x00,
  0x49, 0x64, 0x65, 0x6e, 0x74, 0x69, 0x74, 0x79, 0x00, 0x00, 0x00, 0x00,
  0x02, 0x00, 0x00, 0x00, 0xff, 0xff, 0xff, 0xff, 0x03, 0x00, 0x00, 0x00,
  0x68, 0xd0, 0xff, 0xff, 0x00, 0x00, 0x0e, 0x00, 0x18, 0x00, 0x08, 0x00,
  0x0c, 0x00, 0x10, 0x00, 0x07, 0x00, 0x14, 0x00, 0x0e, 0x00, 0x00, 0x00,
  0x00, 0x00, 0x00, 0x08, 0x03, 0x00, 0x00, 0x00, 0x18, 0x00, 0x00, 0x00,
  0x0c, 0x00, 0x00, 0x00, 0x04, 0x00, 0x00, 0x00, 0x84, 0xcf, 0xff, 0xff,
  0x01, 0x00, 0x00, 0x00, 0x10, 0x00, 0x00, 0x00, 0x03, 0x00, 0x00, 0x00,
  0x0f, 0x00, 0x00, 0x00, 0x07, 0x00, 0x00, 0x00, 0x04, 0x00, 0x00, 0x00,
  0x0c, 0xd0, 0xff, 0xff, 0x14, 0x00, 0x00, 0x00, 0x11, 0x00, 0x00, 0x00,
  0x18, 0x00, 0x00, 0x00, 0x5c, 0x00, 0x00, 0x00, 0x4c, 0x00, 0x00, 0x00,
  0x02, 0x00, 0x00, 0x00, 0x01, 0x00, 0x00, 0x00, 0x03, 0x00, 0x00, 0x00,
  0x34, 0x00, 0x00, 0x00, 0x73, 0x65, 0x71, 0x75, 0x65, 0x6e, 0x74, 0x69,
  0x61, 0x6c, 0x2f, 0x64, 0x65, 0x6e, 0x73, 0x65, 0x5f, 0x31, 0x2f, 0x4d,
  0x61, 0x74, 0x4d, 0x75, 0x6c, 0x3b, 0x73, 0x65, 0x71, 0x75, 0x65, 0x6e,
  0x74, 0x69, 0x61, 0x6c, 0x2f, 0x64, 0x65, 0x6e, 0x73, 0x65, 0x5f, 0x31,
  0x2f, 0x42, 0x69, 0x61, 0x73, 0x41, 0x64, 0x64, 0x00, 0x00, 0x00, 0x00,
  0x02, 0x00, 0x00, 0x00, 0xff, 0xff, 0xff, 0xff, 0x03, 0x00, 0x00, 0x00,
  0x0c, 0xd0, 0xff, 0xff, 0xda, 0xfc, 0xff, 0xff, 0x00, 0x00, 0x00, 0x08,
  0x03, 0x00, 0x00, 0x00, 0x24, 0x00, 0x00, 0x00, 0x18, 0x00, 0x00, 0x00,
  0x0c, 0x00, 0x00, 0x00, 0x00, 0x00, 0x06, 0x00, 0x08, 0x00, 0x07, 0x00,
  0x06, 0x00, 0x00, 0x00, 0x00, 0x00, 0x00, 0x01, 0x01, 0x00, 0x00, 0x00,
  0x0f, 0x00, 0x00, 0x00, 0x03, 0x00, 0x00, 0x00, 0x0e, 0x00, 0x00, 0x00,
  0x06, 0x00, 0x00, 0x00, 0x03, 0x00, 0x00, 0x00, 0xe8, 0xfb, 0xff, 0xff,
  0x09, 0x00, 0x00, 0x00, 0x00, 0x00, 0x00, 0x09, 0x01, 0x00, 0x00, 0x00,
  0xcc, 0xd0, 0xff, 0xff, 0x14, 0x00, 0x00, 0x00, 0x10, 0x00, 0x00, 0x00,
  0x18, 0x00, 0x00, 0x00, 0x6c, 0x00, 0x00, 0x00, 0x5c, 0x00, 0x00, 0x00,
  0x02, 0x00, 0x00, 0x00, 0x01, 0x00, 0x00, 0x00, 0x10, 0x00, 0x00, 0x00,
  0x46, 0x00, 0x00, 0x00, 0x73, 0x65, 0x71, 0x75, 0x65, 0x6e, 0x74, 0x69,
  0x61, 0x6c, 0x2f, 0x64, 0x65, 0x6e, 0x73, 0x65, 0x2f, 0x4d, 0x61, 0x74,
  0x4d, 0x75, 0x6c, 0x3b, 0x73, 0x65, 0x71, 0x75, 0x65, 0x6e, 0x74, 0x69,
  0x61, 0x6c, 0x2f, 0x64, 0x65, 0x6e, 0x73, 0x65, 0x2f, 0x52, 0x65, 0x6c,
  0x75, 0x3b, 0x73, 0x65, 0x71, 0x75, 0x65, 0x6e, 0x74, 0x69, 0x61, 0x6c,
  0x2f, 0x64, 0x65, 0x6e, 0x73, 0x65, 0x2f, 0x42, 0x69, 0x61, 0x73, 0x41,
  0x64, 0x64, 0x00, 0x00, 0x02, 0x00, 0x00, 0x00, 0xff, 0xff, 0xff, 0xff,
  0x10, 0x00, 0x00, 0x00, 0xec, 0xd1, 0xff, 0xff, 0x00, 0x00, 0x0a, 0x00,
  0x10, 0x00, 0x04, 0x00, 0x08, 0x00, 0x0c, 0x00, 0x0a, 0x00, 0x00, 0x00,
  0x02, 0x00, 0x00, 0x00, 0x10, 0x00, 0x00, 0x00, 0x04, 0x00, 0x00, 0x00,
  0x01, 0x00, 0x00, 0x00, 0x0e, 0x00, 0x00, 0x00, 0x02, 0x00, 0x00, 0x00,
  0x0d, 0x00, 0x00, 0x00, 0x05, 0x00, 0x00, 0x00, 0xa8, 0xfc, 0xff, 0xff,
  0x16, 0x00, 0x00, 0x00, 0x00, 0x00, 0x00, 0x16, 0x01, 0x00, 0x00, 0x00,
  0x8c, 0xd1, 0xff, 0xff, 0x14, 0x00, 0x00, 0x00, 0x0f, 0x00, 0x00, 0x00,
  0x18, 0x00, 0x00, 0x00, 0x40, 0x00, 0x00, 0x00, 0x30, 0x00, 0x00, 0x00,
  0x02, 0x00, 0x00, 0x00, 0x01, 0x00, 0x00, 0x00, 0x70, 0x00, 0x00, 0x00,
  0x1a, 0x00, 0x00, 0x00, 0x73, 0x65, 0x71, 0x75, 0x65, 0x6e, 0x74, 0x69,
  0x61, 0x6c, 0x2f, 0x66, 0x6c, 0x61, 0x74, 0x74, 0x65, 0x6e, 0x2f, 0x52,
  0x65, 0x73, 0x68, 0x61, 0x70, 0x65, 0x00, 0x00, 0x02, 0x00, 0x00, 0x00,
  0xff, 0xff, 0xff, 0xff, 0x70, 0x00, 0x00, 0x00, 0x70, 0xd1, 0xff, 0xff,
  0x3e, 0xfe, 0xff, 0xff, 0x00, 0x00, 0x00, 0x05, 0x01, 0x00, 0x00, 0x00,
  0x38, 0x00, 0x00, 0x00, 0x2c, 0x00, 0x00, 0x00, 0x14, 0x00, 0x00, 0x00,
  0x00, 0x00, 0x0e, 0x00, 0x14, 0x00, 0x00, 0x00, 0x10, 0x00, 0x0c, 0x00,
  0x08, 0x00, 0x04, 0x00, 0x0e, 0x00, 0x00, 0x00, 0x03, 0x00, 0x00, 0x00,
  0x01, 0x00, 0x00, 0x00, 0x03, 0x00, 0x00, 0x00, 0x01, 0x00, 0x00, 0x00,
  0x01, 0x00, 0x00, 0x00, 0x0d, 0x00, 0x00, 0x00, 0x01, 0x00, 0x00, 0x00,
  0x0c, 0x00, 0x00, 0x00, 0x2c, 0xd2, 0xff, 0xff, 0x14, 0x00, 0x00, 0x00,
  0x0e, 0x00, 0x00, 0x00, 0x20, 0x00, 0x00, 0x00, 0x58, 0x00, 0x00, 0x00,
  0x40, 0x00, 0x00, 0x00, 0x04, 0x00, 0x00, 0x00, 0x01, 0x00, 0x00, 0x00,
  0x07, 0x00, 0x00, 0x00, 0x01, 0x00, 0x00, 0x00, 0x10, 0x00, 0x00, 0x00,
  0x22, 0x00, 0x00, 0x00, 0x73, 0x65, 0x71, 0x75, 0x65, 0x6e, 0x74, 0x69,
  0x61, 0x6c, 0x2f, 0x6d, 0x61, 0x78, 0x5f, 0x70, 0x6f, 0x6f, 0x6c, 0x69,
  0x6e, 0x67, 0x32, 0x64, 0x5f, 0x31, 0x2f, 0x4d, 0x61, 0x78, 0x50, 0x6f,
  0x6f, 0x6c, 0x00, 0x00, 0x04, 0x00, 0x00, 0x00, 0xff, 0xff, 0xff, 0xff,
  0x07, 0x00, 0x00, 0x00, 0x01, 0x00, 0x00, 0x00, 0x10, 0x00, 0x00, 0x00,
  0x28, 0xd2, 0xff, 0xff, 0x1a, 0xfe, 0xff, 0xff, 0x00, 0x00, 0x00, 0x01,
  0x24, 0x00, 0x00, 0x00, 0x18, 0x00, 0x00, 0x00, 0x04, 0x00, 0x00, 0x00,
  0x0c, 0xfe, 0xff, 0xff, 0x01, 0x00, 0x00, 0x00, 0x01, 0x00, 0x00, 0x00,
  0x00, 0x00, 0x00, 0x01, 0x01, 0x00, 0x00, 0x00, 0x0c, 0x00, 0x00, 0x00,
  0x03, 0x00, 0x00, 0x00, 0x0b, 0x00, 0x00, 0x00, 0x09, 0x00, 0x00, 0x00,
  0x02, 0x00, 0x00, 0x00, 0xd4, 0xd2, 0xff, 0xff, 0x14, 0x00, 0x00, 0x00,
  0x0d, 0x00, 0x00, 0x00, 0x20, 0x00, 0x00, 0x00, 0xb8, 0x00, 0x00, 0x00,
  0xa0, 0x00, 0x00, 0x00, 0x04, 0x00, 0x00, 0x00, 0x01, 0x00, 0x00, 0x00,
  0x15, 0x00, 0x00, 0x00, 0x01, 0x00, 0x00, 0x00, 0x10, 0x00, 0x00, 0x00,
  0x83, 0x00, 0x00, 0x00, 0x73, 0x65, 0x71, 0x75, 0x65, 0x6e, 0x74, 0x69,
  0x61, 0x6c, 0x2f, 0x63, 0x6f, 0x6e, 0x76, 0x32, 0x64, 0x5f, 0x31, 0x2f,
  0x52, 0x65, 0x6c, 0x75, 0x3b, 0x73, 0x65, 0x71, 0x75, 0x65, 0x6e, 0x74,
  0x69, 0x61, 0x6c, 0x2f, 0x63, 0x6f, 0x6e, 0x76, 0x32, 0x64, 0x5f, 0x31,
  0x2f, 0x42, 0x69, 0x61, 0x73, 0x41, 0x64, 0x64, 0x3b, 0x73, 0x65, 0x71,
  0x75, 0x65, 0x6e, 0x74, 0x69, 0x61, 0x6c, 0x2f, 0x63, 0x6f, 0x6e, 0x76,
  0x32, 0x64, 0x5f, 0x31, 0x2f, 0x43, 0x6f, 0x6e, 0x76, 0x32, 0x44, 0x3b,
  0x73, 0x65, 0x71, 0x75, 0x65, 0x6e, 0x74, 0x69, 0x61, 0x6c, 0x2f, 0x63,
  0x6f, 0x6e, 0x76, 0x32, 0x64, 0x5f, 0x31, 0x2f, 0x42, 0x69, 0x61, 0x73,
  0x41, 0x64, 0x64, 0x2f, 0x52, 0x65, 0x61, 0x64, 0x56, 0x61, 0x72, 0x69,
  0x61, 0x62, 0x6c, 0x65, 0x4f, 0x70, 0x2f, 0x72, 0x65, 0x73, 0x6f, 0x75,
  0x72, 0x63, 0x65, 0x00, 0x04, 0x00, 0x00, 0x00, 0xff, 0xff, 0xff, 0xff,
  0x15, 0x00, 0x00, 0x00, 0x01, 0x00, 0x00, 0x00, 0x10, 0x00, 0x00, 0x00,
  0x40, 0xd4, 0xff, 0xff, 0x00, 0x00, 0x0e, 0x00, 0x1a, 0x00, 0x08, 0x00,
  0x0c, 0x00, 0x10, 0x00, 0x07, 0x00, 0x14, 0x00, 0x0e, 0x00, 0x00, 0x00,
  0x00, 0x00, 0x00, 0x05, 0x01, 0x00, 0x00, 0x00, 0x3c, 0x00, 0x00, 0x00,
  0x30, 0x00, 0x00, 0x00, 0x14, 0x00, 0x00, 0x00, 0x00, 0x00, 0x0e, 0x00,
  0x18, 0x00, 0x17, 0x00, 0x10, 0x00, 0x0c, 0x00, 0x08, 0x00, 0x04, 0x00,
  0x0e, 0x00, 0x00, 0x00, 0x03, 0x00, 0x00, 0x00, 0x03, 0x00, 0x00, 0x00,
  0x03, 0x00, 0x00, 0x00, 0x03, 0x00, 0x00, 0x00, 0x00, 0x00, 0x00, 0x01,
  0x01, 0x00, 0x00, 0x00, 0x0b, 0x00, 0x00, 0x00, 0x01, 0x00, 0x00, 0x00,
  0x0a, 0x00, 0x00, 0x00, 0x2c, 0xff, 0xff, 0xff, 0x11, 0x00, 0x00, 0x00,
  0x00, 0x00, 0x00, 0x11, 0x01, 0x00, 0x00, 0x00, 0x10, 0xd4, 0xff, 0xff,
  0x14, 0x00, 0x00, 0x00, 0x0c, 0x00, 0x00, 0x00, 0x20, 0x00, 0x00, 0x00,
  0x58, 0x00, 0x00, 0x00, 0x40, 0x00, 0x00, 0x00, 0x04, 0x00, 0x00, 0x00,
  0x01, 0x00, 0x00, 0x00, 0x15, 0x00, 0x00, 0x00, 0x01, 0x00, 0x00, 0x00,
  0x08, 0x00, 0x00, 0x00, 0x20, 0x00, 0x00, 0x00, 0x73, 0x65, 0x71, 0x75,
  0x65, 0x6e, 0x74, 0x69, 0x61, 0x6c, 0x2f, 0x6d, 0x61, 0x78, 0x5f, 0x70,
  0x6f, 0x6f, 0x6c, 0x69, 0x6e, 0x67, 0x32, 0x64, 0x2f, 0x4d, 0x61, 0x78,
  0x50, 0x6f, 0x6f, 0x6c, 0x00, 0x00, 0x00, 0x00, 0x04, 0x00, 0x00, 0x00,
  0xff, 0xff, 0xff, 0xff, 0x15, 0x00, 0x00, 0x00, 0x01, 0x00, 0x00, 0x00,
  0x08, 0x00, 0x00, 0x00, 0x1c, 0xd5, 0xff, 0xff, 0x00, 0x00, 0x0e, 0x00,
  0x14, 0x00, 0x00, 0x00, 0x08, 0x00, 0x0c, 0x00, 0x07, 0x00, 0x10, 0x00,
  0x0e, 0x00, 0x00, 0x00, 0x00, 0x00, 0x00, 0x01, 0x30, 0x00, 0x00, 0x00,
  0x24, 0x00, 0x00, 0x00, 0x10, 0x00, 0x00, 0x00, 0x0c, 0x00, 0x10, 0x00,
  0x00, 0x00, 0x04, 0x00, 0x08, 0x00, 0x0f, 0x00, 0x0c, 0x00, 0x00, 0x00,
  0x01, 0x00, 0x00, 0x00, 0x01, 0x00, 0x00, 0x00, 0x00, 0x00, 0x00, 0x01,
  0x01, 0x00, 0x00, 0x00, 0x0a, 0x00, 0x00, 0x00, 0x03, 0x00, 0x00, 0x00,
  0x00, 0x00, 0x00, 0x00, 0x08, 0x00, 0x00, 0x00, 0x01, 0x00, 0x00, 0x00,
  0x0c, 0x00, 0x10, 0x00, 0x0b, 0x00, 0x00, 0x00, 0x0c, 0x00, 0x04, 0x00,
  0x0c, 0x00, 0x00, 0x00, 0x03, 0x00, 0x00, 0x00, 0x00, 0x00, 0x00, 0x03,
  0x01, 0x00, 0x00, 0x00, 0xf0, 0xd4, 0xff, 0xff, 0x14, 0x00, 0x00, 0x00,
  0x0b, 0x00, 0x00, 0x00, 0x20, 0x00, 0x00, 0x00, 0xb0, 0x00, 0x00, 0x00,
  0x98, 0x00, 0x00, 0x00, 0x04, 0x00, 0x00, 0x00, 0x01, 0x00, 0x00, 0x00,
  0x40, 0x00, 0x00, 0x00, 0x03, 0x00, 0x00, 0x00, 0x08, 0x00, 0x00, 0x00,
  0x7b, 0x00, 0x00, 0x00, 0x73, 0x65, 0x71, 0x75, 0x65, 0x6e, 0x74, 0x69,
  0x61, 0x6c, 0x2f, 0x63, 0x6f, 0x6e, 0x76, 0x32, 0x64, 0x2f, 0x52, 0x65,
  0x6c, 0x75, 0x3b, 0x73, 0x65, 0x71, 0x75, 0x65, 0x6e, 0x74, 0x69, 0x61,
  0x6c, 0x2f, 0x63, 0x6f, 0x6e, 0x76, 0x32, 0x64, 0x2f, 0x42, 0x69, 0x61,
  0x73, 0x41, 0x64, 0x64, 0x3b, 0x73, 0x65, 0x71, 0x75, 0x65, 0x6e, 0x74,
  0x69, 0x61, 0x6c, 0x2f, 0x63, 0x6f, 0x6e, 0x76, 0x32, 0x64, 0x2f, 0x43,
  0x6f, 0x6e, 0x76, 0x32, 0x44, 0x3b, 0x73, 0x65, 0x71, 0x75, 0x65, 0x6e,
  0x74, 0x69, 0x61, 0x6c, 0x2f, 0x63, 0x6f, 0x6e, 0x76, 0x32, 0x64, 0x2f,
  0x42, 0x69, 0x61, 0x73, 0x41, 0x64, 0x64, 0x2f, 0x52, 0x65, 0x61, 0x64,
  0x56, 0x61, 0x72, 0x69, 0x61, 0x62, 0x6c, 0x65, 0x4f, 0x70, 0x2f, 0x72,
  0x65, 0x73, 0x6f, 0x75, 0x72, 0x63, 0x65, 0x00, 0x04, 0x00, 0x00, 0x00,
  0xff, 0xff, 0xff, 0xff, 0x40, 0x00, 0x00, 0x00, 0x03, 0x00, 0x00, 0x00,
  0x08, 0x00, 0x00, 0x00, 0x44, 0xd5, 0xff, 0xff, 0x4e, 0xd6, 0xff, 0xff,
  0x04, 0x00, 0x00, 0x00, 0x00, 0x08, 0x00, 0x00, 0x5e, 0xe6, 0x60, 0x3e,
  0x96, 0x53, 0xa1, 0x3c, 0xb6, 0x17, 0x35, 0xbe, 0xb0, 0x2c, 0xdb, 0xbd,
  0x52, 0x46, 0x16, 0x3e, 0x9f, 0x78, 0x57, 0x3e, 0x2a, 0x80, 0xe6, 0x3e,
  0xc8, 0x6d, 0x90, 0xbd, 0x80, 0x2a, 0x34, 0xbe, 0x36, 0x84, 0x4a, 0xbc,
  0xe7, 0xe5, 0xdd, 0x3d, 0x10, 0x63, 0x8e, 0xbd, 0xf3, 0xaf, 0xbe, 0xbe,
  0x56, 0xdb, 0x3c, 0x3e, 0x57, 0x8a, 0x8a, 0x3e, 0xa2, 0x22, 0xa2, 0x3d,
  0x13, 0x58, 0x0a, 0xbe, 0x9b, 0xd2, 0x14, 0xbc, 0x82, 0xb9, 0x3e, 0xbe,
  0xa6, 0xcf, 0xbb, 0x3c, 0x71, 0x45, 0x29, 0xbe, 0x62, 0x53, 0x69, 0xbe,
  0x42, 0xfd, 0xed, 0x3d, 0xcc, 0x8a, 0x67, 0xbe, 0xba, 0x33, 0x38, 0x3e,
  0x5c, 0x80, 0x34, 0xbe, 0x11, 0xdc, 0x0b, 0x3c, 0x6f, 0x85, 0x1f, 0x3e,
  0x76, 0x1f, 0x26, 0xbe, 0x7f, 0xe1, 0x20, 0xbe, 0xfa, 0xeb, 0x53, 0x3e,
  0x94, 0x96, 0x9c, 0x3d, 0x9a, 0x85, 0xc5, 0x3b, 0x9a, 0x08, 0x0f, 0x3d,
  0xc2, 0x6b, 0x6f, 0xbd, 0x1e, 0x6c, 0xec, 0x3c, 0xbd, 0xca, 0xa1, 0x3e,
  0x86, 0xd0, 0x88, 0xbe, 0x17, 0x4e, 0x76, 0x3e, 0x71, 0xd9, 0x83, 0xbc,
  0xe2, 0x17, 0x00, 0x3e, 0xa1, 0x20, 0x25, 0x3d, 0x95, 0x94, 0x65, 0xbd,
  0x19, 0xb5, 0xf2, 0xbc, 0xa4, 0x9a, 0xc1, 0x3c, 0x36, 0xc6, 0x47, 0x3d,
  0x2f, 0x91, 0x9b, 0x3e, 0x1b, 0xf9, 0x82, 0xbe, 0xb9, 0x9f, 0xc8, 0x3c,
  0xc5, 0x2f, 0xbf, 0xbc, 0x4d, 0x9a, 0xdf, 0xbd, 0xeb, 0xdb, 0x8e, 0xbe,
  0x70, 0xb5, 0x62, 0x3d, 0x16, 0xbc, 0x80, 0xbe, 0x50, 0x2e, 0x91, 0x3e,
  0x9c, 0x81, 0x3c, 0xbe, 0xbd, 0xef, 0x5c, 0x3d, 0x2e, 0x65, 0xc9, 0xbc,
  0x28, 0xc2, 0xb0, 0xbe, 0x68, 0xbd, 0x1c, 0x3e, 0xa4, 0xe1, 0xfe, 0x3d,
  0xa2, 0x48, 0xae, 0xbe, 0x2a, 0x5a, 0xa4, 0xbd, 0x15, 0x70, 0xc2, 0xbd,
  0xd6, 0xcd, 0x8d, 0x3b, 0x01, 0x68, 0xd9, 0xbe, 0x42, 0xe0, 0x20, 0x3e,
  0x01, 0x96, 0x41, 0x3e, 0xb8, 0xb1, 0x59, 0x3d, 0x92, 0x43, 0x8b, 0x3e,
  0x15, 0x44, 0xd6, 0x3d, 0xca, 0xfb, 0x62, 0xbe, 0x72, 0xe4, 0xcd, 0xbe,
  0x97, 0x77, 0xf6, 0xbe, 0x08, 0xc8, 0xf8, 0x3b, 0xb5, 0x66, 0x3d, 0x3e,
  0xe3, 0xda, 0x42, 0x3d, 0x45, 0xe8, 0x59, 0x3e, 0xdd, 0x59, 0x1b, 0x3d,
  0xbc, 0xcc, 0x0e, 0x3e, 0xd8, 0x60, 0x26, 0xbe, 0xee, 0x75, 0x2d, 0xbe,
  0xbb, 0x4b, 0xb7, 0xbd, 0x31, 0xb9, 0x24, 0xbe, 0x06, 0x7d, 0x23, 0xbd,
  0x4c, 0x57, 0x80, 0xbd, 0x9a, 0xe2, 0xa7, 0x3e, 0x0b, 0xdf, 0x22, 0x3e,
  0x57, 0x7a, 0x0a, 0xbe, 0x08, 0x87, 0xba, 0xbe, 0xd3, 0x16, 0xfd, 0x3d,
  0x42, 0x5f, 0x93, 0x3d, 0x74, 0xeb, 0xb2, 0xbd, 0x9d, 0x39, 0xee, 0x3d,
  0xfe, 0x8b, 0x53, 0x3e, 0x01, 0x07, 0x06, 0x3d, 0xf7, 0xcc, 0xba, 0xbd,
  0xed, 0xd4, 0xf1, 0x3c, 0x28, 0x21, 0xc3, 0xbd, 0x9c, 0xe0, 0x98, 0x3d,
  0xe7, 0xda, 0xac, 0xbd, 0xb0, 0x9b, 0xb7, 0xbd, 0xf9, 0xe4, 0x68, 0xbe,
  0x6e, 0xde, 0xe0, 0xbd, 0x89, 0x6a, 0x46, 0x3d, 0xa8, 0x3b, 0x8d, 0x3b,
  0x16, 0x42, 0x65, 0xbe, 0xd2, 0x30, 0xe1, 0xba, 0x40, 0x1d, 0x84, 0x3d,
  0x0a, 0x80, 0x03, 0x3e, 0xd4, 0x38, 0x18, 0xbd, 0xc4, 0x8e, 0x2a, 0xbe,
  0x5f, 0x35, 0x5c, 0xbe, 0x6d, 0x8c, 0xe8, 0xbb, 0x17, 0xba, 0xf0, 0x3d,
  0x8b, 0xda, 0x95, 0xbe, 0x4d, 0xba, 0x86, 0xbe, 0x04, 0x03, 0xa4, 0x3d,
  0xcc, 0x12, 0x00, 0x3e, 0x18, 0x72, 0x6b, 0xbe, 0x5e, 0x2d, 0x94, 0xbd,
  0x63, 0x59, 0x91, 0xbc, 0x3a, 0x97, 0x86, 0xbe, 0x95, 0x47, 0xdc, 0x3c,
  0xd3, 0xd8, 0x97, 0x3d, 0x54, 0xdb, 0xe6, 0xbd, 0xf5, 0x08, 0x72, 0xbe,
  0x9c, 0x13, 0x12, 0xbe, 0x36, 0xfa, 0xe7, 0x3d, 0x08, 0x50, 0x75, 0xbe,
  0x42, 0x5f, 0x03, 0xbd, 0x5e, 0x22, 0x02, 0x3d, 0x3d, 0x8f, 0x8a, 0xbe,
  0xcd, 0x5e, 0xaa, 0xbb, 0x11, 0x62, 0x02, 0xbf, 0xcb, 0x80, 0x76, 0xbe,
  0xfb, 0xbf, 0x18, 0x3e, 0xad, 0xa0, 0xfb, 0xbd, 0xcd, 0xa9, 0x59, 0x3e,
  0x3b, 0x6b, 0xe7, 0x3d, 0xc7, 0x0c, 0x1c, 0x3e, 0x66, 0x83, 0x07, 0x3e,
  0x7e, 0x8e, 0x84, 0xbe, 0x46, 0xa1, 0xa5, 0x3c, 0x92, 0xbd, 0x1a, 0x3e,
  0xa8, 0x4d, 0x63, 0xbd, 0x51, 0xff, 0x2b, 0x3e, 0x56, 0xee, 0xa4, 0xbd,
  0xd0, 0x2d, 0x6d, 0x3e, 0x7a, 0xce, 0x0e, 0x3e, 0x44, 0x44, 0xa9, 0xbe,
  0xf9, 0x2a, 0x19, 0x3e, 0x8c, 0xb9, 0x26, 0xbe, 0x14, 0xe1, 0x23, 0x3e,
  0x9c, 0x8a, 0xaa, 0xbd, 0x57, 0xe9, 0x0e, 0x3e, 0x89, 0xee, 0x2c, 0xbe,
  0xe4, 0x14, 0x66, 0x3e, 0xe2, 0xca, 0x8c, 0xbe, 0xb7, 0x1e, 0x1e, 0xbe,
  0x0f, 0x2f, 0xa5, 0xbd, 0xb4, 0x13, 0xc2, 0xbe, 0x53, 0x76, 0xc7, 0x3d,
  0x72, 0x2d, 0x9d, 0x3d, 0x64, 0xd1, 0x84, 0xbe, 0xcd, 0x46, 0x8a, 0xbd,
  0xaa, 0x13, 0x92, 0x3e, 0x9e, 0xf6, 0x09, 0xbe, 0x12, 0x33, 0xd1, 0xbe,
  0x7b, 0x16, 0xcb, 0xbd, 0x3d, 0x81, 0x9a, 0xbc, 0xde, 0xc7, 0x2f, 0xbe,
  0xdc, 0xa7, 0x79, 0xbe, 0xb8, 0x87, 0x76, 0x3e, 0xa2, 0x16, 0xdb, 0x3c,
  0x3d, 0xb9, 0x45, 0xbe, 0x88, 0xe1, 0x03, 0xbf, 0x67, 0x11, 0xc2, 0xbc,
  0x9a, 0xa0, 0xf7, 0x3d, 0xe1, 0x8d, 0x2b, 0x3e, 0x67, 0x80, 0x8f, 0xbe,
  0x07, 0xef, 0x2b, 0xbd, 0xd3, 0xab, 0x30, 0x3e, 0x40, 0x58, 0x41, 0x3e,
  0xf8, 0x82, 0x62, 0xbe, 0xd8, 0xb5, 0x92, 0x3b, 0x89, 0xe3, 0x3e, 0x3d,
  0x10, 0x1f, 0x9a, 0xbd, 0xfa, 0x8c, 0x9a, 0xbc, 0x6e, 0x94, 0x1f, 0x3e,
  0xbc, 0x93, 0x2f, 0xbe, 0x80, 0x7a, 0xea, 0xbd, 0x47, 0x7b, 0xd3, 0xbd,
  0x38, 0x1a, 0x9d, 0xbd, 0x5e, 0x4e, 0x55, 0x3e, 0xb7, 0xa5, 0x07, 0xbe,
  0x8d, 0x58, 0xe3, 0x3d, 0xac, 0x26, 0x98, 0xbe, 0x3b, 0x24, 0x53, 0xbe,
  0x72, 0x5d, 0x13, 0xbd, 0xf1, 0x94, 0xb7, 0xbc, 0x02, 0x7d, 0x3b, 0x3d,
  0xa9, 0xe2, 0xb8, 0xbd, 0x6f, 0x19, 0xfc, 0xbd, 0xca, 0x2a, 0xf4, 0x3c,
  0x4b, 0x26, 0xef, 0x3d, 0x3c, 0x99, 0x07, 0xbf, 0xcc, 0xbf, 0xed, 0x3d,
  0x52, 0xbe, 0x71, 0x3e, 0x1d, 0xbd, 0x81, 0xbe, 0x15, 0x0e, 0x8e, 0x3b,
  0x07, 0x59, 0x42, 0xbe, 0x3c, 0xb4, 0x9a, 0xbd, 0xb1, 0x5c, 0x3e, 0x3e,
  0xaf, 0xd8, 0x65, 0xbe, 0x2c, 0x51, 0xdc, 0x3d, 0xc5, 0xe2, 0x3f, 0x3e,
  0x98, 0xa1, 0x12, 0x3d, 0xc2, 0x17, 0x42, 0x3e, 0x47, 0x25, 0xe8, 0x3d,
  0xfd, 0x8a, 0x3a, 0x3d, 0xe0, 0x42, 0x97, 0x3d, 0xe5, 0xec, 0xa8, 0xbe,
  0x8b, 0xd7, 0x28, 0x3e, 0x99, 0xeb, 0xf5, 0xbd, 0xf8, 0xd3, 0x24, 0x3d,
  0x24, 0x57, 0x64, 0xbe, 0x1f, 0xad, 0xa2, 0x3c, 0x7f, 0x2a, 0x37, 0xbd,
  0x93, 0x56, 0x81, 0xbd, 0xd5, 0xe3, 0xf8, 0xbd, 0xd0, 0xd4, 0x1e, 0xbc,
  0x1e, 0x72, 0xd9, 0x3d, 0xe5, 0x22, 0x44, 0x3e, 0x68, 0x42, 0x47, 0x3d,
  0xab, 0x4e, 0x95, 0x3d, 0x78, 0x98, 0xc9, 0xbd, 0x91, 0x73, 0x8f, 0xbe,
  0x44, 0xb0, 0x4d, 0x3e, 0xa6, 0x05, 0xe4, 0xbc, 0xc0, 0x51, 0xe6, 0x3d,
  0x6f, 0x7f, 0xd1, 0x3d, 0x19, 0x23, 0x36, 0xbe, 0xc0, 0xcc, 0x49, 0xbe,
  0xe5, 0x92, 0x32, 0x3e, 0xaf, 0x38, 0xb9, 0xbe, 0x28, 0xed, 0x37, 0x3d,
  0xd9, 0xec, 0x8a, 0xbe, 0x9b, 0x28, 0x0d, 0x3e, 0x49, 0x15, 0x42, 0xbe,
  0xf9, 0xc7, 0x1c, 0xbc, 0xf9, 0xff, 0xb5, 0x3d, 0xc4, 0xd4, 0x1d, 0x3e,
  0x6f, 0xfb, 0x2a, 0xbe, 0x39, 0x46, 0xf9, 0x3d, 0xb3, 0x00, 0x57, 0xbe,
  0x23, 0x91, 0x25, 0xbc, 0xd5, 0xca, 0xa3, 0x3d, 0x2e, 0x52, 0x82, 0x3e,
  0x12, 0xfb, 0xa5, 0x3e, 0x71, 0xb9, 0xb7, 0xbe, 0x10, 0xfa, 0x9b, 0x3d,
  0x00, 0x68, 0x8c, 0x3e, 0x5e, 0x07, 0x09, 0x3e, 0xd0, 0x7e, 0x4c, 0xbe,
  0xa9, 0x82, 0x2b, 0xbe, 0x7a, 0xb8, 0x66, 0x3e, 0x78, 0xf4, 0x9f, 0xbd,
  0x5b, 0xcd, 0xc1, 0xbe, 0xb6, 0x3e, 0x54, 0x3e, 0x17, 0x3c, 0xbc, 0x3e,
  0xc3, 0xfd, 0x99, 0xbd, 0x0c, 0xc9, 0x7a, 0xbe, 0x0c, 0x7c, 0x2e, 0x3e,
  0x5c, 0x3e, 0xe6, 0xbd, 0x44, 0x8d, 0x70, 0x3e, 0xd2, 0x2c, 0xf9, 0xbd,
  0xa9, 0x97, 0x72, 0x3d, 0x75, 0x02, 0x9c, 0x3e, 0x37, 0xad, 0x6a, 0x3e,
  0xbe, 0x16, 0x80, 0xbe, 0xe5, 0x1f, 0x70, 0xbe, 0xb5, 0xaf, 0xfd, 0xbd,
  0x43, 0xf9, 0x60, 0x3e, 0x27, 0xfd, 0x6a, 0xbe, 0xce, 0x16, 0x33, 0x3d,
  0x8a, 0x34, 0xaf, 0xbd, 0x5d, 0xcd, 0x0f, 0xbe, 0x73, 0xb0, 0x00, 0x3c,
  0x8d, 0x85, 0x99, 0xbd, 0x43, 0x41, 0x76, 0xbd, 0xf6, 0x3f, 0xbc, 0xbd,
  0x0b, 0x4a, 0x88, 0x3d, 0xda, 0xf0, 0x08, 0xbe, 0xe2, 0xf6, 0x0b, 0xbe,
  0x09, 0x4d, 0x04, 0x3e, 0x7e, 0x71, 0x90, 0xbe, 0x88, 0x7a, 0x2b, 0x3e,
  0x5f, 0x41, 0x98, 0xbe, 0x8b, 0x24, 0x12, 0xbe, 0x5b, 0x57, 0xb4, 0xbe,
  0x63, 0xb8, 0x3f, 0xbe, 0x5c, 0x1b, 0xd3, 0x3d, 0x74, 0xdd, 0x33, 0xbc,
  0x01, 0x30, 0x6d, 0xbe, 0xa9, 0x49, 0x47, 0xbd, 0xd5, 0xf4, 0x73, 0xbe,
  0x92, 0x5f, 0x9a, 0xbe, 0x79, 0x49, 0x4c, 0xbd, 0x56, 0x79, 0xa8, 0xbe,
  0xa0, 0xc2, 0x84, 0x3d, 0x10, 0xe0, 0xac, 0xbd, 0xde, 0x0a, 0x59, 0x3e,
  0x87, 0x42, 0x36, 0xbe, 0xc7, 0x6a, 0x14, 0x3d, 0x90, 0x65, 0x37, 0x3d,
  0x43, 0xee, 0x8d, 0xbe, 0xa2, 0xfd, 0x51, 0xbe, 0x81, 0xe4, 0x2b, 0xbd,
  0xfc, 0x8c, 0xd0, 0xbd, 0xd6, 0xd8, 0x1a, 0x3d, 0x85, 0x24, 0x0a, 0xbe,
  0xb7, 0x0d, 0x8c, 0x3d, 0x45, 0x3d, 0xcb, 0x3c, 0x27, 0x9a, 0xfd, 0xbd,
  0x0d, 0xe4, 0xe4, 0xbd, 0xbd, 0x92, 0xf7, 0x3b, 0x2d, 0xd7, 0x84, 0xbe,
  0x6e, 0x35, 0xc2, 0xbc, 0xc3, 0xd9, 0x50, 0x3e, 0x05, 0x2b, 0x51, 0x3e,
  0x2c, 0x29, 0x08, 0xbe, 0xb2, 0xd8, 0x6f, 0xbe, 0x06, 0xf5, 0x65, 0x3e,
  0x27, 0xb5, 0xce, 0xbc, 0xf6, 0x2d, 0x53, 0x3e, 0x27, 0xb9, 0xb6, 0xbd,
  0x71, 0x58, 0x66, 0x3e, 0x5b, 0x98, 0xba, 0x3d, 0x91, 0x4a, 0x01, 0xbe,
  0x1e, 0xe4, 0x38, 0x3e, 0xc6, 0x7b, 0xc1, 0x3d, 0xdb, 0x04, 0xd9, 0x3d,
  0x52, 0x72, 0xbc, 0x3c, 0xfa, 0x3e, 0xbb, 0xbd, 0x7f, 0x10, 0x52, 0xbd,
  0x04, 0x76, 0xad, 0xbe, 0x25, 0x20, 0xf8, 0x3d, 0x0f, 0xda, 0x50, 0xbe,
  0x84, 0x25, 0xe0, 0xbd, 0xac, 0x08, 0x58, 0xbe, 0x72, 0xe1, 0x5d, 0x3d,
  0x63, 0xf1, 0x8f, 0xbd, 0x2a, 0x06, 0x29, 0xbe, 0x2f, 0xcd, 0xc6, 0xbd,
  0xc3, 0x7a, 0xdd, 0x3d, 0x29, 0xd3, 0x20, 0x3c, 0xe9, 0x04, 0xca, 0xbc,
  0xc9, 0x15, 0xa7, 0xbe, 0x2e, 0xf6, 0xc1, 0x3e, 0x6c, 0x89, 0x75, 0x39,
  0x7d, 0x3d, 0x8f, 0xbd, 0x7b, 0x09, 0x6a, 0x3e, 0x0a, 0x8d, 0xed, 0x3c,
  0x68, 0x68, 0x98, 0x3b, 0xda, 0xad, 0x9d, 0x3d, 0xe1, 0x3d, 0xc3, 0xbe,
  0xc5, 0x17, 0x63, 0x3d, 0x36, 0xb4, 0x79, 0x3e, 0x32, 0xbd, 0x53, 0x3e,
  0xcf, 0x75, 0x3c, 0x3e, 0xd9, 0x9e, 0x05, 0xbe, 0x61, 0x2f, 0x26, 0x3e,
  0x87, 0xf0, 0x07, 0xbe, 0x75, 0x07, 0xb0, 0xbe, 0x58, 0x7d, 0x58, 0xbd,
  0x07, 0x97, 0xbf, 0xbc, 0x3c, 0x0d, 0x0b, 0xbe, 0xde, 0x96, 0x8c, 0x3d,
  0x44, 0x54, 0x92, 0x3e, 0x71, 0x14, 0xcf, 0xba, 0x27, 0xe7, 0x37, 0xbe,
  0x40, 0x82, 0x78, 0xbd, 0x97, 0xe0, 0x73, 0x3e, 0x32, 0xde, 0x0a, 0xbe,
  0xf7, 0x6c, 0x36, 0x3e, 0xb3, 0xc4, 0xc9, 0x3e, 0x8b, 0xd2, 0x30, 0xbd,
  0xfd, 0x04, 0xc1, 0x3c, 0x39, 0x42, 0x9e, 0x3d, 0x4e, 0x3e, 0x2d, 0xbd,
  0x14, 0xd0, 0x18, 0x3e, 0xfc, 0x78, 0x8f, 0xbd, 0x7a, 0x74, 0x47, 0xbe,
  0x1d, 0x85, 0xbd, 0x3e, 0xa4, 0x1c, 0xa4, 0x3e, 0xf8, 0x11, 0x86, 0xbd,
  0x41, 0x6e, 0xb4, 0x3d, 0x75, 0x2f, 0x4f, 0xbe, 0x42, 0xaf, 0x9a, 0x3e,
  0x92, 0x89, 0x35, 0xbe, 0x43, 0x27, 0x78, 0x3e, 0x0c, 0x07, 0x73, 0x3e,
  0x23, 0xad, 0xed, 0x3a, 0xef, 0x14, 0x27, 0x3e, 0x63, 0xec, 0x49, 0xbc,
  0x93, 0x9b, 0x6a, 0x3b, 0xbc, 0x1a, 0x34, 0x3d, 0x51, 0xd4, 0x0d, 0xbe,
  0xae, 0xe7, 0x0a, 0x3e, 0x93, 0xbf, 0x8d, 0x3e, 0x83, 0xf0, 0xa2, 0x3e,
  0xb2, 0x8d, 0x6b, 0x3e, 0xd6, 0xee, 0x7e, 0xbb, 0x22, 0x72, 0x8b, 0xbe,
  0xe5, 0x3c, 0xe5, 0xbd, 0x31, 0x78, 0x68, 0x3e, 0xf6, 0x7d, 0x16, 0x3e,
  0x61, 0xa3, 0xf1, 0xbd, 0xc1, 0x4a, 0x13, 0xbe, 0xe1, 0x5e, 0x08, 0x3e,
  0xd0, 0x93, 0xd3, 0xbe, 0xae, 0x7f, 0x80, 0x3e, 0xba, 0x54, 0xaa, 0xbe,
  0xdf, 0x35, 0x28, 0x3e, 0x50, 0x74, 0xff, 0x3d, 0x03, 0x20, 0x27, 0xbe,
  0x60, 0xef, 0xb4, 0x3d, 0x4f, 0x51, 0x00, 0xbe, 0x78, 0xcd, 0x46, 0xbe,
  0x07, 0xdf, 0x06, 0x3e, 0x2e, 0xa3, 0x3d, 0xbe, 0xce, 0x64, 0xb9, 0x3e,
  0x1d, 0xb8, 0x14, 0x3e, 0x09, 0x89, 0x3c, 0xbe, 0x8d, 0xc2, 0x56, 0x3d,
  0xa2, 0xe5, 0x43, 0x3e, 0xc4, 0x21, 0x94, 0xbe, 0x55, 0x1d, 0x22, 0x3e,
  0x1d, 0x8b, 0xa2, 0xbe, 0x39, 0x19, 0xbd, 0x3e, 0xb7, 0xe8, 0x17, 0x3d,
  0x90, 0x5c, 0xc3, 0xbd, 0x01, 0x8d, 0x8a, 0xbe, 0x36, 0xa0, 0x83, 0x3d,
  0xe5, 0x7b, 0x4f, 0xbe, 0x2f, 0xd3, 0x28, 0xbd, 0x0c, 0xc4, 0x30, 0xbe,
  0x4a, 0x06, 0x45, 0xbe, 0x13, 0x38, 0xd4, 0xbd, 0x14, 0x47, 0x16, 0x3d,
  0xd2, 0x5c, 0x0f, 0x3e, 0x8e, 0x45, 0x14, 0x3d, 0xd3, 0x3b, 0x54, 0x3e,
  0xf0, 0x00, 0x4d, 0x3e, 0xf5, 0x5d, 0x4c, 0xbe, 0x4b, 0x46, 0x90, 0xbe,
  0x62, 0x05, 0x3a, 0x3e, 0x6a, 0x5a, 0x66, 0x3e, 0x2f, 0xe9, 0x82, 0x3e,
  0x9d, 0x47, 0x8e, 0xbe, 0x03, 0x20, 0x4d, 0xbc, 0x5c, 0x34, 0x23, 0xbe,
  0x53, 0x50, 0x99, 0x3e, 0xf0, 0x23, 0xb7, 0xbd, 0x3b, 0xf6, 0x1c, 0xbe,
  0xed, 0xec, 0xa6, 0x3d, 0x37, 0x7e, 0x21, 0x3e, 0xee, 0x28, 0x6a, 0xbc,
  0x10, 0x79, 0xab, 0x3c, 0x38, 0xe5, 0x2a, 0xbe, 0x8b, 0x5a, 0x7c, 0x3e,
  0xe1, 0x65, 0x6d, 0xbe, 0xe6, 0xac, 0x91, 0xbc, 0x82, 0xa0, 0x08, 0xbe,
  0x0c, 0x26, 0x0d, 0x3c, 0xed, 0x4e, 0x8f, 0xbd, 0x07, 0x15, 0x9c, 0xbd,
  0xfe, 0x74, 0x37, 0x3e, 0x75, 0x4b, 0x14, 0xbe, 0x1c, 0x19, 0x92, 0xbe,
  0x20, 0x4a, 0xc3, 0xbe, 0x9c, 0xa1, 0xf3, 0xbd, 0x79, 0x0d, 0x72, 0x3c,
  0x20, 0x63, 0x9f, 0xbd, 0x47, 0x0b, 0x9a, 0x3d, 0xc8, 0x83, 0xb7, 0x3e,
  0x5e, 0xea, 0x6c, 0x3d, 0x0a, 0x41, 0x22, 0xbc, 0x59, 0x2d, 0x89, 0xbe,
  0xa1, 0x37, 0x72, 0xbb, 0x04, 0xca, 0x9c, 0x3d, 0xae, 0x33, 0xaa, 0xbe,
  0x6c, 0xb4, 0x12, 0x3e, 0xf4, 0x83, 0xb3, 0x3d, 0x69, 0xf5, 0xdc, 0xbc,
  0x09, 0xec, 0x94, 0xbe, 0xf0, 0xce, 0x46, 0x3e, 0xd4, 0x6d, 0xbd, 0xbd,
  0xe4, 0x8a, 0xb5, 0xbd, 0xba, 0xf8, 0x46, 0xbd, 0xae, 0xd3, 0x16, 0x3d,
  0x4b, 0x94, 0xa6, 0x3e, 0x3e, 0xa6, 0x12, 0xbe, 0x4b, 0x99, 0xb8, 0xbe,
  0xd1, 0x5c, 0x6c, 0xbe, 0x63, 0xd1, 0xe0, 0xbd, 0x5d, 0x76, 0xc6, 0x3d,
  0x64, 0x9e, 0x28, 0xbe, 0x5a, 0x2a, 0x0f, 0xbe, 0x74, 0x13, 0x9c, 0x3e,
  0xf1, 0x30, 0xdc, 0xbd, 0x26, 0xde, 0xff, 0xff, 0x10, 0x00, 0x00, 0x00,
  0x0a, 0x00, 0x00, 0x00, 0x1c, 0x00, 0x00, 0x00, 0x38, 0x00, 0x00, 0x00,
  0x04, 0x00, 0x00, 0x00, 0x10, 0x00, 0x00, 0x00, 0x04, 0x00, 0x00, 0x00,
  0x01, 0x00, 0x00, 0x00, 0x08, 0x00, 0x00, 0x00, 0x1a, 0x00, 0x00, 0x00,
  0x73, 0x65, 0x71, 0x75, 0x65, 0x6e, 0x74, 0x69, 0x61, 0x6c, 0x2f, 0x63,
  0x6f, 0x6e, 0x76, 0x32, 0x64, 0x5f, 0x31, 0x2f, 0x43, 0x6f, 0x6e, 0x76,
  0x32, 0x44, 0x00, 0x00, 0x9c, 0xdd, 0xff, 0xff, 0xa6, 0xde, 0xff, 0xff,
  0x04, 0x00, 0x00, 0x00, 0x80, 0x01, 0x00, 0x00, 0xe5, 0x2e, 0xeb, 0xbd,
  0x9a, 0xb7, 0x3c, 0xbe, 0x6b, 0xb9, 0xb4, 0xbe, 0x5f, 0x6d, 0xbb, 0xbd,
  0x0e, 0x5f, 0xf9, 0x3c, 0x5d, 0xa7, 0xff, 0xbd, 0xe0, 0xd1, 0x44, 0x3e,
  0x9c, 0x1c, 0x2b, 0x3e, 0xfc, 0x09, 0x13, 0xbe, 0xfb, 0xf0, 0x9e, 0xbc,
  0x88, 0x00, 0x6f, 0xbd, 0x49, 0xa4, 0x8c, 0xbe, 0xc7, 0x09, 0xdc, 0xbd,
  0x84, 0x4c, 0x08, 0xbc, 0x95, 0xeb, 0x98, 0x3d, 0x54, 0x6d, 0xf3, 0xbc,
  0x88, 0xa1, 0x22, 0x3e, 0x1b, 0x0a, 0x71, 0x3e, 0x92, 0x71, 0x87, 0xbe,
  0x7b, 0xdd, 0x2d, 0xbe, 0x13, 0xdd, 0x53, 0xbe, 0x3e, 0x85, 0xfd, 0x3d,
  0x6f, 0x8a, 0x5e, 0xbd, 0x97, 0x0e, 0x63, 0xbe, 0x37, 0x96, 0x8d, 0x3e,
  0x9d, 0x90, 0x4f, 0x3d, 0xf3, 0x3e, 0x7f, 0x3e, 0x65, 0xec, 0x8b, 0x3d,
  0x08, 0x4c, 0x07, 0x3e, 0xf2, 0xa9, 0xed, 0xbd, 0x70, 0x77, 0x92, 0x3e,
  0x2b, 0x39, 0x27, 0xbe, 0xe0, 0x86, 0xe2, 0xbd, 0x1c, 0x84, 0x38, 0x3e,
  0xac, 0x70, 0x36, 0x3d, 0x21, 0xb4, 0x3d, 0x3e, 0x75, 0xc3, 0x87, 0x3d,
  0x76, 0xa7, 0xc8, 0x3d, 0x85, 0x94, 0x8e, 0xbd, 0x09, 0xdb, 0x2c, 0xbd,
  0x85, 0xce, 0x7c, 0xbe, 0x18, 0x8f, 0x02, 0x3e, 0x1c, 0x71, 0x0f, 0x3d,
  0x65, 0x53, 0x00, 0xbd, 0x32, 0x1f, 0x8b, 0x3d, 0x88, 0x3e, 0xd5, 0xbc,
  0xb4, 0xa8, 0x96, 0x3d, 0x8b, 0x40, 0xe4, 0xbc, 0xf5, 0x6a, 0xec, 0x3d,
  0x7f, 0x65, 0x3d, 0xbe, 0x06, 0x72, 0xfa, 0xbd, 0x7e, 0x3c, 0x38, 0x3d,
  0xae, 0xd1, 0x49, 0xbe, 0x90, 0x4d, 0x87, 0xbd, 0xf2, 0x6e, 0xad, 0xbd,
  0x6e, 0x07, 0x80, 0x3d, 0xc1, 0xa9, 0xbd, 0xbd, 0x71, 0xe9, 0xef, 0x3d,
  0xe9, 0xae, 0xc7, 0xbc, 0x5c, 0xa8, 0x26, 0xbe, 0xad, 0x94, 0x1f, 0x3e,
  0xc9, 0x00, 0x10, 0x3e, 0x79, 0x23, 0x2c, 0xbd, 0xe1, 0xeb, 0xdd, 0x3d,
  0x6c, 0xb9, 0x30, 0x3d, 0x74, 0x84, 0xe6, 0x3d, 0x23, 0xe9, 0x89, 0x3d,
  0x4d, 0x70, 0xed, 0x3d, 0xe5, 0xf3, 0xbf, 0xbd, 0x60, 0x4e, 0xad, 0xbd,
  0x25, 0xc0, 0x19, 0x3d, 0xf7, 0x74, 0xb8, 0x3d, 0x10, 0xac, 0xde, 0xbc,
  0x5e, 0x62, 0x1b, 0xbe, 0xf0, 0xb5, 0x32, 0x3e, 0xa9, 0x30, 0x14, 0xbe,
  0x08, 0x12, 0x2f, 0x3d, 0x68, 0xe4, 0x91, 0x3c, 0x4e, 0xc3, 0x9f, 0x3c,
  0x61, 0x71, 0x89, 0xbe, 0x40, 0x25, 0xb3, 0x3c, 0x2b, 0x53, 0x03, 0xbd,
  0x3e, 0x84, 0x76, 0xbe, 0xe3, 0x95, 0xa7, 0x3e, 0x69, 0x65, 0x10, 0x3e,
  0x31, 0x05, 0x2b, 0xbe, 0xd6, 0xb8, 0xd1, 0x3d, 0x14, 0x51, 0x42, 0x3e,
  0xb6, 0xa1, 0x0f, 0x3e, 0xfb, 0x38, 0x03, 0xbe, 0x8a, 0xb8, 0x84, 0x3d,
  0x1d, 0xb9, 0x8d, 0xbd, 0xd4, 0xf8, 0x1b, 0x3e, 0xba, 0xaf, 0x59, 0x3e,
  0xdc, 0x91, 0x0a, 0x3d, 0x14, 0x7a, 0x6a, 0x3d, 0xfe, 0xdf, 0xff, 0xff,
  0x10, 0x00, 0x00, 0x00, 0x09, 0x00, 0x00, 0x00, 0x1c, 0x00, 0x00, 0x00,
  0x38, 0x00, 0x00, 0x00, 0x04, 0x00, 0x00, 0x00, 0x08, 0x00, 0x00, 0x00,
  0x04, 0x00, 0x00, 0x00, 0x03, 0x00, 0x00, 0x00, 0x01, 0x00, 0x00, 0x00,
  0x18, 0x00, 0x00, 0x00, 0x73, 0x65, 0x71, 0x75, 0x65, 0x6e, 0x74, 0x69,
  0x61, 0x6c, 0x2f, 0x63, 0x6f, 0x6e, 0x76, 0x32, 0x64, 0x2f, 0x43, 0x6f,
  0x6e, 0x76, 0x32, 0x44, 0x00, 0x00, 0x00, 0x00, 0x74, 0xdf, 0xff, 0xff,
  0x7e, 0xe0, 0xff, 0xff, 0x04, 0x00, 0x00, 0x00, 0xc0, 0x00, 0x00, 0x00,
  0xe4, 0xba, 0x24, 0x3e, 0x10, 0x05, 0x97, 0xbd, 0xba, 0x11, 0xa6, 0x3c,
  0x85, 0xd9, 0xb0, 0x3e, 0x97, 0x14, 0xfe, 0xbe, 0xa1, 0x96, 0x65, 0xbe,
  0x10, 0xc0, 0xbb, 0x3e, 0xc0, 0xe3, 0x58, 0xbe, 0xc5, 0x11, 0x34, 0x3f,
  0x15, 0xbf, 0xc5, 0x3e, 0x23, 0xf1, 0x8c, 0xbe, 0xf3, 0xa3, 0x2b, 0x3e,
  0x2c, 0xf0, 0x42, 0xbe, 0xd9, 0xa3, 0xcd, 0xbe, 0x3a, 0xd4, 0x56, 0x3e,
  0x41, 0xa7, 0x1f, 0x3f, 0xa9, 0x86, 0x8e, 0xbe, 0x74, 0x68, 0x9f, 0xbe,
  0x59, 0x8d, 0x04, 0xbf, 0x28, 0xd6, 0xe2, 0xbd, 0x23, 0xfe, 0xf3, 0x3e,
  0x4c, 0x28, 0xed, 0x3d, 0x7d, 0xbd, 0x82, 0x3e, 0xa5, 0x6e, 0xe6, 0x3e,
  0xb5, 0xc6, 0x20, 0xbf, 0x7b, 0x6e, 0x8b, 0x3d, 0x26, 0x71, 0xf9, 0x3e,
  0xdc, 0x91, 0x40, 0xbc, 0x07, 0xdd, 0x51, 0xbe, 0xd9, 0xf3, 0x9f, 0x3d,
  0x59, 0xce, 0x92, 0x3e, 0xfb, 0x09, 0x8c, 0x3d, 0x0c, 0x8d, 0x83, 0x3e,
  0x01, 0x0e, 0x93, 0xbd, 0x3c, 0x68, 0xcd, 0xbe, 0xca, 0x7b, 0x01, 0x3e,
  0xaa, 0xba, 0x1e, 0xbd, 0x3c, 0xe0, 0x53, 0xbe, 0x0c, 0xe1, 0x54, 0xbe,
  0x3f, 0xbc, 0x87, 0x3e, 0x79, 0x75, 0x98, 0xbe, 0x79, 0xc4, 0xd2, 0xbe,
  0x51, 0xab, 0x87, 0x3e, 0xc6, 0xac, 0xa6, 0xbd, 0xe7, 0x20, 0x14, 0xbe,
  0xdd, 0x31, 0xf5, 0xbd, 0x57, 0x09, 0xab, 0x3e, 0xae, 0x12, 0xc0, 0xbe,
  0x16, 0xe1, 0xff, 0xff, 0x10, 0x00, 0x00, 0x00, 0x08, 0x00, 0x00, 0x00,
  0x14, 0x00, 0x00, 0x00, 0x30, 0x00, 0x00, 0x00, 0x02, 0x00, 0x00, 0x00,
  0x03, 0x00, 0x00, 0x00, 0x10, 0x00, 0x00, 0x00, 0x19, 0x00, 0x00, 0x00,
  0x73, 0x65, 0x71, 0x75, 0x65, 0x6e, 0x74, 0x69, 0x61, 0x6c, 0x2f, 0x64,
  0x65, 0x6e, 0x73, 0x65, 0x5f, 0x31, 0x2f, 0x4d, 0x61, 0x74, 0x4d, 0x75,
  0x6c, 0x00, 0x00, 0x00, 0x84, 0xe0, 0xff, 0xff, 0x8e, 0xe1, 0xff, 0xff,
  0x04, 0x00, 0x00, 0x00, 0x00, 0x1c, 0x00, 0x00, 0x77, 0x8b, 0x91, 0xbe,
  0xa5, 0x1c, 0xdf, 0xbd, 0x4e, 0x1a, 0xff, 0x3d, 0x75, 0xdd, 0x1a, 0x3e,
  0x0e, 0x41, 0x45, 0x3e, 0x51, 0xf3, 0x0c, 0x3c, 0xd1, 0x62, 0x86, 0x3e,
  0x56, 0xd7, 0x1e, 0xbe, 0x84, 0xc0, 0x33, 0xbe, 0x9c, 0xb7, 0x10, 0x3e,
  0x01, 0x40, 0x5b, 0xbd, 0xcf, 0x07, 0x8f, 0x3e, 0xb1, 0xe1, 0x76, 0x3e,
  0x04, 0x49, 0x16, 0xbe, 0xf2, 0x4b, 0x8d, 0xbc, 0x5a, 0x25, 0xab, 0xbe,
  0x42, 0x3b, 0xe9, 0xbe, 0x2e, 0x60, 0x9f, 0xbe, 0xac, 0xeb, 0xb4, 0x3c,
  0x96, 0x6c, 0x81, 0xbd, 0x63, 0x59, 0x21, 0x3d, 0xef, 0xf4, 0xd4, 0xba,
  0x5a, 0x51, 0xac, 0x3c, 0x41, 0xe6, 0x1c, 0xbe, 0x7e, 0x5c, 0x22, 0xbe,
  0x65, 0x2d, 0x9e, 0x3c, 0xde, 0x63, 0x36, 0xbe, 0x3c, 0x17, 0x8e, 0x3e,
  0x16, 0x83, 0x0d, 0x3e, 0x76, 0xaa, 0x9f, 0xbd, 0x24, 0xc3, 0xb4, 0xbd,
  0xdf, 0xaf, 0x9d, 0xbd, 0x3a, 0xf8, 0xdb, 0xbe, 0xb3, 0x96, 0x8d, 0xbe,
  0x33, 0x57, 0x6c, 0xbd, 0x11, 0x54, 0x1b, 0xbe, 0x47, 0x90, 0x1c, 0x3e,
  0x32, 0x89, 0x12, 0xbe, 0xd2, 0x0f, 0x51, 0x3d, 0xbf, 0x33, 0x37, 0x3e,
  0x5a, 0x0b, 0xb9, 0x3c, 0xf3, 0x0d, 0x39, 0xbe, 0x28, 0x41, 0x22, 0x3d,
  0x7d, 0xb1, 0xfa, 0x3e, 0xfd, 0xa9, 0x7f, 0x3e, 0xb5, 0x70, 0x35, 0x3d,
  0x2f, 0x0b, 0x15, 0xbe, 0xd9, 0x72, 0x8e, 0xbe, 0x57, 0xff, 0x7d, 0xbe,
  0x14, 0x55, 0x80, 0xbe, 0x01, 0xe4, 0x43, 0xbe, 0x78, 0xb5, 0x88, 0xbd,
  0xf2, 0x02, 0x4e, 0x3e, 0x1a, 0x13, 0x56, 0xbe, 0xc9, 0x85, 0x91, 0x3b,
  0xae, 0xf1, 0xe1, 0xbd, 0xf1, 0x83, 0xc6, 0xbd, 0x03, 0x77, 0xcf, 0x3d,
  0xdd, 0x9e, 0x01, 0x3d, 0x50, 0xa1, 0x97, 0x3e, 0xa8, 0x2b, 0x3e, 0x3d,
  0x02, 0xb6, 0xa4, 0xbd, 0x89, 0xd2, 0x3a, 0xbc, 0x0d, 0xfd, 0xb5, 0xbe,
  0xe2, 0x3a, 0x81, 0xbe, 0x84, 0x1d, 0x15, 0xba, 0xd9, 0x98, 0xb8, 0xbd,
  0x72, 0x39, 0x30, 0x3d, 0xd2, 0x60, 0x1d, 0x3e, 0x20, 0x4d, 0x46, 0xbc,
  0x08, 0x81, 0x11, 0x3d, 0x83, 0x27, 0xff, 0xbc, 0xed, 0xe7, 0x3e, 0xbe,
  0xf4, 0x76, 0xf3, 0xbc, 0x24, 0x8a, 0x83, 0x3d, 0xba, 0xe2, 0xaf, 0x3d,
  0x46, 0xba, 0xfd, 0x3d, 0xe8, 0xa8, 0x32, 0xbc, 0x34, 0xb3, 0x32, 0xbd,
  0x1a, 0xea, 0x38, 0xbe, 0xcc, 0x21, 0x92, 0xbe, 0x73, 0x48, 0x8c, 0xbe,
  0x69, 0x4e, 0xac, 0x3b, 0xbd, 0x2c, 0x2a, 0x3d, 0xa5, 0x0b, 0x39, 0x3e,
  0xc3, 0x74, 0x3a, 0xbe, 0xfd, 0x05, 0x29, 0x3d, 0xf5, 0xe2, 0x40, 0x3d,
  0x9c, 0x1e, 0x1d, 0xbe, 0x42, 0x09, 0x32, 0xbe, 0x6a, 0x92, 0xc7, 0xbd,
  0xe4, 0xbc, 0x0d, 0x3e, 0xac, 0x42, 0x47, 0x3e, 0x25, 0x65, 0xed, 0xbd,
  0xb6, 0xf5, 0xd8, 0x3c, 0x7f, 0x57, 0xc4, 0xbe, 0x72, 0x84, 0x92, 0xbe,
  0x4c, 0x5d, 0x63, 0xbe, 0xf3, 0xca, 0xf3, 0x3d, 0x29, 0xf0, 0x0d, 0x3e,
  0xfc, 0x3b, 0x74, 0x3c, 0x5e, 0xaf, 0x87, 0x3d, 0xfd, 0x7d, 0xbd, 0x3e,
  0xf9, 0xb2, 0xa1, 0xbd, 0xe2, 0xc3, 0x7a, 0xbc, 0x60, 0xc9, 0xbd, 0xbd,
  0x64, 0x2e, 0x21, 0xbe, 0x32, 0xcf, 0xce, 0x3e, 0x25, 0x4a, 0x74, 0x3e,
  0xa5, 0x15, 0x53, 0xbd, 0x29, 0x9b, 0x2b, 0x3e, 0xc2, 0x80, 0x79, 0xbe,
  0x41, 0xee, 0x69, 0x3d, 0x5d, 0xf1, 0xea, 0x3d, 0x4b, 0xfb, 0x5e, 0x3c,
  0x4f, 0x24, 0x8b, 0x3d, 0x77, 0x85, 0xe9, 0xbb, 0xd0, 0x5a, 0x37, 0xbe,
  0xdf, 0xb0, 0x02, 0xbe, 0x2e, 0x74, 0xf2, 0x3d, 0x95, 0xde, 0x85, 0x3b,
  0x19, 0x81, 0x20, 0xbd, 0xce, 0xc5, 0x35, 0xbe, 0x2e, 0xc4, 0x69, 0xbe,
  0x39, 0x8f, 0x33, 0xbc, 0x27, 0x41, 0xc4, 0x3c, 0xe4, 0xf8, 0xdb, 0xbd,
  0x81, 0x0c, 0x20, 0x3e, 0x84, 0xfa, 0x97, 0x3d, 0x7c, 0x1b, 0x19, 0x3d,
  0x4a, 0xd9, 0x57, 0xbe, 0xf2, 0x2e, 0x6f, 0x3d, 0x5a, 0x3a, 0x55, 0x3d,
  0xd6, 0x3a, 0x90, 0x3d, 0xf5, 0x6d, 0x39, 0xbe, 0x99, 0x2c, 0x91, 0xbc,
  0x71, 0x62, 0xab, 0xbd, 0x44, 0x33, 0x60, 0xbd, 0x1e, 0x92, 0xd8, 0xbd,
  0x90, 0xc7, 0x0f, 0x3e, 0x4f, 0xbc, 0x6c, 0xbe, 0x83, 0x79, 0x61, 0xbe,
  0x87, 0x4e, 0xa2, 0x3d, 0x54, 0x37, 0xd3, 0x3d, 0x20, 0x88, 0x6c, 0xbd,
  0xc0, 0x5f, 0xf6, 0xbd, 0xd3, 0x1d, 0xdd, 0xbd, 0xb1, 0xfd, 0x21, 0xbd,
  0x98, 0x48, 0xe6, 0xbb, 0x10, 0x90, 0xb7, 0x3d, 0xba, 0x23, 0x82, 0xbe,
  0x36, 0xd4, 0x8d, 0xbd, 0xed, 0x94, 0x32, 0x3c, 0x1d, 0xb6, 0xd6, 0xbd,
  0x98, 0x73, 0x3c, 0xbe, 0x35, 0xa5, 0x16, 0x3e, 0xd2, 0xaf, 0xd6, 0xbd,
  0x02, 0x92, 0x4f, 0xbe, 0xe5, 0xb9, 0x25, 0xbd, 0x2e, 0x39, 0x12, 0xbd,
  0xa3, 0xdc, 0xa3, 0xbd, 0x34, 0x20, 0xa3, 0xbd, 0x58, 0xc9, 0xac, 0x3d,
  0x5e, 0x88, 0x17, 0xbd, 0x05, 0xd1, 0x36, 0xbe, 0x59, 0xef, 0x8b, 0x3d,
  0xfd, 0xac, 0x9a, 0xbd, 0x43, 0xdc, 0x6d, 0xbe, 0x07, 0x32, 0x4f, 0xbe,
  0x47, 0xb2, 0xab, 0x3d, 0x61, 0x2b, 0x2a, 0xbe, 0xe3, 0x95, 0xb4, 0x3d,
  0xea, 0xc6, 0x4c, 0xbc, 0x05, 0x86, 0x77, 0xbe, 0xe3, 0x85, 0x53, 0xbe,
  0x9b, 0x5d, 0x17, 0xbe, 0x8e, 0x55, 0x44, 0x3d, 0x5a, 0x49, 0xd3, 0xbd,
  0xf0, 0xaf, 0x60, 0xbe, 0x0d, 0x10, 0x56, 0xbe, 0xc5, 0xb1, 0x4a, 0xbd,
  0xde, 0xfd, 0xff, 0xbd, 0xdf, 0xe8, 0x70, 0x3d, 0x60, 0xf5, 0x4e, 0xbd,
  0xdf, 0xc3, 0x92, 0x3d, 0xe2, 0x74, 0x98, 0xbd, 0x6c, 0x7c, 0x27, 0xbd,
  0xa5, 0xaa, 0x98, 0x3c, 0x8b, 0x1a, 0xa9, 0xbd, 0xf9, 0x8e, 0x3c, 0xbe,
  0x2b, 0xcd, 0x88, 0xbd, 0x4f, 0x25, 0x2d, 0x3d, 0xd2, 0x18, 0x3c, 0xbe,
  0x73, 0xa2, 0x9e, 0x3d, 0x7e, 0x73, 0xae, 0xbd, 0xfc, 0x63, 0x0a, 0x3d,
  0xe6, 0xd9, 0x31, 0xbe, 0x26, 0x03, 0x0a, 0xbe, 0x1e, 0x12, 0x54, 0x3d,
  0x90, 0x52, 0xe0, 0x3d, 0x7e, 0xf5, 0xbc, 0xbd, 0xc4, 0x53, 0x75, 0xbc,
  0x0b, 0x1f, 0x21, 0xbe, 0xf5, 0x90, 0x93, 0x3b, 0xc7, 0xba, 0x6b, 0xbe,
  0x1c, 0xb1, 0xbb, 0xbd, 0x3a, 0x3c, 0x29, 0xbd, 0xff, 0x0b, 0x86, 0xbd,
  0xc8, 0x4a, 0x05, 0xbd, 0xb4, 0x31, 0xea, 0xbc, 0x43, 0xde, 0xcc, 0xbc,
  0x17, 0xce, 0x49, 0xbd, 0x18, 0x13, 0x3b, 0xbe, 0xb4, 0x2a, 0x79, 0xbe,
  0x3e, 0xa7, 0x5f, 0xbe, 0x80, 0xbf, 0x5e, 0xbe, 0x66, 0x96, 0x1c, 0xbd,
  0x11, 0xd3, 0x3a, 0x3e, 0xfb, 0xe6, 0xc4, 0xbd, 0x89, 0x56, 0x4b, 0xbe,
  0x37, 0xa7, 0x2d, 0xbe, 0x38, 0x31, 0xd8, 0xbd, 0x95, 0x1a, 0xa5, 0xbd,
  0x69, 0x9a, 0x11, 0xbd, 0x14, 0x2c, 0xf6, 0xbd, 0xfd, 0xf6, 0x94, 0xbd,
  0xa9, 0x42, 0x13, 0xbe, 0x0e, 0x46, 0x81, 0x3c, 0xbe, 0x50, 0x85, 0xbd,
  0x49, 0x07, 0x10, 0xbc, 0xf4, 0xc2, 0xeb, 0xbd, 0x15, 0x7f, 0x57, 0xbe,
  0x9e, 0xad, 0x09, 0x3e, 0x30, 0x9a, 0xeb, 0x3e, 0x54, 0xaa, 0x5c, 0xbe,
  0xed, 0x3a, 0x10, 0x3e, 0x65, 0x80, 0x46, 0xbd, 0xe0, 0x00, 0xf5, 0xba,
  0xee, 0xc3, 0x8d, 0xbe, 0xc1, 0x6f, 0x3e, 0x3e, 0x81, 0x3f, 0xf1, 0xbd,
  0x01, 0x4b, 0x28, 0x3d, 0x1c, 0xf7, 0x84, 0xbe, 0x16, 0x67, 0x96, 0x3d,
  0xe2, 0x0c, 0xf9, 0xbd, 0x76, 0x28, 0x67, 0x3e, 0xfe, 0x2c, 0x94, 0xbe,
  0xd6, 0x51, 0x6c, 0xbe, 0xeb, 0x71, 0x9b, 0xbd, 0x9a, 0x3d, 0x57, 0x3f,
  0x84, 0x3d, 0x86, 0xbe, 0x73, 0x93, 0xdc, 0xbd, 0xf2, 0x0e, 0xa4, 0xbd,
  0xdf, 0x74, 0x4c, 0x3e, 0xb6, 0x3d, 0xda, 0xbd, 0xdb, 0xbe, 0x89, 0xbd,
  0x02, 0xbe, 0x89, 0x3d, 0xb3, 0x72, 0x28, 0x3e, 0xb7, 0x95, 0x75, 0xbe,
  0x2a, 0x0b, 0xdd, 0x3d, 0xdd, 0x20, 0xbf, 0x3d, 0x4d, 0xe5, 0xae, 0xbd,
  0x4c, 0x0c, 0x99, 0xbc, 0x9a, 0xb4, 0x65, 0xbe, 0x69, 0x40, 0xa8, 0x3c,
  0x61, 0xd3, 0xdc, 0x3e, 0x14, 0xed, 0xbb, 0xbd, 0x7a, 0x17, 0x17, 0x3e,
  0x11, 0x09, 0x00, 0x3d, 0x10, 0x10, 0x20, 0x3e, 0x1b, 0x8a, 0x59, 0x3d,
  0x19, 0x11, 0x9c, 0xbc, 0x9e, 0xe9, 0x42, 0xbd, 0xcc, 0xcf, 0xd9, 0x3d,
  0xc5, 0x24, 0x0e, 0x3d, 0x59, 0xcc, 0xea, 0xbd, 0xc5, 0xd8, 0x4b, 0xbe,
  0xad, 0xb5, 0x62, 0xbe, 0x8b, 0xbe, 0x55, 0xbe, 0xfb, 0xf3, 0x73, 0xbe,
  0xdc, 0x92, 0xa9, 0xbc, 0xcf, 0xcc, 0x17, 0x3f, 0x1e, 0xe7, 0xe0, 0xbd,
  0xf2, 0x27, 0xcd, 0x3c, 0xf1, 0xb9, 0x24, 0xbd, 0x0e, 0x6e, 0x65, 0xbe,
  0xd1, 0x25, 0x37, 0xbe, 0xcd, 0x0b, 0x47, 0x3c, 0x1a, 0x2d, 0x38, 0xbd,
  0xb5, 0xdd, 0x59, 0x3e, 0x62, 0xdd, 0xfc, 0xbd, 0x60, 0xd4, 0x3f, 0xbe,
  0x82, 0x60, 0x0d, 0xbe, 0xf6, 0x22, 0x2b, 0xbe, 0x4c, 0xea, 0xb8, 0xbd,
  0x97, 0xb8, 0x15, 0x3e, 0xe8, 0xad, 0x35, 0xbd, 0xe8, 0x9f, 0x19, 0x3f,
  0xe0, 0xab, 0xaa, 0xbd, 0x72, 0xc4, 0xea, 0x3d, 0x0d, 0x72, 0x78, 0xbe,
  0x73, 0xcb, 0x3a, 0xbe, 0x9f, 0xd9, 0xc2, 0xba, 0x6e, 0x60, 0x3b, 0x3e,
  0x5f, 0xc8, 0xe5, 0xbd, 0x11, 0xbe, 0x13, 0x3c, 0xfc, 0x18, 0xf6, 0xbc,
  0xca, 0xaa, 0x89, 0x3d, 0x75, 0x73, 0x0a, 0xbe, 0x0d, 0xfd, 0x67, 0xbd,
  0x6e, 0xd1, 0x79, 0xbe, 0x78, 0xfc, 0xbe, 0xbb, 0xaa, 0xf5, 0x82, 0xbc,
  0xc3, 0xe9, 0xcf, 0x3e, 0xb2, 0x3f, 0x0f, 0x3e, 0xb4, 0x86, 0x5b, 0xbe,
  0xb0, 0x51, 0x5f, 0xbe, 0x7e, 0xdb, 0x13, 0xbe, 0xbf, 0x12, 0x4e, 0x3d,
  0x17, 0x4c, 0x15, 0xbe, 0x3e, 0xaf, 0x90, 0x3d, 0xa8, 0x1b, 0x1d, 0xbb,
  0xfb, 0x5c, 0x05, 0xbe, 0x2e, 0xa1, 0x52, 0xbd, 0xb8, 0x12, 0xcc, 0xbd,
  0x1c, 0x94, 0x7d, 0x3d, 0xec, 0xb1, 0xa0, 0xbe, 0x6b, 0xfd, 0xfd, 0xbd,
  0x73, 0x3f, 0x09, 0xbe, 0xdb, 0x99, 0x9d, 0x3e, 0xa4, 0xb1, 0x8b, 0xbe,
  0xe0, 0x43, 0x1c, 0xbd, 0xcd, 0x7b, 0x8e, 0xbe, 0x68, 0x5f, 0xb1, 0x3d,
  0xe5, 0x8a, 0x46, 0x3d, 0x37, 0x80, 0x22, 0x3e, 0x1b, 0x1b, 0xa8, 0x3d,
  0xdd, 0x9e, 0x26, 0xbe, 0xec, 0x43, 0x87, 0xbe, 0x95, 0x29, 0x2f, 0xbe,
  0x74, 0xf2, 0xe5, 0xbd, 0xb6, 0x5c, 0x6e, 0xbe, 0x4b, 0xae, 0xd7, 0x3d,
  0x95, 0xa5, 0xa4, 0xbd, 0x1a, 0xb4, 0x8f, 0xbe, 0xfb, 0xb3, 0xe4, 0x3d,
  0x74, 0xaf, 0x37, 0xbe, 0x79, 0xef, 0x34, 0x3e, 0xf3, 0x5e, 0x96, 0xbe,
  0xd8, 0x38, 0x63, 0xbe, 0x9c, 0x35, 0x29, 0xbe, 0xea, 0xe0, 0xb7, 0xbc,
  0x9a, 0x21, 0x44, 0x3e, 0x1f, 0xf0, 0xcf, 0xbd, 0xa3, 0x7a, 0xf7, 0x3d,
  0xad, 0x1a, 0xd8, 0x3d, 0x5e, 0x0c, 0x4d, 0x3d, 0xe6, 0xbd, 0xc2, 0xbd,
  0x20, 0x99, 0x9d, 0xbd, 0x1c, 0xce, 0x25, 0xbe, 0xf6, 0x1b, 0x5c, 0x3d,
  0xb9, 0xf6, 0x1b, 0xbe, 0x59, 0x40, 0x14, 0xbe, 0xca, 0xd5, 0xf1, 0xbd,
  0x08, 0xff, 0x81, 0xbe, 0x3d, 0x6b, 0x53, 0xbe, 0x49, 0x5d, 0xdd, 0xbd,
  0x3c, 0x46, 0x02, 0xbe, 0xaf, 0x10, 0x07, 0xbe, 0x81, 0xbd, 0x35, 0xbe,
  0x8d, 0x6a, 0x34, 0xbe, 0x98, 0xd2, 0x99, 0xbd, 0x7b, 0x94, 0x6b, 0xbe,
  0xdb, 0x3c, 0x46, 0xbe, 0x25, 0xdd, 0x25, 0xbe, 0xea, 0xfa, 0xc8, 0xbd,
  0x65, 0x3d, 0xdf, 0x3c, 0xf0, 0x87, 0x77, 0xbe, 0x77, 0x29, 0xe7, 0x3d,
  0x14, 0xd9, 0x3e, 0xbd, 0x7e, 0x2b, 0xfb, 0xbd, 0x6a, 0xcb, 0x8e, 0x3d,
  0x68, 0x04, 0x68, 0x3d, 0xee, 0xac, 0x91, 0x3d, 0x8b, 0x9c, 0x18, 0xbe,
  0x37, 0xfe, 0x56, 0xbe, 0x1b, 0x6f, 0xfa, 0x3c, 0xa4, 0xd0, 0x84, 0xbd,
  0xf8, 0xaa, 0x05, 0x3d, 0xa0, 0x15, 0x55, 0xbe, 0x4a, 0x96, 0x63, 0xbe,
  0x80, 0x88, 0x35, 0x3d, 0x31, 0x12, 0x74, 0xbe, 0x8b, 0xe9, 0x2a, 0x3d,
  0xd6, 0x8e, 0x2b, 0x3e, 0x8b, 0x13, 0xbd, 0x3d, 0x9e, 0x70, 0x87, 0xbe,
  0xf7, 0x7f, 0x80, 0x3d, 0xc4, 0x1c, 0x2c, 0xbe, 0xca, 0x6e, 0xb4, 0x3d,
  0x4b, 0xe8, 0x2e, 0x3e, 0x11, 0x3c, 0x2e, 0xbe, 0xf3, 0xb1, 0xf7, 0x3d,
  0x61, 0xe9, 0xc7, 0x3d, 0xa4, 0xff, 0x2c, 0xbe, 0x49, 0x7a, 0x6e, 0xbd,
  0x7b, 0xf2, 0x80, 0xbc, 0x0c, 0x66, 0xde, 0x3c, 0xe5, 0x51, 0xd3, 0xbd,
  0x7e, 0x1c, 0x08, 0xbe, 0xc3, 0xca, 0xec, 0xbd, 0xa5, 0xb0, 0x66, 0xbe,
  0x74, 0x54, 0x01, 0xbe, 0x82, 0xa4, 0x8f, 0x3d, 0xda, 0xb4, 0xac, 0x3d,
  0xc1, 0xe7, 0x0c, 0x3e, 0x6a, 0x64, 0xe6, 0x3d, 0xbe, 0x49, 0x03, 0xbb,
  0xd9, 0xda, 0x5b, 0xbe, 0x65, 0xa3, 0xb0, 0xbd, 0x85, 0xef, 0x9d, 0x3d,
  0xb1, 0x8f, 0xf6, 0xbd, 0x08, 0x82, 0x48, 0xbc, 0xbf, 0xec, 0x85, 0x3d,
  0x17, 0xa8, 0xf0, 0x3d, 0xb6, 0x04, 0xa7, 0xbd, 0xcd, 0xbd, 0x22, 0x3e,
  0x07, 0x2a, 0x28, 0xbe, 0xcf, 0xf1, 0x66, 0xbe, 0x7b, 0x2b, 0x40, 0xbe,
  0x7f, 0xfc, 0x8b, 0x3c, 0x94, 0xb7, 0xdc, 0x3d, 0xc5, 0xc5, 0xbb, 0xbd,
  0x9a, 0xf1, 0x0b, 0xbe, 0x65, 0xab, 0x39, 0xbe, 0x58, 0x9d, 0x2f, 0xbe,
  0x31, 0x75, 0x17, 0x3d, 0x4b, 0x9e, 0xbb, 0xbd, 0x10, 0x73, 0xcc, 0xbd,
  0xf4, 0xbd, 0xcb, 0x3d, 0x69, 0xc2, 0xbd, 0xbd, 0x85, 0x47, 0x9e, 0x3d,
  0x7c, 0x71, 0x5f, 0x3d, 0xa6, 0xf3, 0x61, 0xbd, 0xfa, 0xb2, 0x68, 0xbe,
  0x90, 0x4f, 0x90, 0xbd, 0x58, 0x5c, 0x19, 0xbe, 0x01, 0x81, 0xe1, 0xbc,
  0x5c, 0x0b, 0x86, 0x3d, 0xcb, 0xc4, 0x3a, 0x3e, 0xea, 0xea, 0x2b, 0xbd,
  0xe8, 0x07, 0xd1, 0xbd, 0xb8, 0xe5, 0x3d, 0x3e, 0xd9, 0x26, 0x7d, 0x3d,
  0x00, 0x7b, 0x22, 0xbd, 0xf1, 0xd3, 0x3a, 0x3e, 0x67, 0xd6, 0x3b, 0xbe,
  0x45, 0x39, 0x07, 0xbe, 0x69, 0xdc, 0x7c, 0xbd, 0xf6, 0xf5, 0x93, 0xbc,
  0x0b, 0x7d, 0x95, 0xbb, 0x70, 0xba, 0xfc, 0x3d, 0xc4, 0x5f, 0x30, 0xbe,
  0xf8, 0xaa, 0x63, 0x3c, 0x23, 0x50, 0x46, 0xbd, 0xeb, 0x80, 0x5f, 0x3e,
  0x1b, 0xe7, 0xeb, 0xbd, 0x60, 0xdf, 0xf1, 0xbd, 0x9f, 0x41, 0x20, 0x3d,
  0x34, 0xa4, 0xa7, 0xbd, 0x5b, 0x9b, 0x91, 0xbe, 0x8b, 0x82, 0x15, 0xbe,
  0xae, 0x47, 0x38, 0xbe, 0x67, 0x62, 0x8d, 0xbd, 0xcb, 0x73, 0x02, 0x3e,
  0x5f, 0x84, 0xe4, 0x3d, 0x12, 0xa8, 0x5e, 0xbe, 0x94, 0x3d, 0x66, 0x3e,
  0xd7, 0xa2, 0xbc, 0x3d, 0x79, 0x28, 0xd4, 0xbd, 0xaa, 0xe1, 0x9d, 0x3c,
  0x8f, 0x0d, 0x59, 0x3e, 0x92, 0x01, 0xe5, 0xbd, 0xfa, 0x5a, 0x94, 0xbd,
  0xc1, 0x9e, 0x1a, 0xbe, 0x3f, 0xc6, 0xd1, 0x3d, 0x13, 0xf7, 0x87, 0xbe,
  0xc0, 0x76, 0xf9, 0x3d, 0x72, 0xf9, 0x2d, 0xbc, 0xe8, 0xaf, 0x21, 0x3d,
  0x2d, 0x31, 0x03, 0xbc, 0x98, 0x07, 0xeb, 0xbd, 0x2a, 0x09, 0x27, 0xbe,
  0x39, 0xa7, 0x8c, 0x3e, 0xeb, 0x10, 0xac, 0xbd, 0x26, 0xc7, 0xc2, 0xbd,
  0x52, 0x6f, 0xbf, 0x3c, 0x38, 0x24, 0x6d, 0x3e, 0xcd, 0x58, 0x21, 0x3e,
  0xf5, 0x16, 0xb2, 0x3d, 0x57, 0xfa, 0xfe, 0xbd, 0xf5, 0x67, 0x09, 0xbe,
  0x83, 0x69, 0x8d, 0xbc, 0x4a, 0xcc, 0x57, 0x3e, 0xb0, 0x99, 0x3c, 0xbe,
  0xdb, 0x94, 0x0a, 0xbe, 0x7c, 0x5f, 0x73, 0xbd, 0xe6, 0x7a, 0xe3, 0xbd,
  0x97, 0x8f, 0x55, 0xbe, 0x8d, 0xf4, 0x80, 0x3d, 0xc3, 0x04, 0x45, 0xbe,
  0xaa, 0xe6, 0x66, 0xbd, 0x0f, 0xca, 0x35, 0xbe, 0x4c, 0xbe, 0x0d, 0x3e,
  0xca, 0x70, 0xdb, 0xbd, 0xcf, 0xf5, 0xcc, 0x3c, 0x0d, 0xee, 0x37, 0x3e,
  0xaf, 0xf2, 0xbe, 0xbd, 0x81, 0x01, 0x16, 0xbe, 0x36, 0xdf, 0xab, 0xbd,
  0x80, 0x73, 0x17, 0xbe, 0xd5, 0x8a, 0x8e, 0x3d, 0xcf, 0xc8, 0xc2, 0xbc,
  0x0f, 0x1b, 0x20, 0x3d, 0x9a, 0x04, 0x5b, 0xbe, 0xa6, 0x08, 0xa7, 0xbd,
  0x29, 0xa8, 0x71, 0xbe, 0xf8, 0xc1, 0x8b, 0x3d, 0xa3, 0xd2, 0xdc, 0x3d,
  0xda, 0x77, 0xf9, 0xbd, 0x3a, 0x96, 0xa0, 0xbb, 0x50, 0xbb, 0xbf, 0x3c,
  0x20, 0xf9, 0x5e, 0xbc, 0x75, 0x59, 0x42, 0xbe, 0xfd, 0x18, 0xa3, 0x3d,
  0x1a, 0x82, 0x85, 0xbd, 0x29, 0xa0, 0x9c, 0x3c, 0x01, 0xe2, 0xcc, 0x3d,
  0x00, 0xe5, 0x4b, 0xbd, 0x87, 0x06, 0x89, 0x3d, 0x58, 0xfb, 0x30, 0xbd,
  0x24, 0x69, 0x89, 0xbc, 0x58, 0x85, 0xaf, 0xbd, 0x95, 0xc2, 0x13, 0xbe,
  0xbb, 0xb1, 0x0e, 0xbe, 0x7f, 0x16, 0xb5, 0xbd, 0xf9, 0x8d, 0xba, 0x3d,
  0xc5, 0xe5, 0xdc, 0xbd, 0x09, 0x98, 0xc1, 0xbb, 0xc8, 0x14, 0xcd, 0xbd,
  0x82, 0xff, 0xf1, 0x3d, 0x89, 0x74, 0xa0, 0xbd, 0xba, 0xad, 0x1a, 0xbe,
  0xf0, 0x5e, 0x41, 0xbe, 0x9f, 0x4f, 0x9e, 0xbd, 0xab, 0x1a, 0x74, 0xbe,
  0x95, 0x47, 0xe9, 0xbd, 0xc6, 0xd6, 0xc6, 0xbd, 0x7b, 0x0a, 0xff, 0xbc,
  0x8a, 0x15, 0x19, 0x3e, 0x62, 0xea, 0x8e, 0x3c, 0xb4, 0xc2, 0x0c, 0xbe,
  0x12, 0xee, 0x38, 0xbe, 0x51, 0xf1, 0xdd, 0xbd, 0xfd, 0x01, 0xbd, 0x3d,
  0x17, 0x56, 0xb0, 0x3d, 0xbc, 0xcc, 0x90, 0x3d, 0x82, 0xce, 0x04, 0xbe,
  0xfc, 0xe6, 0x34, 0xbe, 0x94, 0x87, 0x91, 0xbd, 0xbe, 0x59, 0x1a, 0xbe,
  0x6a, 0x02, 0xe9, 0x3b, 0x18, 0x87, 0x64, 0xbe, 0x31, 0x1e, 0x52, 0xbd,
  0x6e, 0x72, 0x83, 0xbe, 0x85, 0xa1, 0x58, 0xbe, 0x55, 0xf5, 0x36, 0x3d,
  0xf4, 0x27, 0xb8, 0xbd, 0x1b, 0x51, 0xd5, 0xbd, 0xfe, 0x14, 0x83, 0x3d,
  0x34, 0x78, 0x42, 0xbe, 0xd6, 0x9f, 0x3b, 0x3d, 0x92, 0x65, 0x90, 0x3d,
  0x84, 0xc1, 0x1e, 0xbd, 0xee, 0x8d, 0x12, 0xbe, 0x6a, 0x6a, 0x23, 0x3e,
  0x2b, 0x21, 0xd9, 0xbd, 0x1a, 0x05, 0x63, 0x3c, 0x60, 0x96, 0x90, 0x3d,
  0xd2, 0x93, 0xc9, 0x3d, 0xe0, 0x47, 0x49, 0xbe, 0x07, 0xb8, 0x21, 0x3e,
  0x95, 0x78, 0x2c, 0xbd, 0x02, 0xed, 0x77, 0x3d, 0x95, 0xd8, 0x11, 0xbe,
  0xa3, 0x69, 0x53, 0x3e, 0x36, 0x94, 0xcf, 0xbb, 0x16, 0x75, 0x6c, 0xbe,
  0x72, 0x0f, 0xbe, 0xbd, 0x7e, 0xc9, 0x78, 0x3d, 0x37, 0x34, 0x1d, 0xbe,
  0x83, 0xb2, 0xa5, 0x3d, 0x2b, 0xa0, 0xba, 0x3d, 0x74, 0x94, 0x92, 0x3b,
  0x80, 0x6b, 0xcb, 0x3d, 0x5d, 0x60, 0x27, 0xbe, 0x50, 0xa5, 0xdd, 0x3d,
  0x14, 0x9f, 0xc1, 0x3d, 0x62, 0x7e, 0x8f, 0xbd, 0x4d, 0x61, 0x77, 0xbe,
  0x51, 0xa5, 0x80, 0xbe, 0x66, 0x0d, 0xaf, 0x3d, 0xa7, 0x7b, 0x13, 0x3d,
  0x70, 0x3d, 0x8d, 0x3d, 0x61, 0x49, 0xa5, 0xbd, 0x2e, 0x4c, 0xe0, 0x3d,
  0x22, 0xb7, 0x38, 0xbe, 0xdc, 0x0f, 0x99, 0x3d, 0xe2, 0xde, 0x0c, 0x3e,
  0x05, 0xf6, 0x27, 0x3d, 0x8b, 0x88, 0x85, 0x3d, 0x36, 0xca, 0xff, 0xbc,
  0xd3, 0xc7, 0x6d, 0xbe, 0x1c, 0x2f, 0xf6, 0xbc, 0xca, 0xe2, 0x5a, 0xbe,
  0x86, 0x92, 0x24, 0xbd, 0x6f, 0x7b, 0x8b, 0xbe, 0x30, 0x50, 0x02, 0x3c,
  0xc4, 0xd8, 0x2e, 0xbe, 0x46, 0xae, 0x0d, 0xbe, 0x15, 0x01, 0x92, 0x3d,
  0x05, 0x87, 0xb4, 0x3d, 0x8c, 0x5a, 0x02, 0xbd, 0xae, 0x18, 0x61, 0xbe,
  0x82, 0x63, 0x4f, 0x3b, 0xfc, 0x91, 0xbf, 0x3d, 0x50, 0xa7, 0xcd, 0xbc,
  0x92, 0x84, 0x52, 0x3e, 0xa1, 0xab, 0x88, 0xbd, 0xf3, 0x26, 0x49, 0x3e,
  0x9b, 0x44, 0xe5, 0x3c, 0x49, 0x28, 0xbb, 0xbd, 0x44, 0xab, 0x75, 0x3d,
  0x80, 0xec, 0x71, 0xbc, 0x85, 0xc8, 0x85, 0x3d, 0xf7, 0x27, 0x2a, 0xbe,
  0x5f, 0xae, 0xec, 0xbd, 0xaa, 0xda, 0xef, 0xbd, 0x96, 0xf4, 0x59, 0xbe,
  0x64, 0xe6, 0xfb, 0x3c, 0xa1, 0xaa, 0x22, 0xbe, 0x23, 0xb5, 0x31, 0x3e,
  0x71, 0xed, 0x16, 0xbe, 0x22, 0x15, 0x1c, 0xbe, 0xa7, 0xf5, 0x07, 0xbe,
  0x5c, 0xf4, 0x61, 0xbe, 0xe6, 0x9d, 0x98, 0xbd, 0xa4, 0x6e, 0x74, 0xbe,
  0x04, 0x33, 0xa4, 0x3c, 0x6b, 0x78, 0xb3, 0x3c, 0xd5, 0xdd, 0xde, 0x3d,
  0x00, 0x03, 0x02, 0x3d, 0xa3, 0xd6, 0xf9, 0x3d, 0x37, 0x02, 0x43, 0xbd,
  0xe3, 0xac, 0x67, 0x3d, 0x59, 0xb4, 0x2c, 0xbd, 0xac, 0x1f, 0x47, 0xbe,
  0xe0, 0xb0, 0x0b, 0x3e, 0x2e, 0x20, 0x34, 0xbe, 0xd1, 0x66, 0x23, 0xbe,
  0x68, 0x1f, 0x38, 0xbe, 0x5b, 0xee, 0x20, 0xbe, 0x18, 0x61, 0xd4, 0xbd,
  0x56, 0x6b, 0x91, 0x3d, 0x55, 0x6a, 0x19, 0xbe, 0xd1, 0x45, 0x63, 0x3e,
  0xde, 0x1d, 0x83, 0xbe, 0x44, 0x97, 0x8b, 0x3d, 0x4a, 0xf4, 0xc9, 0xbc,
  0xf7, 0x1d, 0x31, 0x3d, 0x93, 0x08, 0x66, 0xbe, 0x15, 0x23, 0x17, 0x3f,
  0xfb, 0x61, 0x0c, 0xbe, 0x80, 0x64, 0x57, 0x3e, 0x7c, 0xf8, 0x47, 0xbe,
  0xa0, 0x86, 0x72, 0xbc, 0x22, 0xf9, 0x8b, 0x3d, 0x9a, 0x80, 0x89, 0x3e,
  0x45, 0x0f, 0x2f, 0xbe, 0x22, 0x91, 0x3a, 0x3e, 0x69, 0x04, 0x56, 0x3c,
  0x5f, 0x97, 0x28, 0xbe, 0x58, 0x06, 0x01, 0xbe, 0x6c, 0x11, 0x52, 0xbe,
  0xed, 0x7f, 0x2c, 0x3d, 0xda, 0x17, 0x92, 0xbe, 0x5e, 0x53, 0x90, 0xbe,
  0xce, 0x8c, 0x64, 0x3f, 0x81, 0xd7, 0x05, 0xbe, 0x2d, 0x71, 0x5e, 0x3c,
  0xf1, 0xa3, 0x4c, 0xbe, 0xc4, 0xff, 0xcd, 0x3d, 0x0e, 0xba, 0x8c, 0xbc,
  0x0c, 0x94, 0x39, 0x3e, 0xae, 0xa3, 0xb6, 0x3b, 0x9f, 0xc4, 0x99, 0xbd,
  0xf4, 0x95, 0x67, 0xbd, 0xe8, 0x4d, 0x5c, 0xbd, 0xde, 0x33, 0x71, 0xbe,
  0x5c, 0x26, 0x28, 0xbe, 0x0d, 0xeb, 0xe3, 0x3d, 0xe8, 0xdc, 0x42, 0xbe,
  0xc9, 0x69, 0xa7, 0x3d, 0xfc, 0xde, 0x01, 0x3f, 0x42, 0x6f, 0x9d, 0xbe,
  0x20, 0x30, 0x1e, 0x3e, 0x97, 0x06, 0x64, 0xbd, 0x56, 0x90, 0x2c, 0xbe,
  0x9e, 0xb2, 0xee, 0xbd, 0x36, 0xba, 0xaf, 0x3e, 0xf4, 0x3d, 0x0a, 0x3e,
  0xcd, 0x0d, 0x7b, 0xbd, 0x85, 0xad, 0x0b, 0xbe, 0xca, 0x82, 0x0d, 0x3c,
  0x68, 0x52, 0xe9, 0x3d, 0x52, 0xe6, 0x60, 0x3d, 0x0a, 0xfb, 0xe8, 0x3d,
  0xa2, 0x9f, 0xea, 0x3d, 0x8d, 0x7d, 0xb5, 0x3c, 0xb2, 0xa2, 0x18, 0x3f,
  0x39, 0x01, 0xf8, 0xbd, 0xe6, 0x1c, 0x21, 0xbd, 0x6a, 0xd6, 0x6c, 0x3d,
  0x00, 0x6a, 0x1d, 0xbd, 0x4b, 0xe4, 0x00, 0xbe, 0x76, 0x24, 0x9c, 0x3e,
  0x54, 0x7a, 0x16, 0x3d, 0x60, 0x28, 0xa2, 0x3c, 0xd7, 0x0a, 0x87, 0xbd,
  0x36, 0xe5, 0x89, 0x3d, 0xe6, 0x8a, 0x22, 0xbe, 0x71, 0x63, 0x2f, 0x3d,
  0x89, 0x44, 0x3b, 0xbe, 0x65, 0x29, 0x64, 0xbe, 0x62, 0x2d, 0x07, 0xbe,
  0x26, 0x5f, 0x51, 0x3f, 0x32, 0x0a, 0x3b, 0xbe, 0x4d, 0x40, 0x3f, 0xbe,
  0x4e, 0x7c, 0x8a, 0xbc, 0x22, 0xe0, 0x0c, 0xbe, 0x15, 0xf8, 0x7a, 0xbe,
  0x17, 0x36, 0x17, 0x3e, 0x17, 0xbf, 0x27, 0xbd, 0xf7, 0x08, 0x8e, 0xbd,
  0x55, 0x74, 0x11, 0xbe, 0xfc, 0xc4, 0x39, 0x3e, 0x6f, 0x5d, 0x3b, 0xbe,
  0x23, 0x4f, 0xc9, 0x3a, 0x76, 0x8f, 0x1d, 0x3d, 0x08, 0x07, 0x83, 0xbe,
  0xe1, 0xda, 0x21, 0x3d, 0x89, 0xad, 0x59, 0x3f, 0x56, 0xc3, 0x1c, 0xbc,
  0x26, 0x83, 0x2f, 0xbe, 0x9c, 0xea, 0x29, 0xbe, 0xd4, 0x85, 0x13, 0x3e,
  0xc3, 0x1c, 0x82, 0xbc, 0x9d, 0xcc, 0x64, 0x3e, 0x20, 0x51, 0x6a, 0xbe,
  0x1a, 0x33, 0xde, 0x3c, 0xa3, 0xff, 0x27, 0xba, 0xbc, 0x44, 0x54, 0xbe,
  0xf2, 0x10, 0xcf, 0xbd, 0x99, 0x72, 0xa2, 0xbe, 0x9a, 0xd6, 0xf5, 0xbd,
  0x40, 0xcd, 0x3c, 0x3c, 0x74, 0xc6, 0x94, 0xbe, 0x60, 0x2a, 0x0b, 0x3f,
  0x1d, 0x86, 0x95, 0xbe, 0x99, 0x1d, 0x55, 0xbe, 0x22, 0xab, 0x7e, 0xbd,
  0x9f, 0x25, 0xb4, 0xbc, 0x10, 0x18, 0xfa, 0x3c, 0x9e, 0x2b, 0x2f, 0x3c,
  0xbb, 0xd4, 0xbe, 0x3c, 0x9e, 0xfc, 0x6d, 0x3e, 0xff, 0xed, 0x7e, 0xbe,
  0x46, 0x0a, 0xde, 0x3d, 0x3d, 0xd7, 0xbf, 0xbd, 0x29, 0x18, 0x74, 0xbd,
  0x90, 0x4d, 0x37, 0x3d, 0xe5, 0xfc, 0x04, 0xbd, 0x3f, 0x28, 0x0f, 0xbe,
  0x91, 0xb5, 0x8e, 0xbe, 0x0e, 0x8c, 0xf9, 0xbd, 0xb0, 0xba, 0x18, 0xbe,
  0xcd, 0x0b, 0x8c, 0x3d, 0xce, 0x23, 0xb7, 0x3e, 0xe0, 0xb3, 0x0c, 0x3c,
  0xec, 0xbc, 0x93, 0xbb, 0xfa, 0x25, 0x8d, 0x3c, 0xed, 0x58, 0x1b, 0x3e,
  0xb4, 0x3a, 0x17, 0xbe, 0xc5, 0x5b, 0xc3, 0xbd, 0xbb, 0x5c, 0x0e, 0xbe,
  0x8c, 0x0d, 0xe2, 0xba, 0xf5, 0x2a, 0x54, 0xbe, 0xc9, 0xa4, 0xdb, 0x3d,
  0xa9, 0xaa, 0x7c, 0xbe, 0x33, 0x2a, 0x40, 0xbe, 0x69, 0xba, 0x83, 0xbd,
  0xff, 0x25, 0x9c, 0x3d, 0xd3, 0x63, 0x5e, 0xbd, 0xa8, 0xa1, 0x0d, 0x3e,
  0x35, 0xd6, 0x03, 0xbe, 0x65, 0x74, 0x00, 0xbe, 0x71, 0x71, 0x20, 0x3e,
  0x42, 0xda, 0xb6, 0x3d, 0x99, 0xb0, 0x96, 0x3d, 0xd7, 0x62, 0xae, 0x3c,
  0x0a, 0x8b, 0x83, 0x3d, 0x24, 0x33, 0x55, 0x3c, 0xbd, 0xe4, 0x79, 0xbe,
  0x5c, 0x06, 0xf8, 0x3d, 0x94, 0x79, 0xae, 0xbd, 0x66, 0x3a, 0xd5, 0x3d,
  0xce, 0x7b, 0xc3, 0xbd, 0xe2, 0xde, 0x4e, 0x3e, 0xc1, 0x15, 0x97, 0xbe,
  0x1f, 0x59, 0x5c, 0xbd, 0x9d, 0x57, 0x80, 0xbd, 0x54, 0x4a, 0x9e, 0xbd,
  0x2a, 0x58, 0x94, 0x3c, 0xc1, 0xd6, 0xaa, 0xbd, 0x3d, 0x5f, 0xb7, 0x3d,
  0xb7, 0x36, 0xaa, 0x3c, 0xe2, 0xeb, 0x07, 0x3e, 0x2c, 0x6d, 0x50, 0xbd,
  0x02, 0x0e, 0x84, 0x3d, 0xde, 0x9a, 0x38, 0x3e, 0x4e, 0x6e, 0xba, 0xbd,
  0x67, 0xca, 0x27, 0xbe, 0x98, 0x4a, 0x9c, 0xbd, 0x70, 0xd2, 0xb0, 0xbd,
  0xd5, 0x77, 0x40, 0xbe, 0x88, 0x2d, 0xa1, 0x3d, 0x5f, 0x97, 0x59, 0xbe,
  0x4e, 0x66, 0xdb, 0xbc, 0xc1, 0x69, 0x2e, 0x3e, 0xe0, 0x53, 0x40, 0x3e,
  0x5f, 0x95, 0xd0, 0xbd, 0x73, 0xef, 0x09, 0xbe, 0x4a, 0x80, 0x84, 0xbc,
  0x4c, 0xc6, 0x4c, 0xbd, 0xb2, 0x92, 0xb7, 0x3d, 0x04, 0x59, 0x66, 0x3e,
  0xd8, 0xf7, 0xa2, 0x3d, 0x4f, 0x48, 0x81, 0xbc, 0x4f, 0xf4, 0x3b, 0xbe,
  0x54, 0x45, 0x21, 0xbd, 0x9f, 0xd7, 0x74, 0xbe, 0xfb, 0xe0, 0x51, 0x3e,
  0xb5, 0x5e, 0x60, 0xbd, 0x28, 0x0b, 0xda, 0xbd, 0xff, 0xea, 0x36, 0x3e,
  0x7b, 0xb5, 0x58, 0x3c, 0x17, 0x70, 0x86, 0xbe, 0x75, 0xa0, 0x2f, 0x3e,
  0x8c, 0x75, 0x2c, 0x3e, 0x91, 0x60, 0xd6, 0x3b, 0x08, 0x12, 0xe8, 0xbd,
  0x00, 0xa5, 0xa7, 0xbd, 0x8e, 0xcf, 0x6d, 0xbd, 0x8c, 0x2c, 0xab, 0xbd,
  0xf4, 0x4b, 0x21, 0x3e, 0xe1, 0x7f, 0xc1, 0xbd, 0x14, 0xf6, 0xe9, 0xbd,
  0x44, 0xe2, 0xac, 0x3b, 0xa0, 0x24, 0x6c, 0xbe, 0x40, 0x70, 0x52, 0xbe,
  0xb6, 0x5b, 0xc4, 0x3d, 0xa3, 0xc3, 0x17, 0x3e, 0xa8, 0xc4, 0x0f, 0x3d,
  0x5c, 0x97, 0xc1, 0xbc, 0xec, 0xcb, 0x22, 0x3d, 0x8d, 0xe7, 0xaa, 0x3d,
  0x4e, 0x80, 0x7c, 0xbd, 0xab, 0x1f, 0x65, 0x3c, 0x2b, 0x86, 0x16, 0xbe,
  0x35, 0x40, 0xba, 0x3d, 0xa6, 0x9a, 0xd3, 0xbd, 0x38, 0xa9, 0x24, 0x3e,
  0x7f, 0x47, 0x21, 0xbe, 0x3e, 0x3c, 0x71, 0x3e, 0x68, 0x8b, 0x4f, 0xbe,
  0xdd, 0x50, 0x30, 0xb9, 0x3e, 0x19, 0x5f, 0x3d, 0xf0, 0x5c, 0x19, 0x3e,
  0xa9, 0x2d, 0x42, 0xbe, 0x75, 0xfb, 0x06, 0x3e, 0xa5, 0x9f, 0x5a, 0x3d,
  0x37, 0x21, 0x6b, 0xbd, 0x6e, 0x23, 0x37, 0xbe, 0x9b, 0x06, 0xa8, 0xbe,
  0x3c, 0x5d, 0x43, 0xbe, 0x59, 0xda, 0xf7, 0x3e, 0x40, 0x4e, 0x6a, 0xbd,
  0x44, 0xdc, 0x28, 0xbd, 0xd4, 0xa5, 0x49, 0x3d, 0xe6, 0xac, 0x0d, 0xbe,
  0xc5, 0x48, 0x6f, 0xbe, 0xc3, 0xe6, 0xd6, 0xbc, 0x99, 0x14, 0xa1, 0xbc,
  0x00, 0x7b, 0xea, 0xbc, 0x64, 0x76, 0xa2, 0x3d, 0x0c, 0x5a, 0x6f, 0x3d,
  0xeb, 0x96, 0x04, 0xbb, 0x11, 0x03, 0x85, 0xbe, 0xe9, 0x17, 0x6c, 0xbe,
  0x33, 0xea, 0x11, 0xbe, 0x3a, 0x5a, 0x14, 0x3e, 0xe0, 0x19, 0x33, 0x3f,
  0x47, 0x76, 0x50, 0xbe, 0x83, 0x84, 0x32, 0x3e, 0x4a, 0xbe, 0x98, 0xbd,
  0x52, 0x11, 0x04, 0x3e, 0x14, 0xe5, 0x4d, 0xbe, 0x70, 0x02, 0x19, 0xbd,
  0xe9, 0x7c, 0x9b, 0x3e, 0x32, 0x34, 0x98, 0x3d, 0xfa, 0xb5, 0x85, 0xbe,
  0xd1, 0x9c, 0x38, 0x3e, 0x8c, 0x5c, 0xd0, 0x3d, 0x74, 0xb3, 0x8d, 0xbe,
  0x0c, 0xca, 0xc3, 0xbc, 0x27, 0xc3, 0xe1, 0xbd, 0xdf, 0x92, 0x0d, 0xbd,
  0x66, 0xed, 0x05, 0x3f, 0x96, 0xf3, 0xbd, 0x3c, 0x32, 0x54, 0x16, 0x3e,
  0x30, 0x5e, 0xea, 0xbd, 0xd2, 0x9a, 0xb9, 0x3c, 0xfb, 0xde, 0x3b, 0xbe,
  0x7d, 0x34, 0x4d, 0xbc, 0x1d, 0x9b, 0xee, 0xbc, 0x8d, 0x1a, 0x06, 0x3d,
  0x1a, 0xf1, 0x8d, 0x3d, 0x27, 0x4e, 0x4f, 0x3e, 0x51, 0xe7, 0x9f, 0xbd,
  0x62, 0xe8, 0xea, 0x3d, 0xda, 0xfa, 0x27, 0xbd, 0x5c, 0x0c, 0x4b, 0xbe,
  0x54, 0xb5, 0x77, 0xbe, 0xfd, 0x1e, 0x01, 0x3f, 0xeb, 0xbc, 0x0f, 0xbe,
  0x18, 0xcf, 0x75, 0xbd, 0x10, 0x77, 0x85, 0x3d, 0x88, 0x54, 0x3d, 0xbe,
  0x8b, 0x46, 0x02, 0x3e, 0x60, 0x2a, 0x05, 0x3e, 0xc1, 0x27, 0x8d, 0xbd,
  0x69, 0xa7, 0xd3, 0xbc, 0xc1, 0x9c, 0x91, 0xbe, 0x54, 0x16, 0x3d, 0xbd,
  0xba, 0xc3, 0xe3, 0xbd, 0x3a, 0xd0, 0x5d, 0x3d, 0x6c, 0x2b, 0x57, 0xbc,
  0xb3, 0x2e, 0x5c, 0xbe, 0xc5, 0xc7, 0xc1, 0x3d, 0x4c, 0xc3, 0x88, 0x3e,
  0x77, 0xdf, 0x5f, 0xbe, 0x4c, 0x4a, 0x8e, 0x3d, 0x75, 0x95, 0xcd, 0xbd,
  0x8f, 0x13, 0xbb, 0x3c, 0xec, 0xc2, 0x8f, 0xbd, 0x0a, 0xef, 0x34, 0x3b,
  0x60, 0x7a, 0x56, 0xbe, 0x1c, 0x75, 0xe7, 0xbd, 0x6b, 0xce, 0x8f, 0xbd,
  0xa7, 0x65, 0x86, 0x3e, 0x71, 0xe7, 0x80, 0xbe, 0x4d, 0xeb, 0xc9, 0xbc,
  0xd2, 0x4d, 0x34, 0x3d, 0x60, 0xfa, 0xa0, 0x3a, 0x7e, 0x11, 0x29, 0xbe,
  0x46, 0x70, 0x51, 0x3f, 0x16, 0xd0, 0x87, 0xbe, 0x79, 0x9c, 0x03, 0xbe,
  0x9c, 0x6d, 0x15, 0xbe, 0x89, 0x1c, 0x3d, 0xbe, 0x2a, 0xcf, 0x16, 0xbe,
  0x5e, 0xf7, 0x49, 0x3b, 0x8b, 0x55, 0xbc, 0x3d, 0xcc, 0x8e, 0xf7, 0xbd,
  0x54, 0x3a, 0x66, 0xbd, 0x2f, 0x75, 0x23, 0x3e, 0x2f, 0x54, 0xd3, 0x3d,
  0x81, 0x06, 0x40, 0xbe, 0x03, 0x3d, 0x80, 0xbe, 0xe4, 0x9a, 0xf9, 0xbd,
  0x9d, 0x4e, 0x6e, 0xbe, 0xb9, 0xaf, 0xbf, 0xbb, 0xe8, 0x44, 0x6e, 0xbe,
  0x68, 0xba, 0x9d, 0x3e, 0xa8, 0x2b, 0x3c, 0x3d, 0xa7, 0x10, 0x43, 0xbd,
  0xc9, 0x98, 0x03, 0xbe, 0x7d, 0x1c, 0xc4, 0xbc, 0x15, 0x55, 0x2b, 0x3d,
  0xdd, 0x58, 0x33, 0xbe, 0x99, 0x16, 0x06, 0x3e, 0x8d, 0xa6, 0xa8, 0xbd,
  0xbb, 0x63, 0x92, 0x3d, 0x4b, 0x43, 0x0c, 0xbe, 0x2f, 0x86, 0xca, 0xbd,
  0xc0, 0xda, 0x11, 0xbe, 0xbb, 0x35, 0xec, 0xbd, 0x1b, 0x47, 0x60, 0xbe,
  0xa9, 0xc9, 0x74, 0xbe, 0xb2, 0xcf, 0xe6, 0x3d, 0x75, 0x0d, 0x6a, 0xbc,
  0xae, 0x0a, 0x14, 0xbe, 0xcd, 0x94, 0x6a, 0x3c, 0xd6, 0x93, 0xff, 0xbd,
  0xfd, 0x7f, 0xb2, 0xba, 0x7d, 0x03, 0xa6, 0x3b, 0xa9, 0xe1, 0x0e, 0xbe,
  0xd3, 0x9c, 0x91, 0x3d, 0x46, 0xce, 0x25, 0xbe, 0x08, 0x6b, 0x0f, 0xbe,
  0xfb, 0x23, 0x45, 0x3d, 0x22, 0x50, 0x22, 0x3d, 0xcb, 0xdb, 0x30, 0xbe,
  0x4d, 0x78, 0x41, 0xbe, 0x3c, 0xdc, 0x07, 0xbe, 0xd6, 0x6d, 0x98, 0x3d,
  0xd7, 0x5b, 0x3a, 0xbd, 0x9f, 0x17, 0x9b, 0xbd, 0x6c, 0x0f, 0x84, 0xbe,
  0x56, 0xcd, 0x8d, 0xbd, 0xac, 0xd6, 0x33, 0x3d, 0x2b, 0xbb, 0x91, 0xbd,
  0xee, 0xce, 0xc9, 0x3d, 0xb4, 0xda, 0xb8, 0xbb, 0x5a, 0x60, 0xbb, 0x3d,
  0x7b, 0xd0, 0x50, 0xbe, 0x8b, 0xb6, 0x63, 0xbe, 0x14, 0xfe, 0xdb, 0x3d,
  0x75, 0x63, 0x55, 0xbe, 0x55, 0xdd, 0x02, 0x3e, 0x99, 0xa6, 0xc4, 0x3a,
  0x62, 0xc8, 0xec, 0x3d, 0x74, 0xb5, 0x5d, 0xbe, 0x30, 0x4a, 0x39, 0xbe,
  0xce, 0x0c, 0x8b, 0xbe, 0x03, 0x82, 0x01, 0xbe, 0x2f, 0x14, 0x43, 0x3d,
  0x96, 0x1c, 0xa1, 0x3d, 0x73, 0xff, 0xc0, 0xbd, 0x78, 0xad, 0xd6, 0x3c,
  0x26, 0x04, 0x94, 0xbd, 0x9c, 0xba, 0x82, 0x3d, 0xbd, 0xdd, 0x62, 0x3d,
  0xe8, 0x89, 0x06, 0xbe, 0xe0, 0x4c, 0x04, 0x3e, 0xab, 0xcc, 0x4e, 0x3c,
  0x71, 0x13, 0xd1, 0x3d, 0xc0, 0x73, 0x8b, 0x3d, 0xed, 0xe3, 0x61, 0xbd,
  0x8b, 0x8b, 0xd8, 0xbd, 0x20, 0x2b, 0xf0, 0x3d, 0x8d, 0x49, 0x7d, 0xbe,
  0x48, 0x8d, 0xca, 0xbd, 0xfb, 0xa0, 0xfd, 0xbc, 0xf0, 0x13, 0x65, 0xbe,
  0x27, 0xb9, 0x4f, 0x3e, 0xad, 0x36, 0xce, 0x3d, 0xdc, 0x39, 0xad, 0x3d,
  0x84, 0x11, 0xc3, 0xbd, 0xc8, 0x9f, 0xf7, 0xb7, 0x88, 0x6e, 0xdb, 0x3d,
  0xf0, 0x6e, 0x11, 0x3e, 0x90, 0xe4, 0xb9, 0xbd, 0x35, 0xc4, 0xfc, 0x3d,
  0xbc, 0x77, 0x2a, 0xbe, 0xb1, 0x18, 0xa5, 0xbd, 0x0f, 0xf0, 0x2e, 0xbe,
  0xdf, 0x8e, 0x4c, 0xbe, 0x9f, 0x1d, 0x18, 0xbe, 0x9d, 0x44, 0x99, 0x3d,
  0xd5, 0xe1, 0xa0, 0xbd, 0x71, 0x39, 0x41, 0x3e, 0x08, 0x59, 0x38, 0x3d,
  0x77, 0xa3, 0x3b, 0xbd, 0x08, 0x4a, 0xfb, 0x3d, 0x42, 0x11, 0x6b, 0xbd,
  0x5c, 0x6f, 0x15, 0xbe, 0x07, 0xce, 0x45, 0x3e, 0x1e, 0x9b, 0xb3, 0x3d,
  0xdd, 0x84, 0xf0, 0x3c, 0x2a, 0xad, 0x00, 0xbd, 0xd8, 0x9c, 0x5e, 0xbe,
  0x1e, 0x54, 0x68, 0xbe, 0x65, 0x7f, 0x3e, 0xbe, 0x42, 0xdd, 0x86, 0xbd,
  0x9d, 0xd1, 0x16, 0xbe, 0xaf, 0xf1, 0x17, 0xbe, 0x6c, 0x4f, 0x07, 0x3e,
  0x62, 0xa4, 0xaa, 0x3d, 0x5d, 0xf6, 0x63, 0xbd, 0x29, 0xc1, 0x51, 0xbe,
  0xa4, 0xf2, 0x88, 0x3d, 0xff, 0x35, 0xf9, 0xbd, 0xd3, 0x6f, 0x59, 0xbe,
  0x04, 0xdb, 0x08, 0x3d, 0x11, 0x91, 0x0a, 0xbd, 0xcd, 0x45, 0xf1, 0xbd,
  0x34, 0xb4, 0x3d, 0xbd, 0xa9, 0xa8, 0x2e, 0xbe, 0x27, 0xfa, 0x51, 0xbe,
  0xf9, 0x26, 0xa0, 0x3d, 0x00, 0x18, 0x09, 0x3e, 0x95, 0x0e, 0x26, 0xbe,
  0x98, 0xe1, 0x1d, 0xbe, 0x32, 0xa0, 0x21, 0xbe, 0x6f, 0x00, 0xa0, 0xbe,
  0xbc, 0xad, 0x3d, 0xbe, 0xc0, 0xc5, 0x88, 0x3e, 0xb7, 0x7c, 0x2d, 0xbe,
  0xa1, 0xdb, 0x38, 0xbb, 0x48, 0x14, 0x0b, 0xbe, 0xe1, 0xeb, 0x2a, 0x3b,
  0x1e, 0xe7, 0x2f, 0xbe, 0xd7, 0x88, 0x87, 0x3e, 0xfa, 0xf3, 0x21, 0xbe,
  0xcf, 0x1a, 0x78, 0x3d, 0x08, 0x7a, 0x2c, 0xbd, 0x37, 0x00, 0x89, 0x3d,
  0x44, 0xd5, 0x18, 0xbd, 0x8f, 0x10, 0x4f, 0x3d, 0x71, 0x63, 0xa2, 0x3d,
  0xd8, 0x1b, 0x28, 0xbe, 0xfa, 0x14, 0xc5, 0x3c, 0xb5, 0xad, 0x35, 0x3d,
  0xc3, 0x37, 0xed, 0xbd, 0xf7, 0x83, 0x5e, 0xbd, 0xbe, 0x98, 0x85, 0x3d,
  0x97, 0x2a, 0x28, 0x3d, 0xfe, 0xb7, 0x51, 0xbe, 0xc2, 0xba, 0xa1, 0x3e,
  0xf1, 0xc0, 0xad, 0x3d, 0xd2, 0xc6, 0xb4, 0x3d, 0x6b, 0x67, 0x82, 0xbd,
  0xe5, 0x6a, 0x5b, 0x3e, 0x96, 0xc4, 0x79, 0xbd, 0x65, 0x47, 0x67, 0xbd,
  0xcf, 0xbf, 0x8c, 0x3d, 0x2b, 0x72, 0x3e, 0x3d, 0xfa, 0xff, 0x5f, 0xbe,
  0x36, 0x6c, 0x14, 0xbe, 0xf9, 0x84, 0x0b, 0x3e, 0x96, 0xfe, 0x1f, 0x3d,
  0x24, 0x3d, 0xc4, 0x3c, 0x09, 0xc3, 0xac, 0xbd, 0xc3, 0x63, 0x39, 0xbe,
  0x3f, 0xbc, 0xb1, 0x3e, 0x78, 0xe3, 0x62, 0x3c, 0x7c, 0xa3, 0xc2, 0xbd,
  0xce, 0x3e, 0xa1, 0xbd, 0xa2, 0xb4, 0x9c, 0x3d, 0x64, 0x2c, 0x73, 0x3d,
  0x42, 0x2b, 0x40, 0x3c, 0xb5, 0xb7, 0x03, 0xbe, 0xe1, 0x31, 0x23, 0xbd,
  0xd1, 0xa9, 0xe2, 0x3d, 0x9f, 0xe0, 0x21, 0xbd, 0xad, 0x96, 0x89, 0xbd,
  0xd1, 0x47, 0x74, 0xbe, 0xbc, 0xcd, 0x29, 0xbe, 0xf0, 0xa6, 0x09, 0xbd,
  0x60, 0x81, 0x13, 0x3d, 0x98, 0xc3, 0x22, 0x3e, 0xde, 0xc6, 0x92, 0x3d,
  0x1b, 0x68, 0xdd, 0xbd, 0x30, 0x32, 0x0c, 0xbd, 0x7e, 0x97, 0xaa, 0x3c,
  0x88, 0x3a, 0x05, 0xbd, 0xc8, 0xd5, 0x67, 0x3e, 0xeb, 0xce, 0xf8, 0x3c,
  0x13, 0xf8, 0x03, 0xbe, 0xf4, 0xf5, 0x9b, 0xbd, 0x42, 0xe2, 0x1f, 0x3e,
  0x81, 0xa0, 0x15, 0x3e, 0x9f, 0xf4, 0x35, 0xbe, 0xb0, 0x15, 0x0c, 0x3e,
  0x03, 0x41, 0x92, 0x3d, 0x91, 0xb2, 0x13, 0xbe, 0x74, 0x5a, 0x18, 0x3e,
  0xdf, 0x3f, 0x78, 0xbc, 0x72, 0x7b, 0x49, 0xbe, 0x9a, 0xd3, 0xc0, 0xbd,
  0x37, 0x4f, 0x70, 0x3e, 0xb0, 0xb9, 0x8c, 0xbd, 0xbd, 0xc4, 0x91, 0x3c,
  0x0b, 0xec, 0x95, 0x3e, 0xdd, 0x41, 0x23, 0xbd, 0xc7, 0x72, 0xd3, 0xbd,
  0x46, 0x13, 0x95, 0x3e, 0xde, 0x79, 0x34, 0xbe, 0x35, 0xcc, 0x51, 0xbe,
  0x62, 0x4d, 0xac, 0xbd, 0x2d, 0xaa, 0x27, 0x3a, 0x80, 0x6d, 0x46, 0xbe,
  0x4a, 0x8a, 0x6c, 0x3e, 0x39, 0x37, 0x01, 0xbc, 0x2f, 0xa7, 0x3b, 0xbe,
  0x26, 0xf6, 0xa8, 0x3c, 0xb2, 0x80, 0x67, 0xbd, 0x32, 0xec, 0x68, 0xbe,
  0xca, 0xcb, 0xb5, 0x3d, 0x20, 0x41, 0x8c, 0xbb, 0x77, 0xec, 0x60, 0xbe,
  0x55, 0xf6, 0x2f, 0x3e, 0x78, 0x76, 0x84, 0x3e, 0x83, 0xb9, 0xa7, 0x3d,
  0x53, 0x35, 0x3e, 0x3d, 0x2e, 0x03, 0x8a, 0x3d, 0xf3, 0x1f, 0xa8, 0xbc,
  0xae, 0x80, 0x3e, 0xbd, 0xaa, 0x1c, 0xc8, 0x3d, 0x17, 0x63, 0x22, 0xbe,
  0xcd, 0xd0, 0xd8, 0xbd, 0x64, 0x4f, 0x45, 0xbe, 0x7a, 0x30, 0x0c, 0x3d,
  0xf6, 0xb8, 0x91, 0x3d, 0xd8, 0xf7, 0x0e, 0xbd, 0xd3, 0x3b, 0x19, 0xbd,
  0x3d, 0xaf, 0xe3, 0xbd, 0xcf, 0x78, 0x37, 0x3e, 0xc2, 0xa1, 0x31, 0x3e,
  0xbc, 0x06, 0x96, 0xbd, 0x1e, 0x96, 0x2e, 0xbe, 0xfc, 0x2e, 0xd2, 0xbd,
  0xae, 0x39, 0x94, 0x3c, 0xec, 0x8b, 0x8b, 0x3d, 0x39, 0x69, 0x96, 0xba,
  0x1f, 0x2f, 0x7d, 0xbe, 0x8a, 0x80, 0x7f, 0x3d, 0x8b, 0x04, 0x24, 0x3e,
  0x30, 0x01, 0x31, 0x3d, 0x07, 0x79, 0x7f, 0xbe, 0x65, 0x7a, 0x1a, 0x3d,
  0x3d, 0xf8, 0x07, 0xbe, 0x85, 0x93, 0xa4, 0x3d, 0xb7, 0x7b, 0x2f, 0x3c,
  0xec, 0xc8, 0xcd, 0xbd, 0xb5, 0xcd, 0x34, 0xbe, 0x69, 0xd1, 0xb5, 0xbc,
  0xff, 0x68, 0x10, 0xbd, 0xd4, 0x6d, 0x83, 0x3d, 0x9a, 0xbd, 0x81, 0xbe,
  0x28, 0x95, 0xee, 0xbd, 0x47, 0x25, 0x3b, 0xbe, 0x7e, 0x8c, 0x2d, 0x3d,
  0x1b, 0x95, 0x38, 0xbe, 0x81, 0x98, 0x15, 0xbd, 0xb1, 0x54, 0x03, 0x3d,
  0xed, 0xc4, 0xce, 0x3d, 0x9d, 0x28, 0x2e, 0xbe, 0x01, 0x19, 0x78, 0xbe,
  0xa4, 0x3f, 0x9b, 0xbd, 0xbb, 0x10, 0x16, 0xbe, 0x04, 0xe0, 0xea, 0x3c,
  0x0c, 0xe2, 0x2c, 0xbd, 0x72, 0x26, 0x3d, 0xbe, 0xe4, 0xbe, 0xcb, 0xbd,
  0x04, 0x7b, 0x94, 0xbe, 0xab, 0x37, 0xed, 0xbb, 0xe8, 0xca, 0x20, 0xbe,
  0xcc, 0xc3, 0x1e, 0x3e, 0x74, 0x47, 0x4b, 0xbe, 0xc7, 0x86, 0x1e, 0xbe,
  0xe9, 0x76, 0x17, 0x3d, 0x1b, 0x1f, 0x1e, 0xbe, 0x81, 0xe5, 0x15, 0x3c,
  0xac, 0x12, 0xde, 0xbc, 0x4f, 0x15, 0x17, 0x3e, 0xe2, 0x18, 0x26, 0x3e,
  0x4b, 0xc3, 0x67, 0xbd, 0x5d, 0x29, 0xf1, 0xbd, 0x75, 0x86, 0xa9, 0x3b,
  0x11, 0x24, 0xda, 0x3d, 0xdf, 0x91, 0x42, 0xbd, 0xbc, 0xf9, 0xdd, 0xbd,
  0x49, 0xdc, 0xc1, 0x3d, 0xac, 0x7c, 0xfd, 0xbd, 0xc0, 0x90, 0x0a, 0xbe,
  0x62, 0x65, 0xc5, 0xbd, 0x2d, 0xe1, 0x32, 0xbe, 0xe8, 0xb3, 0x39, 0x3d,
  0x0d, 0xf5, 0x0a, 0xbe, 0xb2, 0x12, 0x5f, 0xbe, 0xaf, 0xf6, 0x7c, 0x3b,
  0xa7, 0x2d, 0x11, 0x3e, 0x1e, 0xb8, 0x8e, 0xbd, 0x81, 0x04, 0x0f, 0x3e,
  0x1c, 0x9a, 0xa3, 0xbd, 0x7f, 0x62, 0x41, 0xbd, 0x8a, 0xd1, 0x14, 0xbe,
  0xa9, 0x54, 0xc3, 0x3d, 0x2d, 0x60, 0x68, 0xbd, 0xbe, 0x1e, 0x94, 0x3d,
  0xae, 0x36, 0x39, 0xbe, 0x48, 0x74, 0x4e, 0xbd, 0x60, 0x01, 0x43, 0xbe,
  0xde, 0xd0, 0x40, 0xbe, 0x29, 0xe4, 0x03, 0xbe, 0x06, 0x14, 0x87, 0xbe,
  0xa7, 0x36, 0x09, 0x3d, 0x62, 0xd5, 0xd8, 0xbc, 0x3e, 0x85, 0xc9, 0x3d,
  0x01, 0x77, 0xbf, 0x3d, 0x3d, 0x24, 0x2f, 0x3e, 0x70, 0xa3, 0xd5, 0x3d,
  0xb3, 0x47, 0x30, 0xbe, 0x82, 0x43, 0xac, 0x3d, 0x2f, 0x26, 0x7a, 0xbe,
  0xf3, 0x74, 0x33, 0xbe, 0xfd, 0x9d, 0x82, 0xbe, 0x93, 0x17, 0x91, 0xbd,
  0x5c, 0xb8, 0x09, 0x3e, 0x31, 0xce, 0x4a, 0xbe, 0xa7, 0x27, 0x4f, 0xbd,
  0x17, 0x05, 0xfb, 0xbc, 0x3a, 0x1a, 0x55, 0x3c, 0x97, 0x5e, 0x5f, 0xbe,
  0xf5, 0x62, 0x05, 0x3e, 0xec, 0xe2, 0x39, 0xbe, 0xa3, 0xb2, 0x34, 0xbe,
  0xfd, 0xe3, 0xf3, 0xbc, 0x44, 0x36, 0x3a, 0x3d, 0xc5, 0x09, 0xc9, 0xbd,
  0x90, 0x65, 0xaa, 0x3d, 0x85, 0xa6, 0x5f, 0x3d, 0xf1, 0xef, 0xac, 0xbe,
  0x70, 0x28, 0xcf, 0xbd, 0xfa, 0x03, 0x64, 0xbd, 0x8d, 0x33, 0xbe, 0x3d,
  0x6c, 0xb3, 0x09, 0x3e, 0x22, 0x70, 0xf3, 0xbc, 0x0c, 0x0e, 0xa7, 0x3d,
  0x57, 0x17, 0xa4, 0xbd, 0xba, 0x13, 0xbb, 0x3a, 0x3c, 0x59, 0xe5, 0x3d,
  0x52, 0xaa, 0x34, 0x3d, 0x58, 0x79, 0x59, 0x3e, 0x68, 0x2b, 0x05, 0xbe,
  0x5b, 0xe5, 0xa0, 0x3d, 0xc4, 0x3b, 0xeb, 0x3c, 0xd5, 0xcf, 0x04, 0xbe,
  0x35, 0x98, 0xd4, 0xbe, 0xec, 0x47, 0x87, 0x3c, 0x3e, 0x43, 0x14, 0xbe,
  0xed, 0x58, 0xf2, 0xbd, 0x5f, 0xc1, 0xe5, 0xbb, 0x8e, 0x8f, 0xdf, 0xbd,
  0x12, 0x0a, 0x3d, 0x3e, 0x26, 0x1c, 0x95, 0x3d, 0x24, 0x82, 0x55, 0x3c,
  0x58, 0x34, 0x89, 0x3d, 0x3f, 0x9a, 0x84, 0xbd, 0x9f, 0xf8, 0x29, 0x3e,
  0xad, 0xa1, 0xb3, 0x3d, 0x89, 0xa2, 0x68, 0xbe, 0x72, 0x15, 0x1a, 0xbe,
  0xd1, 0x26, 0xb3, 0xbe, 0x31, 0x41, 0x99, 0xbe, 0x4f, 0xc3, 0xe6, 0xbd,
  0xeb, 0xee, 0x19, 0x3d, 0x73, 0xab, 0xd8, 0x3d, 0xa8, 0x9f, 0xdf, 0x3c,
  0xcf, 0xc7, 0xa0, 0xbe, 0x9e, 0x32, 0x0a, 0x3e, 0x85, 0xb3, 0xdf, 0xbd,
  0x48, 0x94, 0x8e, 0xbd, 0x09, 0x0f, 0x10, 0x3e, 0xca, 0x1c, 0xb2, 0xbd,
  0x7a, 0xc1, 0x59, 0x3e, 0xbc, 0xe6, 0x2f, 0x3b, 0xf8, 0x82, 0xed, 0xbd,
  0x6f, 0xce, 0x8b, 0x3d, 0x4c, 0xae, 0xcb, 0xbe, 0xc2, 0x8e, 0x74, 0xbe,
  0xfc, 0xf5, 0x8d, 0xbe, 0x98, 0x09, 0x3f, 0xbe, 0x65, 0x1b, 0xa4, 0xbd,
  0x53, 0x59, 0x96, 0x3e, 0xb1, 0x0c, 0xc1, 0x3d, 0x23, 0xe0, 0x5a, 0x3e,
  0xb8, 0x33, 0x89, 0xbd, 0xad, 0x24, 0x0f, 0xbe, 0x25, 0x48, 0xa5, 0xbd,
  0x2c, 0x52, 0x91, 0x3d, 0x1c, 0xd1, 0x9c, 0x3e, 0x50, 0x0b, 0x1f, 0x3e,
  0x2b, 0x7b, 0xdc, 0x3d, 0x92, 0x6a, 0x36, 0xbe, 0x4c, 0xfd, 0xf1, 0xbe,
  0x96, 0x3a, 0x99, 0xbe, 0xd8, 0x41, 0xf6, 0xbd, 0x48, 0x60, 0x56, 0xbe,
  0x05, 0x97, 0xe3, 0xbd, 0xd4, 0x5f, 0x0a, 0x3e, 0x2e, 0x64, 0x07, 0xbe,
  0xe9, 0x70, 0x56, 0x3e, 0x32, 0x36, 0x1f, 0x3d, 0xa9, 0x97, 0x09, 0xbd,
  0x3f, 0xe0, 0x5b, 0xbd, 0x7f, 0xd6, 0xef, 0xbd, 0xbf, 0x66, 0xac, 0x3e,
  0x7a, 0x69, 0x77, 0x3d, 0xc4, 0x2e, 0x61, 0xbd, 0x8c, 0x56, 0x3c, 0x3d,
  0x25, 0x70, 0xe9, 0xbe, 0x58, 0x92, 0x8b, 0xbd, 0x6a, 0x5d, 0x57, 0xbd,
  0x4e, 0x36, 0x05, 0xbe, 0x3b, 0x3a, 0x35, 0x3b, 0x1b, 0x38, 0xb2, 0x3e,
  0x0c, 0x74, 0x5a, 0xbe, 0x48, 0x8a, 0x06, 0x3d, 0x2b, 0xd1, 0x4a, 0xbe,
  0xe1, 0xe5, 0x3c, 0x3d, 0xc3, 0x47, 0x75, 0x3d, 0xd9, 0xc5, 0x1c, 0x3c,
  0x1e, 0xb2, 0xc6, 0x3e, 0xd3, 0x90, 0x0e, 0x3b, 0xea, 0xd6, 0x5b, 0xbd,
  0x95, 0xc2, 0xa0, 0xbd, 0xeb, 0xc4, 0xf6, 0xbe, 0xad, 0xbf, 0x1c, 0xbe,
  0x35, 0x56, 0x25, 0xbe, 0x95, 0x82, 0x84, 0x3d, 0xe3, 0x55, 0x1b, 0xbe,
  0x88, 0x6a, 0xaf, 0x3e, 0x93, 0xaf, 0xd5, 0xbd, 0x1a, 0x5e, 0x56, 0x3e,
  0xd0, 0x37, 0x06, 0xbe, 0xa4, 0x8a, 0xd9, 0xba, 0x1b, 0x68, 0xda, 0xbd,
  0x33, 0xea, 0xce, 0xbd, 0xf5, 0xd8, 0x13, 0x3f, 0x39, 0x11, 0x1b, 0x3d,
  0xd7, 0x22, 0x77, 0xbe, 0x10, 0x48, 0x52, 0x3e, 0xfd, 0xb6, 0xa9, 0xbe,
  0xf2, 0x6d, 0x1e, 0xbe, 0x84, 0x8c, 0x5b, 0x3e, 0x41, 0xa9, 0x53, 0xbe,
  0x11, 0xeb, 0x9d, 0xbd, 0x57, 0x66, 0x99, 0xbd, 0x71, 0x7f, 0x76, 0x3c,
  0x7f, 0x2b, 0x05, 0xbe, 0x13, 0x52, 0x30, 0x3d, 0x57, 0xdd, 0x18, 0xbb,
  0xed, 0xce, 0x94, 0xbd, 0x83, 0xda, 0x5b, 0x3c, 0xa6, 0x88, 0xd5, 0xbd,
  0xda, 0x43, 0x02, 0xb9, 0x30, 0xac, 0x05, 0x3e, 0xb2, 0x65, 0x3b, 0x3d,
  0x7a, 0xdc, 0x04, 0xbd, 0x13, 0xcb, 0x8e, 0x3d, 0x2e, 0xc6, 0x11, 0x3e,
  0x21, 0x86, 0xf0, 0x3d, 0x4e, 0xb9, 0x57, 0x3e, 0xd7, 0xf5, 0x03, 0x3d,
  0x34, 0x92, 0x66, 0xbe, 0xee, 0xc3, 0x99, 0xba, 0xf2, 0x70, 0xd7, 0x3d,
  0x67, 0xed, 0xc9, 0x39, 0xa3, 0xec, 0xb7, 0x3d, 0x67, 0x92, 0xd1, 0xbb,
  0x8a, 0x15, 0x8e, 0x3c, 0x02, 0xf7, 0x6f, 0xbe, 0x78, 0xd0, 0xb6, 0x3d,
  0x06, 0x9f, 0x44, 0xbe, 0x32, 0x67, 0x12, 0xbe, 0x09, 0x86, 0xda, 0x3d,
  0x22, 0x71, 0x69, 0xbd, 0xf7, 0xfd, 0x96, 0x3d, 0xe1, 0x3f, 0x9e, 0xbc,
  0x3d, 0xcb, 0x9f, 0x3d, 0x0a, 0xca, 0x70, 0xbe, 0xca, 0x5d, 0xee, 0xbd,
  0x7d, 0x1e, 0x1b, 0x3e, 0x0c, 0x8f, 0x24, 0x3e, 0x1a, 0x4d, 0x22, 0xbe,
  0x63, 0xe2, 0x96, 0x3d, 0xf4, 0xb9, 0xa3, 0xbd, 0x92, 0x53, 0xca, 0xbd,
  0xf9, 0x2f, 0x91, 0x3e, 0xcf, 0x7d, 0x50, 0xbe, 0xf7, 0x3d, 0x30, 0xbe,
  0x96, 0xcc, 0x96, 0x3b, 0xa9, 0x2a, 0x69, 0xbd, 0x1a, 0x37, 0x23, 0xbc,
  0xb9, 0xca, 0x69, 0x3e, 0xd2, 0x7d, 0x4f, 0x3d, 0xb8, 0x01, 0x31, 0x3c,
  0x7b, 0x55, 0xa4, 0xbd, 0xf5, 0xa7, 0x11, 0x3d, 0xea, 0xd4, 0x71, 0xbd,
  0x74, 0xc0, 0x01, 0x3c, 0x5a, 0xe5, 0x32, 0xbe, 0xc2, 0xf0, 0x83, 0xbd,
  0x13, 0x9b, 0x0b, 0xbe, 0x37, 0x90, 0x1d, 0x3e, 0x32, 0x47, 0x0e, 0x3c,
  0x13, 0x29, 0x2a, 0xbe, 0x3f, 0xd2, 0x40, 0x3e, 0x08, 0x4f, 0x24, 0x3e,
  0x76, 0x43, 0x48, 0xbe, 0x1f, 0x1c, 0x2a, 0x3c, 0x8f, 0x16, 0x90, 0xbe,
  0x9b, 0xcb, 0x65, 0xbe, 0xb2, 0x8b, 0xd4, 0xbd, 0x60, 0xce, 0xd6, 0xbd,
  0x7e, 0xc0, 0x8e, 0x3d, 0x32, 0x46, 0x9e, 0xbd, 0xc3, 0xb2, 0xdd, 0x3d,
  0x05, 0x0b, 0xd8, 0xbc, 0x91, 0xdc, 0xa4, 0xbd, 0xb6, 0x77, 0xf0, 0xbc,
  0x99, 0xc0, 0x0e, 0xbe, 0x9a, 0x44, 0xf0, 0x3d, 0xdf, 0xee, 0xda, 0xbd,
  0x7a, 0x37, 0x8e, 0x3e, 0x0e, 0x76, 0x1b, 0xbe, 0x76, 0x8d, 0x06, 0xbe,
  0x1a, 0xd3, 0x80, 0xbe, 0x12, 0xeb, 0x5a, 0x3d, 0xe1, 0x61, 0xd0, 0x3d,
  0xcf, 0x6f, 0x1e, 0x3e, 0x05, 0xdf, 0x09, 0x3e, 0x7e, 0x2f, 0x2b, 0xbe,
  0x25, 0x7a, 0x4a, 0xbc, 0xa3, 0xf4, 0xb3, 0x3c, 0x58, 0x8d, 0x41, 0xbd,
  0x60, 0x15, 0xd1, 0x3d, 0xbb, 0x54, 0xe8, 0xbd, 0xf6, 0xa2, 0xb3, 0xbd,
  0x9b, 0x7b, 0xce, 0xbc, 0x12, 0xa7, 0xff, 0xbc, 0x93, 0x0b, 0x1e, 0x3c,
  0x49, 0x38, 0x10, 0x3e, 0x94, 0x41, 0xfd, 0x3b, 0x9f, 0x9e, 0xa9, 0xbd,
  0x72, 0xbd, 0x34, 0x3d, 0xf5, 0x94, 0xee, 0xbd, 0x74, 0x19, 0x0a, 0xbe,
  0x6b, 0x93, 0x7a, 0xbd, 0x6a, 0x05, 0x45, 0xbe, 0x5c, 0x12, 0x84, 0x3d,
  0x23, 0x5e, 0x71, 0xbe, 0x4a, 0x23, 0x9c, 0x3e, 0xb3, 0x90, 0x41, 0xbe,
  0xda, 0xb5, 0x13, 0xbe, 0x92, 0x73, 0xaf, 0xbe, 0x95, 0x11, 0xbf, 0xbd,
  0x55, 0x22, 0xce, 0x3b, 0x46, 0x49, 0x69, 0xbe, 0x06, 0x41, 0xc5, 0x3d,
  0xcc, 0xcc, 0x3b, 0xba, 0x48, 0xe1, 0x8e, 0xbd, 0xc1, 0xd1, 0x88, 0xbd,
  0x9b, 0x22, 0x56, 0x3c, 0xf2, 0x0a, 0xfa, 0xbc, 0xd6, 0xd5, 0x51, 0xbd,
  0x07, 0xaf, 0xa2, 0x3e, 0x87, 0x6f, 0xdf, 0x3d, 0xac, 0x60, 0x91, 0xbe,
  0xff, 0xa9, 0x6f, 0xbc, 0x4a, 0x63, 0xfc, 0xbd, 0x86, 0xb9, 0x9d, 0xbe,
  0x7e, 0x9a, 0x8e, 0xbe, 0x3b, 0x6b, 0xe3, 0xbd, 0x50, 0xe5, 0x0d, 0x3e,
  0xa1, 0xee, 0xb3, 0x3d, 0x19, 0x92, 0x31, 0x3b, 0x9b, 0x37, 0xd0, 0x3d,
  0x76, 0x85, 0x18, 0x3e, 0x28, 0x6c, 0x8b, 0xbe, 0xf9, 0x83, 0xb4, 0x3b,
  0x6e, 0xb8, 0xc6, 0xbc, 0x06, 0x88, 0x9d, 0x3d, 0x1d, 0x83, 0x2b, 0xbd,
  0x84, 0xd4, 0x1a, 0xbe, 0x33, 0xe3, 0x6b, 0x3c, 0x11, 0xaf, 0x45, 0xbe,
  0xe1, 0x08, 0x0d, 0x3c, 0xb5, 0x4c, 0x35, 0xbe, 0x37, 0xde, 0xf5, 0xbd,
  0x89, 0xce, 0x55, 0xbe, 0x69, 0x41, 0xd5, 0x3c, 0xc8, 0x57, 0xea, 0x3c,
  0x9c, 0x1a, 0x81, 0x3e, 0x9b, 0x16, 0x5f, 0x3c, 0xfc, 0x67, 0x04, 0xbe,
  0x02, 0x9b, 0x3e, 0xbe, 0xda, 0x71, 0xb2, 0x3d, 0xdb, 0x2d, 0x68, 0x3e,
  0xc3, 0xa9, 0x33, 0x3e, 0x9d, 0xe6, 0x61, 0x3e, 0x95, 0x28, 0x44, 0xbe,
  0xbf, 0xa0, 0xaf, 0xbe, 0x1b, 0x06, 0x6e, 0xbe, 0x7e, 0x7d, 0xcd, 0x3c,
  0x28, 0x54, 0x0f, 0xbe, 0xfe, 0xf7, 0x06, 0x3d, 0xb7, 0xf3, 0xa9, 0x3c,
  0x06, 0xf5, 0x53, 0x3d, 0xd8, 0xe1, 0x9f, 0xbc, 0x02, 0x73, 0x7c, 0xbd,
  0xd8, 0x6e, 0xe9, 0xbd, 0xa2, 0xbc, 0x41, 0xbe, 0x05, 0x3a, 0xee, 0x3c,
  0x48, 0x3e, 0xfa, 0x3d, 0x85, 0xf4, 0xd5, 0xbc, 0x27, 0x44, 0x4a, 0xbe,
  0x98, 0x44, 0xf9, 0x3d, 0x39, 0xb3, 0x02, 0xbe, 0x11, 0x71, 0x9e, 0xbe,
  0xba, 0x10, 0x40, 0xbe, 0x38, 0x0c, 0x17, 0xbd, 0xb1, 0x14, 0x9b, 0x3d,
  0x56, 0x4a, 0x5a, 0x3e, 0x11, 0x1b, 0xa7, 0xbb, 0x5d, 0xac, 0xb3, 0x3e,
  0xd0, 0x37, 0x0d, 0x3e, 0x73, 0x23, 0xc6, 0xbc, 0xce, 0xd8, 0xdc, 0xbd,
  0x7e, 0x3e, 0x19, 0xbd, 0x40, 0x9b, 0x5d, 0x3e, 0xcf, 0x8f, 0x61, 0xbd,
  0x65, 0x92, 0x54, 0x3e, 0x82, 0xde, 0x80, 0xbd, 0xe3, 0xd7, 0x87, 0xbe,
  0x41, 0x7b, 0xd4, 0xbd, 0xf1, 0x28, 0x73, 0xbe, 0xf7, 0x5d, 0x7b, 0xbd,
  0x22, 0x6a, 0xb4, 0xbd, 0xe7, 0xe4, 0x1f, 0x3e, 0x57, 0xc6, 0x2d, 0xbe,
  0x72, 0xa7, 0x83, 0x3e, 0xaa, 0x83, 0xf9, 0x3d, 0xa2, 0xa9, 0xf2, 0xbd,
  0x9c, 0x00, 0x25, 0xbe, 0xc0, 0xdd, 0x8f, 0xbd, 0x85, 0x6b, 0xb7, 0x3e,
  0xac, 0xf8, 0xc2, 0xbc, 0xf7, 0x16, 0x1a, 0xbe, 0xe1, 0xa8, 0xf4, 0x3b,
  0x61, 0xd4, 0xd9, 0xbe, 0x59, 0x4c, 0x79, 0xbe, 0x41, 0x78, 0x78, 0xbe,
  0xc7, 0x6b, 0x15, 0xbd, 0x7a, 0xe4, 0x2a, 0x3e, 0x94, 0xe2, 0x29, 0x3e,
  0xba, 0xe7, 0x89, 0xbd, 0x66, 0x97, 0x54, 0x3e, 0x32, 0xda, 0x71, 0xbd,
  0x85, 0x90, 0x21, 0xbe, 0x25, 0xe9, 0x40, 0xbe, 0xb9, 0xb3, 0x16, 0x3e,
  0x69, 0x7c, 0x96, 0x3e, 0x5c, 0x8d, 0x8f, 0x3d, 0xa6, 0x75, 0xbd, 0x3d,
  0x17, 0x37, 0x09, 0x3d, 0x95, 0x34, 0xcd, 0xbd, 0x25, 0x01, 0x66, 0xbe,
  0xa3, 0xd2, 0xc7, 0x3d, 0xc3, 0x2c, 0x10, 0x3e, 0xbc, 0xdb, 0xa4, 0xbd,
  0x48, 0xa5, 0x00, 0x3e, 0x74, 0x7d, 0x3a, 0xbe, 0x98, 0xa3, 0x6a, 0x3d,
  0xae, 0xde, 0x0c, 0xbe, 0xb1, 0x7d, 0x9c, 0x3d, 0xcd, 0x34, 0x69, 0x3f,
  0x83, 0xb3, 0x01, 0xbe, 0x27, 0x01, 0xcd, 0x3d, 0x3a, 0xa6, 0xcc, 0xbc,
  0x55, 0x52, 0xbb, 0xbd, 0xeb, 0x48, 0x10, 0x3b, 0x57, 0x86, 0x19, 0x3d,
  0xc2, 0xcd, 0x2c, 0xbe, 0x63, 0x2e, 0x30, 0xbe, 0xb1, 0x07, 0x36, 0x3d,
  0x94, 0xb8, 0xeb, 0x3d, 0xeb, 0x50, 0x1f, 0xbc, 0xa5, 0x20, 0x43, 0xbd,
  0x4b, 0xc5, 0xce, 0xbc, 0xc8, 0x40, 0xe4, 0xbd, 0xb0, 0xcd, 0x15, 0xbd,
  0xf8, 0xc8, 0x72, 0x3f, 0x47, 0x89, 0x13, 0xbe, 0xa9, 0xa5, 0x67, 0xbe,
  0x8e, 0xe0, 0x33, 0xbe, 0x18, 0x4e, 0x29, 0xbe, 0x01, 0xd0, 0x7b, 0xbd,
  0xb2, 0xdf, 0x2d, 0x3e, 0x45, 0x65, 0xd3, 0xbc, 0x86, 0x7c, 0x5b, 0x3d,
  0x9c, 0x23, 0x8b, 0xbe, 0x81, 0x58, 0x1a, 0xbd, 0x10, 0x5b, 0x95, 0x3d,
  0x19, 0x88, 0x8c, 0x3d, 0xac, 0x6a, 0xfe, 0xbb, 0xe2, 0x1d, 0x7b, 0x3d,
  0x72, 0xcb, 0x22, 0xbe, 0xa8, 0x36, 0x0e, 0x3f, 0xda, 0x9f, 0x1a, 0xbe,
  0xc1, 0x1f, 0x81, 0xbb, 0xeb, 0x2c, 0x36, 0xbc, 0xcc, 0xb7, 0xdf, 0xbd,
  0x41, 0xa5, 0x61, 0xbe, 0x9f, 0xe4, 0xef, 0x3d, 0x8a, 0x9e, 0xc7, 0x3d,
  0x95, 0xfe, 0xc2, 0x3d, 0x0a, 0x3f, 0xdf, 0x3c, 0xbe, 0xc6, 0x11, 0xb9,
  0x92, 0xfe, 0xde, 0xbd, 0x3b, 0x87, 0xc5, 0xbc, 0x69, 0x7a, 0x67, 0xbe,
  0xdd, 0x7e, 0x62, 0xbd, 0x5c, 0x3b, 0x3c, 0xbe, 0x45, 0xd8, 0xd8, 0x3e,
  0xfd, 0xfd, 0x17, 0x3d, 0x0c, 0xd6, 0x2a, 0x3e, 0xb3, 0x3a, 0x4f, 0xbe,
  0xb8, 0x75, 0x0b, 0xbe, 0x11, 0x4a, 0x96, 0xbc, 0xae, 0x70, 0xd4, 0xba,
  0x89, 0x74, 0x9d, 0x3d, 0x50, 0x07, 0x95, 0x3d, 0xac, 0xa4, 0x30, 0xbd,
  0x4f, 0xe3, 0x06, 0xbe, 0xad, 0x47, 0x29, 0xbe, 0xb4, 0x9e, 0xe4, 0x3c,
  0x52, 0x0c, 0x7d, 0xbc, 0xa2, 0xee, 0xdd, 0xbc, 0xbc, 0x0c, 0x2f, 0xbe,
  0x56, 0x6c, 0xf6, 0x3e, 0x22, 0xae, 0xcc, 0x3d, 0xac, 0x5b, 0x99, 0xbd,
  0x3e, 0xdd, 0x4e, 0xbe, 0xf9, 0x26, 0x91, 0xbc, 0x15, 0x74, 0x34, 0xbe,
  0x0d, 0xc7, 0x9b, 0xbd, 0x2a, 0x28, 0x18, 0x3d, 0x5a, 0xaa, 0x81, 0xbe,
  0xdb, 0x67, 0x19, 0xbe, 0x43, 0x79, 0x0a, 0x3d, 0x91, 0x47, 0x0b, 0x3d,
  0x15, 0x2c, 0xea, 0xbd, 0xe0, 0x22, 0xd3, 0x3d, 0x05, 0x13, 0x01, 0x3c,
  0x02, 0x56, 0x84, 0xbd, 0x2b, 0xad, 0x36, 0x3f, 0xe0, 0xe6, 0x3c, 0xbe,
  0x56, 0xb9, 0x58, 0x3c, 0xd3, 0xee, 0x76, 0x3d, 0x04, 0x42, 0x32, 0xbd,
  0x62, 0x1a, 0x3f, 0xbc, 0x1c, 0x9f, 0x48, 0x3e, 0xc7, 0xaf, 0x80, 0x3d,
  0xd0, 0xba, 0x85, 0x3c, 0x48, 0xb0, 0x2f, 0x3e, 0x30, 0x00, 0xa3, 0xbc,
  0xea, 0x5f, 0x30, 0xbe, 0x34, 0x1b, 0x34, 0xbe, 0x7b, 0x27, 0x03, 0x3e,
  0x5b, 0x01, 0xda, 0x3d, 0xe4, 0xa0, 0x0a, 0xbd, 0x92, 0x6b, 0xc0, 0x3e,
  0x55, 0x1d, 0x78, 0xbe, 0x6a, 0xd9, 0x8d, 0xbd, 0xdc, 0x14, 0x65, 0xbe,
  0x91, 0x8c, 0x26, 0x3c, 0x92, 0xd4, 0x4a, 0xbe, 0x69, 0xe6, 0x4f, 0xbe,
  0x66, 0xfd, 0xff, 0xff, 0x10, 0x00, 0x00, 0x00, 0x07, 0x00, 0x00, 0x00,
  0x14, 0x00, 0x00, 0x00, 0x2c, 0x00, 0x00, 0x00, 0x02, 0x00, 0x00, 0x00,
  0x10, 0x00, 0x00, 0x00, 0x70, 0x00, 0x00, 0x00, 0x17, 0x00, 0x00, 0x00,
  0x73, 0x65, 0x71, 0x75, 0x65, 0x6e, 0x74, 0x69, 0x61, 0x6c, 0x2f, 0x64,
  0x65, 0x6e, 0x73, 0x65, 0x2f, 0x4d, 0x61, 0x74, 0x4d, 0x75, 0x6c, 0x00,
  0xd0, 0xfc, 0xff, 0xff, 0xda, 0xfd, 0xff, 0xff, 0x04, 0x00, 0x00, 0x00,
  0x08, 0x00, 0x00, 0x00, 0xff, 0xff, 0xff, 0xff, 0x70, 0x00, 0x00, 0x00,
  0x00, 0x00, 0x0e, 0x00, 0x18, 0x00, 0x08, 0x00, 0x07, 0x00, 0x0c, 0x00,
  0x10, 0x00, 0x14, 0x00, 0x0e, 0x00, 0x00, 0x00, 0x00, 0x00, 0x00, 0x02,
  0x10, 0x00, 0x00, 0x00, 0x06, 0x00, 0x00, 0x00, 0x10, 0x00, 0x00, 0x00,
  0x2c, 0x00, 0x00, 0x00, 0x01, 0x00, 0x00, 0x00, 0x02, 0x00, 0x00, 0x00,
  0x18, 0x00, 0x00, 0x00, 0x73, 0x65, 0x71, 0x75, 0x65, 0x6e, 0x74, 0x69,
  0x61, 0x6c, 0x2f, 0x66, 0x6c, 0x61, 0x74, 0x74, 0x65, 0x6e, 0x2f, 0x43,
  0x6f, 0x6e, 0x73, 0x74, 0x00, 0x00, 0x00, 0x00, 0x38, 0xfd, 0xff, 0xff,
  0x42, 0xfe, 0xff, 0xff, 0x04, 0x00, 0x00, 0x00, 0x0c, 0x00, 0x00, 0x00,
  0x3a, 0xd9, 0x1b, 0x40, 0x54, 0xcf, 0xab, 0xc0, 0x08, 0x72, 0xf0, 0xbf,
  0x26, 0xfe, 0xff, 0xff, 0x10, 0x00, 0x00, 0x00, 0x05, 0x00, 0x00, 0x00,
  0x10, 0x00, 0x00, 0x00, 0x44, 0x00, 0x00, 0x00, 0x01, 0x00, 0x00, 0x00,
  0x03, 0x00, 0x00, 0x00, 0x32, 0x00, 0x00, 0x00, 0x73, 0x65, 0x71, 0x75,
  0x65, 0x6e, 0x74, 0x69, 0x61, 0x6c, 0x2f, 0x64, 0x65, 0x6e, 0x73, 0x65,
  0x5f, 0x31, 0x2f, 0x42, 0x69, 0x61, 0x73, 0x41, 0x64, 0x64, 0x2f, 0x52,
  0x65, 0x61, 0x64, 0x56, 0x61, 0x72, 0x69, 0x61, 0x62, 0x6c, 0x65, 0x4f,
  0x70, 0x2f, 0x72, 0x65, 0x73, 0x6f, 0x75, 0x72, 0x63, 0x65, 0x00, 0x00,
  0xa8, 0xfd, 0xff, 0xff, 0xb2, 0xfe, 0xff, 0xff, 0x04, 0x00, 0x00, 0x00,
  0x40, 0x00, 0x00, 0x00, 0xca, 0x00, 0x30, 0xbe, 0xc5, 0xfc, 0xd9, 0xbd,
  0x0b, 0x39, 0x88, 0x3f, 0x8e, 0x31, 0x57, 0xbd, 0x19, 0x51, 0x4c, 0xbe,
  0xa9, 0x7f, 0x08, 0xbe, 0x75, 0x60, 0x27, 0x3f, 0xdd, 0x42, 0x60, 0xbe,
  0xd2, 0x66, 0xab, 0x3f, 0xcd, 0x66, 0xd7, 0xbd, 0xb6, 0x11, 0xf3, 0xbc,
  0x35, 0xd1, 0xa4, 0xbd, 0xc6, 0x56, 0xc5, 0xbd, 0x0f, 0x7b, 0x14, 0x3c,
  0x49, 0xcb, 0xa4, 0xbd, 0x96, 0x8b, 0x76, 0x3f, 0xca, 0xfe, 0xff, 0xff,
  0x10, 0x00, 0x00, 0x00, 0x04, 0x00, 0x00, 0x00, 0x10, 0x00, 0x00, 0x00,
  0x44, 0x00, 0x00, 0x00, 0x01, 0x00, 0x00, 0x00, 0x10, 0x00, 0x00, 0x00,
  0x30, 0x00, 0x00, 0x00, 0x73, 0x65, 0x71, 0x75, 0x65, 0x6e, 0x74, 0x69,
  0x61, 0x6c, 0x2f, 0x64, 0x65, 0x6e, 0x73, 0x65, 0x2f, 0x42, 0x69, 0x61,
  0x73, 0x41, 0x64, 0x64, 0x2f, 0x52, 0x65, 0x61, 0x64, 0x56, 0x61, 0x72,
  0x69, 0x61, 0x62, 0x6c, 0x65, 0x4f, 0x70, 0x2f, 0x72, 0x65, 0x73, 0x6f,
  0x75, 0x72, 0x63, 0x65, 0x00, 0x00, 0x00, 0x00, 0x4c, 0xfe, 0xff, 0xff,
  0x56, 0xff, 0xff, 0xff, 0x04, 0x00, 0x00, 0x00, 0x40, 0x00, 0x00, 0x00,
  0xf5, 0xc8, 0x91, 0x3c, 0x20, 0x20, 0x75, 0x3d, 0x95, 0xad, 0x47, 0xbe,
  0x95, 0x89, 0x01, 0xbe, 0xc8, 0x76, 0x02, 0xbe, 0xc6, 0x64, 0xf7, 0xbd,
  0xa4, 0x61, 0xa2, 0xbe, 0x15, 0x30, 0x29, 0xbe, 0x9c, 0x3d, 0x0d, 0xbe,
  0xf7, 0x58, 0xdd, 0x3f, 0x1f, 0x28, 0x3f, 0xbe, 0x5d, 0x82, 0x43, 0x3d,
  0x4a, 0xe0, 0x06, 0xbe, 0xe1, 0x93, 0xea, 0xbd, 0xdd, 0x75, 0x11, 0xbe,
  0x11, 0xb1, 0x1f, 0x3e, 0x6e, 0xff, 0xff, 0xff, 0x10, 0x00, 0x00, 0x00,
  0x03, 0x00, 0x00, 0x00, 0x10, 0x00, 0x00, 0x00, 0x48, 0x00, 0x00, 0x00,
  0x01, 0x00, 0x00, 0x00, 0x10, 0x00, 0x00, 0x00, 0x33, 0x00, 0x00, 0x00,
  0x73, 0x65, 0x71, 0x75, 0x65, 0x6e, 0x74, 0x69, 0x61, 0x6c, 0x2f, 0x63,
  0x6f, 0x6e, 0x76, 0x32, 0x64, 0x5f, 0x31, 0x2f, 0x42, 0x69, 0x61, 0x73,
  0x41, 0x64, 0x64, 0x2f, 0x52, 0x65, 0x61, 0x64, 0x56, 0x61, 0x72, 0x69,
  0x61, 0x62, 0x6c, 0x65, 0x4f, 0x70, 0x2f, 0x72, 0x65, 0x73, 0x6f, 0x75,
  0x72, 0x63, 0x65, 0x00, 0x04, 0x00, 0x06, 0x00, 0x04, 0x00, 0x00, 0x00,
  0x00, 0x00, 0x06, 0x00, 0x08, 0x00, 0x04, 0x00, 0x06, 0x00, 0x00, 0x00,
  0x04, 0x00, 0x00, 0x00, 0x20, 0x00, 0x00, 0x00, 0xec, 0xe3, 0xe2, 0x3d,
  0xed, 0x75, 0x59, 0xbd, 0x67, 0xdb, 0x89, 0xbe, 0x02, 0xf7, 0xd4, 0xbe,
  0x01, 0xf0, 0xeb, 0x3c, 0x32, 0x7e, 0x62, 0xbe, 0xad, 0x02, 0x57, 0x3e,
  0x6e, 0xad, 0xb4, 0xbe, 0x00, 0x00, 0x0e, 0x00, 0x14, 0x00, 0x04, 0x00,
  0x00, 0x00, 0x08, 0x00, 0x0c, 0x00, 0x10, 0x00, 0x0e, 0x00, 0x00, 0x00,
  0x10, 0x00, 0x00, 0x00, 0x02, 0x00, 0x00, 0x00, 0x10, 0x00, 0x00, 0x00,
  0x44, 0x00, 0x00, 0x00, 0x01, 0x00, 0x00, 0x00, 0x08, 0x00, 0x00, 0x00,
  0x31, 0x00, 0x00, 0x00, 0x73, 0x65, 0x71, 0x75, 0x65, 0x6e, 0x74, 0x69,
  0x61, 0x6c, 0x2f, 0x63, 0x6f, 0x6e, 0x76, 0x32, 0x64, 0x2f, 0x42, 0x69,
  0x61, 0x73, 0x41, 0x64, 0x64, 0x2f, 0x52, 0x65, 0x61, 0x64, 0x56, 0x61,
  0x72, 0x69, 0x61, 0x62, 0x6c, 0x65, 0x4f, 0x70, 0x2f, 0x72, 0x65, 0x73,
  0x6f, 0x75, 0x72, 0x63, 0x65, 0x00, 0x00, 0x00, 0x90, 0xff, 0xff, 0xff,
  0x14, 0x00, 0x18, 0x00, 0x04, 0x00, 0x00, 0x00, 0x08, 0x00, 0x0c, 0x00,
  0x10, 0x00, 0x00, 0x00, 0x00, 0x00, 0x14, 0x00, 0x14, 0x00, 0x00, 0x00,
  0x14, 0x00, 0x00, 0x00, 0x01, 0x00, 0x00, 0x00, 0x20, 0x00, 0x00, 0x00,
  0x44, 0x00, 0x00, 0x00, 0x2c, 0x00, 0x00, 0x00, 0x04, 0x00, 0x00, 0x00,
  0x01, 0x00, 0x00, 0x00, 0x40, 0x00, 0x00, 0x00, 0x03, 0x00, 0x00, 0x00,
  0x01, 0x00, 0x00, 0x00, 0x0c, 0x00, 0x00, 0x00, 0x63, 0x6f, 0x6e, 0x76,
  0x32, 0x64, 0x5f, 0x69, 0x6e, 0x70, 0x75, 0x74, 0x00, 0x00, 0x00, 0x00,
  0x04, 0x00, 0x00, 0x00, 0xff, 0xff, 0xff, 0xff, 0x40, 0x00, 0x00, 0x00,
  0x03, 0x00, 0x00, 0x00, 0x01, 0x00, 0x00, 0x00, 0xfc, 0xff, 0xff, 0xff,
  0x04, 0x00, 0x04, 0x00, 0x04, 0x00, 0x00, 0x00

};


unsigned int model_tflite_len = 13052;// Fill the int in `src/model.cc` here
