#include "magic_wand_model_data.h"


// We need to keep the data array aligned on some architectures.

#ifdef __has_attribute

#define HAVE_ATTRIBUTE(x) __has_attribute(x)

#else

#define HAVE_ATTRIBUTE(x) 0

#endif

#if HAVE_ATTRIBUTE(aligned) || (defined(__GNUC__) && !defined(__clang__))

#define DATA_ALIGN_ATTRIBUTE __attribute__((aligned(4)))

#else

#define DATA_ALIGN_ATTRIBUTE

#endif


const unsigned char g_magic_wand_model_data[] DATA_ALIGN_ATTRIBUTE = {

  // Paste the data of the char array in `src/model.cc` here
  0x1c, 0x00, 0x00, 0x00, 0x54, 0x46, 0x4c, 0x33, 0x14, 0x00, 0x20, 0x00,
  0x04, 0x00, 0x08, 0x00, 0x0c, 0x00, 0x10, 0x00, 0x14, 0x00, 0x00, 0x00,
  0x18, 0x00, 0x1c, 0x00, 0x14, 0x00, 0x00, 0x00, 0x03, 0x00, 0x00, 0x00,
  0x18, 0x00, 0x00, 0x00, 0x2c, 0x00, 0x00, 0x00, 0xd8, 0x00, 0x00, 0x00,
  0x2c, 0x00, 0x00, 0x00, 0x80, 0x00, 0x00, 0x00, 0x78, 0x00, 0x00, 0x00,
  0x05, 0x00, 0x00, 0x00, 0x28, 0x07, 0x00, 0x00, 0x44, 0x06, 0x00, 0x00,
  0xbc, 0x03, 0x00, 0x00, 0xf8, 0x02, 0x00, 0x00, 0xac, 0x01, 0x00, 0x00,
  0x01, 0x00, 0x00, 0x00, 0xd0, 0x00, 0x00, 0x00, 0x14, 0x00, 0x00, 0x00,
  0x98, 0x32, 0x00, 0x00, 0x94, 0x32, 0x00, 0x00, 0x8c, 0x31, 0x00, 0x00,
  0xd8, 0x30, 0x00, 0x00, 0x30, 0x30, 0x00, 0x00, 0xbc, 0x2f, 0x00, 0x00,
  0x50, 0x2f, 0x00, 0x00, 0x00, 0x13, 0x00, 0x00, 0xec, 0x11, 0x00, 0x00,
  0x10, 0x10, 0x00, 0x00, 0xb4, 0x07, 0x00, 0x00, 0x6c, 0x32, 0x00, 0x00,
  0x68, 0x32, 0x00, 0x00, 0x64, 0x32, 0x00, 0x00, 0x60, 0x32, 0x00, 0x00,
  0x5c, 0x32, 0x00, 0x00, 0x58, 0x32, 0x00, 0x00, 0x54, 0x32, 0x00, 0x00,
  0x50, 0x32, 0x00, 0x00, 0x3c, 0x00, 0x00, 0x00, 0x00, 0x00, 0x00, 0x00,
  0x01, 0x00, 0x00, 0x00, 0x0c, 0x00, 0x00, 0x00, 0x08, 0x00, 0x0c, 0x00,
  0x04, 0x00, 0x08, 0x00, 0x08, 0x00, 0x00, 0x00, 0x08, 0x00, 0x00, 0x00,
  0x13, 0x00, 0x00, 0x00, 0x13, 0x00, 0x00, 0x00, 0x6d, 0x69, 0x6e, 0x5f,
  0x72, 0x75, 0x6e, 0x74, 0x69, 0x6d, 0x65, 0x5f, 0x76, 0x65, 0x72, 0x73,
  0x69, 0x6f, 0x6e, 0x00, 0xfa, 0xce, 0xff, 0xff, 0x04, 0x00, 0x00, 0x00,
  0x10, 0x00, 0x00, 0x00, 0x31, 0x2e, 0x35, 0x2e, 0x30, 0x00, 0x00, 0x00,
  0x00, 0x00, 0x00, 0x00, 0x00, 0x00, 0x00, 0x00, 0x0f, 0x00, 0x00, 0x00,
  0x4d, 0x4c, 0x49, 0x52, 0x20, 0x43, 0x6f, 0x6e, 0x76, 0x65, 0x72, 0x74,
  0x65, 0x64, 0x2e, 0x00, 0x00, 0x00, 0x0e, 0x00, 0x18, 0x00, 0x04, 0x00,
  0x08, 0x00, 0x0c, 0x00, 0x10, 0x00, 0x14, 0x00, 0x0e, 0x00, 0x00, 0x00,
  0x14, 0x00, 0x00, 0x00, 0x5c, 0x00, 0x00, 0x00, 0x60, 0x00, 0x00, 0x00,
  0x64, 0x00, 0x00, 0x00, 0x84, 0x00, 0x00, 0x00, 0x12, 0x00, 0x00, 0x00,
  0x58, 0x31, 0x00, 0x00, 0xe8, 0x30, 0x00, 0x00, 0x44, 0x30, 0x00, 0x00,
  0x9c, 0x2f, 0x00, 0x00, 0xf4, 0x2e, 0x00, 0x00, 0x94, 0x2e, 0x00, 0x00,
  0x2c, 0x2e, 0x00, 0x00, 0xd8, 0x11, 0x00, 0x00, 0xbc, 0x10, 0x00, 0x00,
  0xe0, 0x0e, 0x00, 0x00, 0x0c, 0x06, 0x00, 0x00, 0x28, 0x05, 0x00, 0x00,
  0xe8, 0x03, 0x00, 0x00, 0x3c, 0x03, 0x00, 0x00, 0x98, 0x02, 0x00, 0x00,
  0xd4, 0x01, 0x00, 0x00, 0x10, 0x01, 0x00, 0x00, 0x84, 0x00, 0x00, 0x00,
  0x01, 0x00, 0x00, 0x00, 0x00, 0x00, 0x00, 0x00, 0x01, 0x00, 0x00, 0x00,
  0x11, 0x00, 0x00, 0x00, 0x08, 0x00, 0x00, 0x00, 0x74, 0x05, 0x00, 0x00,
  0x94, 0x04, 0x00, 0x00, 0x78, 0x03, 0x00, 0x00, 0xbc, 0x02, 0x00, 0x00,
  0x30, 0x02, 0x00, 0x00, 0x50, 0x01, 0x00, 0x00, 0xa8, 0x00, 0x00, 0x00,
  0x10, 0x00, 0x00, 0x00, 0x04, 0x00, 0x00, 0x00, 0x6d, 0x61, 0x69, 0x6e,
  0x00, 0x00, 0x00, 0x00, 0x7a, 0xff, 0xff, 0xff, 0x00, 0x00, 0x00, 0x09,
  0x04, 0x00, 0x00, 0x00, 0x1c, 0x00, 0x00, 0x00, 0x10, 0x00, 0x00, 0x00,
  0x04, 0x00, 0x00, 0x00, 0xf6, 0xcf, 0xff, 0xff, 0x00, 0x00, 0x80, 0x3f,
  0x01, 0x00, 0x00, 0x00, 0x11, 0x00, 0x00, 0x00, 0x01, 0x00, 0x00, 0x00,
  0x10, 0x00, 0x00, 0x00, 0xa0, 0xfa, 0xff, 0xff, 0x19, 0x00, 0x00, 0x00,
  0x00, 0x00, 0x00, 0x19, 0x01, 0x00, 0x00, 0x00, 0x84, 0xcf, 0xff, 0xff,
  0x14, 0x00, 0x00, 0x00, 0x12, 0x00, 0x00, 0x00, 0x18, 0x00, 0x00, 0x00,
  0x30, 0x00, 0x00, 0x00, 0x20, 0x00, 0x00, 0x00, 0x02, 0x00, 0x00, 0x00,
  0x01, 0x00, 0x00, 0x00, 0x03, 0x00, 0x00, 0x00, 0x08, 0x00, 0x00, 0x00,
  0x49, 0x64, 0x65, 0x6e, 0x74, 0x69, 0x74, 0x79, 0x00, 0x00, 0x00, 0x00,
  0x02, 0x00, 0x00, 0x00, 0xff, 0xff, 0xff, 0xff, 0x03, 0x00, 0x00, 0x00,
  0x68, 0xd0, 0xff, 0xff, 0x00, 0x00, 0x0e, 0x00, 0x18, 0x00, 0x08, 0x00,
  0x0c, 0x00, 0x10, 0x00, 0x07, 0x00, 0x14, 0x00, 0x0e, 0x00, 0x00, 0x00,
  0x00, 0x00, 0x00, 0x08, 0x03, 0x00, 0x00, 0x00, 0x18, 0x00, 0x00, 0x00,
  0x0c, 0x00, 0x00, 0x00, 0x04, 0x00, 0x00, 0x00, 0x84, 0xcf, 0xff, 0xff,
  0x01, 0x00, 0x00, 0x00, 0x10, 0x00, 0x00, 0x00, 0x03, 0x00, 0x00, 0x00,
  0x0f, 0x00, 0x00, 0x00, 0x07, 0x00, 0x00, 0x00, 0x04, 0x00, 0x00, 0x00,
  0x0c, 0xd0, 0xff, 0xff, 0x14, 0x00, 0x00, 0x00, 0x11, 0x00, 0x00, 0x00,
  0x18, 0x00, 0x00, 0x00, 0x5c, 0x00, 0x00, 0x00, 0x4c, 0x00, 0x00, 0x00,
  0x02, 0x00, 0x00, 0x00, 0x01, 0x00, 0x00, 0x00, 0x03, 0x00, 0x00, 0x00,
  0x34, 0x00, 0x00, 0x00, 0x73, 0x65, 0x71, 0x75, 0x65, 0x6e, 0x74, 0x69,
  0x61, 0x6c, 0x2f, 0x64, 0x65, 0x6e, 0x73, 0x65, 0x5f, 0x31, 0x2f, 0x4d,
  0x61, 0x74, 0x4d, 0x75, 0x6c, 0x3b, 0x73, 0x65, 0x71, 0x75, 0x65, 0x6e,
  0x74, 0x69, 0x61, 0x6c, 0x2f, 0x64, 0x65, 0x6e, 0x73, 0x65, 0x5f, 0x31,
  0x2f, 0x42, 0x69, 0x61, 0x73, 0x41, 0x64, 0x64, 0x00, 0x00, 0x00, 0x00,
  0x02, 0x00, 0x00, 0x00, 0xff, 0xff, 0xff, 0xff, 0x03, 0x00, 0x00, 0x00,
  0x0c, 0xd0, 0xff, 0xff, 0xda, 0xfc, 0xff, 0xff, 0x00, 0x00, 0x00, 0x08,
  0x03, 0x00, 0x00, 0x00, 0x24, 0x00, 0x00, 0x00, 0x18, 0x00, 0x00, 0x00,
  0x0c, 0x00, 0x00, 0x00, 0x00, 0x00, 0x06, 0x00, 0x08, 0x00, 0x07, 0x00,
  0x06, 0x00, 0x00, 0x00, 0x00, 0x00, 0x00, 0x01, 0x01, 0x00, 0x00, 0x00,
  0x0f, 0x00, 0x00, 0x00, 0x03, 0x00, 0x00, 0x00, 0x0e, 0x00, 0x00, 0x00,
  0x06, 0x00, 0x00, 0x00, 0x03, 0x00, 0x00, 0x00, 0xe8, 0xfb, 0xff, 0xff,
  0x09, 0x00, 0x00, 0x00, 0x00, 0x00, 0x00, 0x09, 0x01, 0x00, 0x00, 0x00,
  0xcc, 0xd0, 0xff, 0xff, 0x14, 0x00, 0x00, 0x00, 0x10, 0x00, 0x00, 0x00,
  0x18, 0x00, 0x00, 0x00, 0x6c, 0x00, 0x00, 0x00, 0x5c, 0x00, 0x00, 0x00,
  0x02, 0x00, 0x00, 0x00, 0x01, 0x00, 0x00, 0x00, 0x10, 0x00, 0x00, 0x00,
  0x46, 0x00, 0x00, 0x00, 0x73, 0x65, 0x71, 0x75, 0x65, 0x6e, 0x74, 0x69,
  0x61, 0x6c, 0x2f, 0x64, 0x65, 0x6e, 0x73, 0x65, 0x2f, 0x4d, 0x61, 0x74,
  0x4d, 0x75, 0x6c, 0x3b, 0x73, 0x65, 0x71, 0x75, 0x65, 0x6e, 0x74, 0x69,
  0x61, 0x6c, 0x2f, 0x64, 0x65, 0x6e, 0x73, 0x65, 0x2f, 0x52, 0x65, 0x6c,
  0x75, 0x3b, 0x73, 0x65, 0x71, 0x75, 0x65, 0x6e, 0x74, 0x69, 0x61, 0x6c,
  0x2f, 0x64, 0x65, 0x6e, 0x73, 0x65, 0x2f, 0x42, 0x69, 0x61, 0x73, 0x41,
  0x64, 0x64, 0x00, 0x00, 0x02, 0x00, 0x00, 0x00, 0xff, 0xff, 0xff, 0xff,
  0x10, 0x00, 0x00, 0x00, 0xec, 0xd1, 0xff, 0xff, 0x00, 0x00, 0x0a, 0x00,
  0x10, 0x00, 0x04, 0x00, 0x08, 0x00, 0x0c, 0x00, 0x0a, 0x00, 0x00, 0x00,
  0x02, 0x00, 0x00, 0x00, 0x10, 0x00, 0x00, 0x00, 0x04, 0x00, 0x00, 0x00,
  0x01, 0x00, 0x00, 0x00, 0x0e, 0x00, 0x00, 0x00, 0x02, 0x00, 0x00, 0x00,
  0x0d, 0x00, 0x00, 0x00, 0x05, 0x00, 0x00, 0x00, 0xa8, 0xfc, 0xff, 0xff,
  0x16, 0x00, 0x00, 0x00, 0x00, 0x00, 0x00, 0x16, 0x01, 0x00, 0x00, 0x00,
  0x8c, 0xd1, 0xff, 0xff, 0x14, 0x00, 0x00, 0x00, 0x0f, 0x00, 0x00, 0x00,
  0x18, 0x00, 0x00, 0x00, 0x40, 0x00, 0x00, 0x00, 0x30, 0x00, 0x00, 0x00,
  0x02, 0x00, 0x00, 0x00, 0x01, 0x00, 0x00, 0x00, 0x70, 0x00, 0x00, 0x00,
  0x1a, 0x00, 0x00, 0x00, 0x73, 0x65, 0x71, 0x75, 0x65, 0x6e, 0x74, 0x69,
  0x61, 0x6c, 0x2f, 0x66, 0x6c, 0x61, 0x74, 0x74, 0x65, 0x6e, 0x2f, 0x52,
  0x65, 0x73, 0x68, 0x61, 0x70, 0x65, 0x00, 0x00, 0x02, 0x00, 0x00, 0x00,
  0xff, 0xff, 0xff, 0xff, 0x70, 0x00, 0x00, 0x00, 0x70, 0xd1, 0xff, 0xff,
  0x3e, 0xfe, 0xff, 0xff, 0x00, 0x00, 0x00, 0x05, 0x01, 0x00, 0x00, 0x00,
  0x38, 0x00, 0x00, 0x00, 0x2c, 0x00, 0x00, 0x00, 0x14, 0x00, 0x00, 0x00,
  0x00, 0x00, 0x0e, 0x00, 0x14, 0x00, 0x00, 0x00, 0x10, 0x00, 0x0c, 0x00,
  0x08, 0x00, 0x04, 0x00, 0x0e, 0x00, 0x00, 0x00, 0x03, 0x00, 0x00, 0x00,
  0x01, 0x00, 0x00, 0x00, 0x03, 0x00, 0x00, 0x00, 0x01, 0x00, 0x00, 0x00,
  0x01, 0x00, 0x00, 0x00, 0x0d, 0x00, 0x00, 0x00, 0x01, 0x00, 0x00, 0x00,
  0x0c, 0x00, 0x00, 0x00, 0x2c, 0xd2, 0xff, 0xff, 0x14, 0x00, 0x00, 0x00,
  0x0e, 0x00, 0x00, 0x00, 0x20, 0x00, 0x00, 0x00, 0x58, 0x00, 0x00, 0x00,
  0x40, 0x00, 0x00, 0x00, 0x04, 0x00, 0x00, 0x00, 0x01, 0x00, 0x00, 0x00,
  0x07, 0x00, 0x00, 0x00, 0x01, 0x00, 0x00, 0x00, 0x10, 0x00, 0x00, 0x00,
  0x22, 0x00, 0x00, 0x00, 0x73, 0x65, 0x71, 0x75, 0x65, 0x6e, 0x74, 0x69,
  0x61, 0x6c, 0x2f, 0x6d, 0x61, 0x78, 0x5f, 0x70, 0x6f, 0x6f, 0x6c, 0x69,
  0x6e, 0x67, 0x32, 0x64, 0x5f, 0x31, 0x2f, 0x4d, 0x61, 0x78, 0x50, 0x6f,
  0x6f, 0x6c, 0x00, 0x00, 0x04, 0x00, 0x00, 0x00, 0xff, 0xff, 0xff, 0xff,
  0x07, 0x00, 0x00, 0x00, 0x01, 0x00, 0x00, 0x00, 0x10, 0x00, 0x00, 0x00,
  0x28, 0xd2, 0xff, 0xff, 0x1a, 0xfe, 0xff, 0xff, 0x00, 0x00, 0x00, 0x01,
  0x24, 0x00, 0x00, 0x00, 0x18, 0x00, 0x00, 0x00, 0x04, 0x00, 0x00, 0x00,
  0x0c, 0xfe, 0xff, 0xff, 0x01, 0x00, 0x00, 0x00, 0x01, 0x00, 0x00, 0x00,
  0x00, 0x00, 0x00, 0x01, 0x01, 0x00, 0x00, 0x00, 0x0c, 0x00, 0x00, 0x00,
  0x03, 0x00, 0x00, 0x00, 0x0b, 0x00, 0x00, 0x00, 0x09, 0x00, 0x00, 0x00,
  0x02, 0x00, 0x00, 0x00, 0xd4, 0xd2, 0xff, 0xff, 0x14, 0x00, 0x00, 0x00,
  0x0d, 0x00, 0x00, 0x00, 0x20, 0x00, 0x00, 0x00, 0xb8, 0x00, 0x00, 0x00,
  0xa0, 0x00, 0x00, 0x00, 0x04, 0x00, 0x00, 0x00, 0x01, 0x00, 0x00, 0x00,
  0x15, 0x00, 0x00, 0x00, 0x01, 0x00, 0x00, 0x00, 0x10, 0x00, 0x00, 0x00,
  0x83, 0x00, 0x00, 0x00, 0x73, 0x65, 0x71, 0x75, 0x65, 0x6e, 0x74, 0x69,
  0x61, 0x6c, 0x2f, 0x63, 0x6f, 0x6e, 0x76, 0x32, 0x64, 0x5f, 0x31, 0x2f,
  0x52, 0x65, 0x6c, 0x75, 0x3b, 0x73, 0x65, 0x71, 0x75, 0x65, 0x6e, 0x74,
  0x69, 0x61, 0x6c, 0x2f, 0x63, 0x6f, 0x6e, 0x76, 0x32, 0x64, 0x5f, 0x31,
  0x2f, 0x42, 0x69, 0x61, 0x73, 0x41, 0x64, 0x64, 0x3b, 0x73, 0x65, 0x71,
  0x75, 0x65, 0x6e, 0x74, 0x69, 0x61, 0x6c, 0x2f, 0x63, 0x6f, 0x6e, 0x76,
  0x32, 0x64, 0x5f, 0x31, 0x2f, 0x43, 0x6f, 0x6e, 0x76, 0x32, 0x44, 0x3b,
  0x73, 0x65, 0x71, 0x75, 0x65, 0x6e, 0x74, 0x69, 0x61, 0x6c, 0x2f, 0x63,
  0x6f, 0x6e, 0x76, 0x32, 0x64, 0x5f, 0x31, 0x2f, 0x42, 0x69, 0x61, 0x73,
  0x41, 0x64, 0x64, 0x2f, 0x52, 0x65, 0x61, 0x64, 0x56, 0x61, 0x72, 0x69,
  0x61, 0x62, 0x6c, 0x65, 0x4f, 0x70, 0x2f, 0x72, 0x65, 0x73, 0x6f, 0x75,
  0x72, 0x63, 0x65, 0x00, 0x04, 0x00, 0x00, 0x00, 0xff, 0xff, 0xff, 0xff,
  0x15, 0x00, 0x00, 0x00, 0x01, 0x00, 0x00, 0x00, 0x10, 0x00, 0x00, 0x00,
  0x40, 0xd4, 0xff, 0xff, 0x00, 0x00, 0x0e, 0x00, 0x1a, 0x00, 0x08, 0x00,
  0x0c, 0x00, 0x10, 0x00, 0x07, 0x00, 0x14, 0x00, 0x0e, 0x00, 0x00, 0x00,
  0x00, 0x00, 0x00, 0x05, 0x01, 0x00, 0x00, 0x00, 0x3c, 0x00, 0x00, 0x00,
  0x30, 0x00, 0x00, 0x00, 0x14, 0x00, 0x00, 0x00, 0x00, 0x00, 0x0e, 0x00,
  0x18, 0x00, 0x17, 0x00, 0x10, 0x00, 0x0c, 0x00, 0x08, 0x00, 0x04, 0x00,
  0x0e, 0x00, 0x00, 0x00, 0x03, 0x00, 0x00, 0x00, 0x03, 0x00, 0x00, 0x00,
  0x03, 0x00, 0x00, 0x00, 0x03, 0x00, 0x00, 0x00, 0x00, 0x00, 0x00, 0x01,
  0x01, 0x00, 0x00, 0x00, 0x0b, 0x00, 0x00, 0x00, 0x01, 0x00, 0x00, 0x00,
  0x0a, 0x00, 0x00, 0x00, 0x2c, 0xff, 0xff, 0xff, 0x11, 0x00, 0x00, 0x00,
  0x00, 0x00, 0x00, 0x11, 0x01, 0x00, 0x00, 0x00, 0x10, 0xd4, 0xff, 0xff,
  0x14, 0x00, 0x00, 0x00, 0x0c, 0x00, 0x00, 0x00, 0x20, 0x00, 0x00, 0x00,
  0x58, 0x00, 0x00, 0x00, 0x40, 0x00, 0x00, 0x00, 0x04, 0x00, 0x00, 0x00,
  0x01, 0x00, 0x00, 0x00, 0x15, 0x00, 0x00, 0x00, 0x01, 0x00, 0x00, 0x00,
  0x08, 0x00, 0x00, 0x00, 0x20, 0x00, 0x00, 0x00, 0x73, 0x65, 0x71, 0x75,
  0x65, 0x6e, 0x74, 0x69, 0x61, 0x6c, 0x2f, 0x6d, 0x61, 0x78, 0x5f, 0x70,
  0x6f, 0x6f, 0x6c, 0x69, 0x6e, 0x67, 0x32, 0x64, 0x2f, 0x4d, 0x61, 0x78,
  0x50, 0x6f, 0x6f, 0x6c, 0x00, 0x00, 0x00, 0x00, 0x04, 0x00, 0x00, 0x00,
  0xff, 0xff, 0xff, 0xff, 0x15, 0x00, 0x00, 0x00, 0x01, 0x00, 0x00, 0x00,
  0x08, 0x00, 0x00, 0x00, 0x1c, 0xd5, 0xff, 0xff, 0x00, 0x00, 0x0e, 0x00,
  0x14, 0x00, 0x00, 0x00, 0x08, 0x00, 0x0c, 0x00, 0x07, 0x00, 0x10, 0x00,
  0x0e, 0x00, 0x00, 0x00, 0x00, 0x00, 0x00, 0x01, 0x30, 0x00, 0x00, 0x00,
  0x24, 0x00, 0x00, 0x00, 0x10, 0x00, 0x00, 0x00, 0x0c, 0x00, 0x10, 0x00,
  0x00, 0x00, 0x04, 0x00, 0x08, 0x00, 0x0f, 0x00, 0x0c, 0x00, 0x00, 0x00,
  0x01, 0x00, 0x00, 0x00, 0x01, 0x00, 0x00, 0x00, 0x00, 0x00, 0x00, 0x01,
  0x01, 0x00, 0x00, 0x00, 0x0a, 0x00, 0x00, 0x00, 0x03, 0x00, 0x00, 0x00,
  0x00, 0x00, 0x00, 0x00, 0x08, 0x00, 0x00, 0x00, 0x01, 0x00, 0x00, 0x00,
  0x0c, 0x00, 0x10, 0x00, 0x0b, 0x00, 0x00, 0x00, 0x0c, 0x00, 0x04, 0x00,
  0x0c, 0x00, 0x00, 0x00, 0x03, 0x00, 0x00, 0x00, 0x00, 0x00, 0x00, 0x03,
  0x01, 0x00, 0x00, 0x00, 0xf0, 0xd4, 0xff, 0xff, 0x14, 0x00, 0x00, 0x00,
  0x0b, 0x00, 0x00, 0x00, 0x20, 0x00, 0x00, 0x00, 0xb0, 0x00, 0x00, 0x00,
  0x98, 0x00, 0x00, 0x00, 0x04, 0x00, 0x00, 0x00, 0x01, 0x00, 0x00, 0x00,
  0x40, 0x00, 0x00, 0x00, 0x03, 0x00, 0x00, 0x00, 0x08, 0x00, 0x00, 0x00,
  0x7b, 0x00, 0x00, 0x00, 0x73, 0x65, 0x71, 0x75, 0x65, 0x6e, 0x74, 0x69,
  0x61, 0x6c, 0x2f, 0x63, 0x6f, 0x6e, 0x76, 0x32, 0x64, 0x2f, 0x52, 0x65,
  0x6c, 0x75, 0x3b, 0x73, 0x65, 0x71, 0x75, 0x65, 0x6e, 0x74, 0x69, 0x61,
  0x6c, 0x2f, 0x63, 0x6f, 0x6e, 0x76, 0x32, 0x64, 0x2f, 0x42, 0x69, 0x61,
  0x73, 0x41, 0x64, 0x64, 0x3b, 0x73, 0x65, 0x71, 0x75, 0x65, 0x6e, 0x74,
  0x69, 0x61, 0x6c, 0x2f, 0x63, 0x6f, 0x6e, 0x76, 0x32, 0x64, 0x2f, 0x43,
  0x6f, 0x6e, 0x76, 0x32, 0x44, 0x3b, 0x73, 0x65, 0x71, 0x75, 0x65, 0x6e,
  0x74, 0x69, 0x61, 0x6c, 0x2f, 0x63, 0x6f, 0x6e, 0x76, 0x32, 0x64, 0x2f,
  0x42, 0x69, 0x61, 0x73, 0x41, 0x64, 0x64, 0x2f, 0x52, 0x65, 0x61, 0x64,
  0x56, 0x61, 0x72, 0x69, 0x61, 0x62, 0x6c, 0x65, 0x4f, 0x70, 0x2f, 0x72,
  0x65, 0x73, 0x6f, 0x75, 0x72, 0x63, 0x65, 0x00, 0x04, 0x00, 0x00, 0x00,
  0xff, 0xff, 0xff, 0xff, 0x40, 0x00, 0x00, 0x00, 0x03, 0x00, 0x00, 0x00,
  0x08, 0x00, 0x00, 0x00, 0x44, 0xd5, 0xff, 0xff, 0x4e, 0xd6, 0xff, 0xff,
  0x04, 0x00, 0x00, 0x00, 0x00, 0x08, 0x00, 0x00, 0x55, 0x0b, 0x4d, 0xbd,
  0xac, 0x3a, 0x4c, 0xbd, 0xc7, 0x67, 0xe7, 0xbc, 0xee, 0xc9, 0x53, 0xbe,
  0x78, 0x35, 0x13, 0xbe, 0x72, 0xa9, 0x9f, 0x3b, 0x8c, 0xf7, 0x03, 0xbe,
  0x3b, 0x3a, 0x9c, 0x3e, 0x1b, 0x94, 0x86, 0x3d, 0x33, 0xba, 0x5e, 0x3b,
  0xfe, 0x1b, 0x87, 0xbc, 0xf2, 0x30, 0xa8, 0xbd, 0xb6, 0xca, 0x50, 0xbe,
  0x9d, 0x83, 0xaa, 0xbc, 0xe6, 0xdb, 0x92, 0xbe, 0x69, 0x2e, 0x01, 0x3e,
  0x8b, 0xee, 0x1a, 0xbd, 0xf9, 0x52, 0x0e, 0x3e, 0xf9, 0x5a, 0x0b, 0x3d,
  0x9d, 0xcd, 0xa9, 0xbd, 0x70, 0x58, 0xf3, 0x3e, 0xd2, 0x40, 0xa4, 0xbd,
  0xc3, 0xa2, 0xb1, 0xbd, 0x77, 0xd4, 0x48, 0x3f, 0xfd, 0xc5, 0xf9, 0x3e,
  0xc2, 0xc5, 0xb5, 0x3c, 0xfe, 0x26, 0x9a, 0x3e, 0x29, 0x97, 0xbc, 0xbd,
  0x88, 0xde, 0x52, 0x3e, 0x4c, 0x84, 0xd4, 0xbd, 0xaa, 0xcf, 0x05, 0xbe,
  0x76, 0xca, 0x9c, 0x3e, 0x25, 0xfc, 0x3e, 0xbe, 0x5e, 0xc8, 0x47, 0xbe,
  0x10, 0xcc, 0xb2, 0xbc, 0x00, 0xc0, 0xd0, 0xbe, 0xea, 0x86, 0x60, 0x3d,
  0x25, 0x3f, 0xb2, 0xbe, 0xf3, 0x7c, 0x10, 0xbe, 0xef, 0x04, 0x11, 0x3e,
  0xb9, 0xbe, 0x95, 0x3d, 0x1d, 0x5e, 0xf5, 0x3d, 0x29, 0x47, 0x78, 0xbd,
  0x71, 0xb9, 0xbb, 0xbe, 0xa5, 0x2d, 0x55, 0x3e, 0x0d, 0xe2, 0x8d, 0xbe,
  0x51, 0x3a, 0xaa, 0xbe, 0x50, 0x90, 0xab, 0x3e, 0x4a, 0x9a, 0xb3, 0x3e,
  0xa6, 0x41, 0x9f, 0xbd, 0x24, 0xcf, 0xc9, 0xbd, 0x1d, 0x72, 0xa2, 0xbe,
  0x8c, 0xa9, 0x10, 0x3f, 0x50, 0xa1, 0x3e, 0xbe, 0x71, 0x0e, 0xa7, 0xbe,
  0x8d, 0xdc, 0x0a, 0x3f, 0x59, 0x27, 0xe9, 0x3d, 0x40, 0x1b, 0x83, 0x3c,
  0x91, 0xb3, 0xe1, 0xbc, 0x4b, 0x29, 0x4b, 0xbe, 0x01, 0x50, 0x9a, 0xbe,
  0x0c, 0x82, 0x67, 0xbe, 0x5c, 0x15, 0x90, 0xbe, 0xf1, 0xe0, 0x1d, 0x3f,
  0x95, 0xfd, 0xa0, 0x3d, 0xbb, 0x81, 0xd6, 0xbd, 0x56, 0x44, 0xba, 0xba,
  0x11, 0x31, 0xfb, 0x3c, 0x30, 0x69, 0x86, 0xbe, 0x2a, 0xdc, 0x14, 0x3c,
  0xa9, 0xc8, 0xed, 0x3e, 0xe0, 0xef, 0x82, 0x3e, 0x57, 0x30, 0x3b, 0xbe,
  0x36, 0xf5, 0xff, 0xbd, 0x9d, 0x33, 0x39, 0xbd, 0xce, 0x0a, 0x87, 0xbd,
  0x7b, 0xca, 0x47, 0xbe, 0xdb, 0xf9, 0x09, 0xbe, 0xe9, 0x6b, 0x0a, 0xbe,
  0x41, 0x1e, 0x90, 0xbe, 0x0d, 0xca, 0x2d, 0xbd, 0x3c, 0x91, 0x61, 0xbe,
  0x12, 0x4f, 0xaf, 0xbc, 0x98, 0x4c, 0x94, 0x3e, 0x06, 0x14, 0x67, 0xbe,
  0x06, 0x02, 0x28, 0x3e, 0x63, 0x98, 0x5b, 0xbe, 0xa8, 0x36, 0x31, 0xbd,
  0xc7, 0xf6, 0x2c, 0xbe, 0x48, 0xd1, 0x1d, 0xbe, 0x67, 0xb2, 0x3d, 0x3c,
  0xb3, 0xc4, 0x10, 0xbd, 0xac, 0xd2, 0x2a, 0xbe, 0xf0, 0xd9, 0x7f, 0xb9,
  0x3a, 0x8b, 0x17, 0xbe, 0x82, 0xa0, 0x25, 0xbd, 0xb5, 0x3a, 0x74, 0xbe,
  0x53, 0xbc, 0x2a, 0xbf, 0x44, 0x65, 0x3f, 0xbf, 0xf5, 0x66, 0xf6, 0xbd,
  0x06, 0xcc, 0xb3, 0xbe, 0x6c, 0xec, 0x82, 0xbd, 0xd0, 0x03, 0x0b, 0x3d,
  0x47, 0x46, 0xc6, 0x3d, 0xd5, 0xc1, 0x6a, 0x3e, 0xec, 0xf9, 0xe7, 0xbe,
  0xbe, 0xf4, 0x9b, 0xbf, 0xfe, 0xd5, 0x48, 0x3d, 0xcd, 0x0d, 0x18, 0xbf,
  0xbe, 0xf1, 0x5c, 0x3d, 0xbe, 0x80, 0xed, 0xbc, 0x70, 0x96, 0xf2, 0xbd,
  0x5e, 0x21, 0xbb, 0x3d, 0x0e, 0xed, 0x71, 0xbf, 0x1c, 0x6b, 0xb4, 0xbf,
  0xfb, 0xcf, 0x29, 0x3d, 0x98, 0x78, 0x06, 0xbf, 0x7c, 0xb4, 0x1d, 0x3e,
  0xf4, 0xf9, 0x80, 0x3e, 0x28, 0x06, 0xb3, 0xbd, 0x22, 0xff, 0x0d, 0xbd,
  0xa8, 0xf9, 0x93, 0xbf, 0x0d, 0x9d, 0x92, 0xbf, 0x7f, 0x49, 0xd1, 0x3d,
  0x05, 0xff, 0x62, 0xbf, 0xb5, 0x77, 0x7f, 0x3e, 0x62, 0xfa, 0x56, 0x3d,
  0xcd, 0xcc, 0xa5, 0xbe, 0x2f, 0xea, 0x12, 0xbe, 0xb9, 0xf4, 0x2b, 0xbd,
  0xed, 0x02, 0x58, 0xbe, 0x9a, 0xa5, 0xd4, 0xbd, 0xfd, 0xa9, 0x3a, 0xbe,
  0xa8, 0x08, 0xa9, 0xbd, 0x92, 0x4f, 0x64, 0xbe, 0xf7, 0xbc, 0x15, 0x3d,
  0x5e, 0x52, 0x05, 0xbe, 0x9d, 0x83, 0xeb, 0xbd, 0x1e, 0x35, 0xa2, 0xbc,
  0x86, 0xc0, 0xed, 0x3c, 0xe6, 0x64, 0xd6, 0xbd, 0xd9, 0xc7, 0x67, 0xbe,
  0xfc, 0xfd, 0x5e, 0xbe, 0x92, 0x93, 0x3a, 0x3d, 0x11, 0xcf, 0x69, 0xbe,
  0xe3, 0x61, 0x9d, 0x3c, 0xb4, 0x6c, 0x9a, 0xbe, 0x36, 0xe2, 0x80, 0xbe,
  0xd5, 0x67, 0x02, 0x3e, 0x86, 0xdd, 0x27, 0xbd, 0x9b, 0x8d, 0x60, 0xbe,
  0x6a, 0x2d, 0xb8, 0xbc, 0xd5, 0x72, 0xcd, 0x3d, 0x9c, 0x28, 0x16, 0x3c,
  0x09, 0x63, 0x3f, 0xbe, 0x3d, 0x81, 0x00, 0xbe, 0x62, 0xc6, 0x69, 0xbe,
  0xfe, 0x5e, 0x15, 0xbd, 0x74, 0x56, 0x28, 0xbe, 0x02, 0x2c, 0x94, 0xbc,
  0xbc, 0xfb, 0xde, 0xbd, 0xbd, 0x08, 0x93, 0xbe, 0x6b, 0xe5, 0x8d, 0xbd,
  0x9a, 0xc2, 0xb9, 0x3d, 0xbf, 0x9a, 0xed, 0xbe, 0xf8, 0x0b, 0xd8, 0x3d,
  0x51, 0x3b, 0xb5, 0x3d, 0x73, 0x0a, 0xc4, 0xbe, 0x2b, 0x2f, 0xaa, 0xbd,
  0x03, 0xd3, 0xdd, 0xbe, 0x1f, 0x2f, 0x3f, 0xbd, 0x30, 0x59, 0x65, 0x3e,
  0x7e, 0xa8, 0x52, 0xbf, 0x45, 0x19, 0xa9, 0x3d, 0xe4, 0x5f, 0xfd, 0xbd,
  0x91, 0xb7, 0xb8, 0xbe, 0xfc, 0x1f, 0x47, 0x3e, 0x16, 0xeb, 0x57, 0xbd,
  0x67, 0x97, 0x97, 0x3d, 0xe9, 0xe6, 0x69, 0xbe, 0x56, 0x4a, 0x28, 0xbf,
  0xec, 0x2f, 0x52, 0x3e, 0xc4, 0x27, 0xc8, 0x3d, 0x39, 0xf7, 0x92, 0xbe,
  0xc9, 0xe7, 0x87, 0x3d, 0xa0, 0x97, 0xe1, 0xbd, 0xe7, 0x2b, 0xdb, 0x3d,
  0x51, 0xb0, 0x02, 0xbd, 0xe9, 0x38, 0xf6, 0xbe, 0x2f, 0x62, 0xbb, 0xbd,
  0x2a, 0xef, 0xf5, 0xbd, 0x9b, 0x18, 0xa6, 0xbd, 0xe3, 0x3a, 0x32, 0x3e,
  0x05, 0xab, 0x0d, 0xbe, 0xc2, 0x90, 0x5e, 0xbf, 0x20, 0x9c, 0x16, 0x3d,
  0xb1, 0x72, 0x55, 0xbe, 0x1e, 0x4d, 0x99, 0x3e, 0xfe, 0x65, 0x87, 0x3e,
  0xc2, 0x72, 0x47, 0xbe, 0x80, 0x26, 0x8b, 0xbe, 0x45, 0x38, 0xcb, 0xbe,
  0xce, 0xd6, 0x73, 0xbf, 0xcc, 0x58, 0x35, 0x3d, 0x6b, 0x7d, 0xce, 0xbe,
  0xa9, 0xef, 0xf5, 0xbd, 0x3e, 0x37, 0x84, 0x3d, 0x4a, 0x16, 0x43, 0xbe,
  0x88, 0x73, 0x7d, 0x3d, 0x9a, 0x59, 0x51, 0xbe, 0x93, 0xa1, 0x5a, 0xbf,
  0xd2, 0x8e, 0x05, 0xbd, 0x12, 0x7a, 0x70, 0xbe, 0xf2, 0xe8, 0x3d, 0xbe,
  0x23, 0xd2, 0xb0, 0xbc, 0x49, 0x4b, 0x98, 0xbc, 0xa1, 0x38, 0x78, 0x3d,
  0xc6, 0x52, 0x11, 0xbf, 0x7a, 0xf8, 0x2c, 0xbf, 0x2b, 0x2a, 0x38, 0x3d,
  0xba, 0xe2, 0xdc, 0xbe, 0xe3, 0xd1, 0xce, 0x3d, 0x75, 0x49, 0x2c, 0x3e,
  0xbb, 0x75, 0x2b, 0xbe, 0x93, 0x90, 0xee, 0xbb, 0xe1, 0x70, 0xf6, 0x3d,
  0x0f, 0x5e, 0xb9, 0x3e, 0x3a, 0xa4, 0xe7, 0xbc, 0x6c, 0x80, 0x57, 0x3e,
  0xcd, 0xa1, 0x56, 0xbc, 0x94, 0xd5, 0xa8, 0xbe, 0x36, 0x86, 0x0d, 0x3e,
  0xbe, 0x4e, 0x5b, 0x3e, 0x61, 0xe0, 0x2d, 0x3e, 0x8a, 0x60, 0x80, 0x3d,
  0x9c, 0xa7, 0xcc, 0xbc, 0xab, 0x84, 0x93, 0x3e, 0x05, 0x84, 0xcf, 0xbd,
  0x9c, 0x41, 0x9f, 0xbe, 0xa3, 0xd5, 0x5b, 0x3e, 0x82, 0x9d, 0x23, 0x3d,
  0xea, 0x87, 0xf6, 0xbd, 0x15, 0x00, 0xb9, 0xbd, 0x21, 0x43, 0xae, 0xbd,
  0x10, 0xb7, 0x63, 0x3d, 0xca, 0x75, 0xcc, 0x3d, 0x01, 0x9e, 0xb1, 0xbe,
  0x9a, 0x8a, 0x04, 0xbf, 0xf2, 0x0f, 0x84, 0xbe, 0xc8, 0xf0, 0x9d, 0xbc,
  0x81, 0x21, 0xe6, 0xbd, 0xff, 0xdf, 0xc2, 0xbd, 0x55, 0x0c, 0x2f, 0xbd,
  0x36, 0xc0, 0xbd, 0xbd, 0x92, 0x19, 0xc5, 0xbe, 0x18, 0x7a, 0x74, 0xbe,
  0x26, 0x48, 0x4a, 0xbc, 0x1f, 0x1e, 0x08, 0xbd, 0x08, 0xf0, 0xc2, 0xbd,
  0xc0, 0x90, 0xe2, 0xbd, 0xdd, 0x58, 0x04, 0x3f, 0xfb, 0xe4, 0x45, 0xbe,
  0x36, 0x07, 0x41, 0x3d, 0x82, 0xa6, 0xee, 0x3e, 0x3c, 0x7f, 0x31, 0x3e,
  0x73, 0xee, 0x62, 0x3e, 0xbd, 0x66, 0x40, 0xbe, 0x9a, 0x71, 0xcc, 0xbd,
  0x8a, 0x6f, 0xad, 0x3e, 0xdd, 0x30, 0x81, 0xbd, 0x5d, 0xaa, 0x09, 0x3e,
  0xb8, 0x94, 0xd0, 0x3e, 0x4a, 0x95, 0x30, 0x3d, 0x71, 0xf7, 0x49, 0xbd,
  0xe5, 0x97, 0x81, 0xbe, 0xa6, 0xe8, 0xae, 0xbd, 0x9f, 0xfa, 0x9a, 0xbd,
  0xde, 0x49, 0xa3, 0xbc, 0xa8, 0x31, 0x81, 0x3e, 0x66, 0xac, 0x2d, 0x3f,
  0xb3, 0x77, 0xd2, 0x3e, 0x03, 0x11, 0xc3, 0x3c, 0x6a, 0xa5, 0x35, 0xbe,
  0x6c, 0x4a, 0x9f, 0xbd, 0xb8, 0xb6, 0xd2, 0xbd, 0xfb, 0xee, 0x8e, 0xbc,
  0x76, 0xfb, 0x9c, 0x3e, 0x51, 0x72, 0x28, 0xbe, 0x9f, 0xb4, 0x51, 0xbd,
  0x0d, 0x11, 0x9d, 0x3c, 0xf1, 0x18, 0x03, 0xbf, 0x07, 0xe7, 0xa4, 0x3d,
  0x0d, 0x2a, 0x08, 0xbd, 0x55, 0x35, 0x8b, 0x3d, 0x5d, 0xc8, 0x9f, 0x3e,
  0x76, 0xee, 0x33, 0xbe, 0xf2, 0x32, 0xaa, 0xbd, 0xba, 0x5a, 0x05, 0xbe,
  0x8d, 0x89, 0xd1, 0xbe, 0x30, 0xf8, 0xc2, 0x3d, 0x00, 0xad, 0xc0, 0xbd,
  0xb0, 0x49, 0x46, 0xbd, 0x0c, 0x50, 0x0b, 0x3d, 0x0d, 0x77, 0x91, 0xbd,
  0x00, 0x81, 0x55, 0xbd, 0x54, 0x0b, 0xa3, 0xbd, 0x49, 0x03, 0x40, 0xbf,
  0x1b, 0x2c, 0x6c, 0x3d, 0x05, 0xa1, 0xa6, 0xbd, 0x14, 0x66, 0x66, 0x3e,
  0xda, 0x40, 0xcf, 0xbd, 0xd1, 0x4c, 0xde, 0xbd, 0xc2, 0x16, 0x50, 0xbe,
  0x34, 0x7b, 0x3b, 0xbe, 0x02, 0xb0, 0xec, 0xbe, 0xcf, 0xb1, 0x82, 0x3d,
  0x7c, 0xd9, 0xc9, 0xbe, 0xda, 0xbe, 0x31, 0x3d, 0xff, 0xf8, 0x17, 0x3e,
  0xe5, 0x0e, 0x9f, 0x3d, 0xe0, 0x5a, 0xef, 0x3d, 0xd4, 0x94, 0x00, 0x3e,
  0xa7, 0x17, 0x1a, 0x3e, 0x09, 0xe5, 0xfe, 0xbd, 0x2e, 0x43, 0x6b, 0x3e,
  0x72, 0x2e, 0x19, 0x3d, 0x93, 0xfd, 0xac, 0xbd, 0xaf, 0x2f, 0x32, 0x3e,
  0x92, 0xae, 0x7f, 0xbd, 0x56, 0x08, 0x5e, 0xbe, 0xac, 0xbf, 0xbb, 0x3d,
  0xfe, 0x5e, 0xc6, 0xbd, 0x43, 0xa8, 0x2d, 0xbe, 0x9f, 0x32, 0xf2, 0xbc,
  0x71, 0x00, 0x41, 0xbb, 0xf8, 0xa5, 0xaf, 0x3c, 0x95, 0x4f, 0xa8, 0x3e,
  0x5b, 0xb5, 0x89, 0x3c, 0x42, 0xe1, 0x49, 0x3e, 0x41, 0x13, 0xd5, 0xbd,
  0xf7, 0x68, 0xbf, 0x3e, 0xbe, 0x6b, 0xf0, 0xbc, 0xa0, 0xb2, 0xd0, 0xbd,
  0x24, 0x34, 0x79, 0x3d, 0xe1, 0xb6, 0x8b, 0xbd, 0x4a, 0xc8, 0x4e, 0x3e,
  0xc7, 0xcc, 0x73, 0xbc, 0xf2, 0x29, 0x75, 0xbd, 0xd5, 0xfd, 0xe2, 0xbd,
  0xda, 0xf2, 0xb9, 0xbd, 0x1f, 0x9f, 0x2d, 0xbe, 0x29, 0x21, 0xa0, 0x3e,
  0xd1, 0x23, 0xb6, 0xbd, 0x74, 0xf2, 0x61, 0xbd, 0x3e, 0xb2, 0x0f, 0xbe,
  0x55, 0x93, 0x2c, 0xbd, 0xc7, 0x8d, 0xf5, 0xbe, 0xe0, 0x1a, 0x71, 0x3e,
  0x1c, 0xcc, 0xe1, 0x3d, 0xe2, 0xfb, 0x99, 0xbe, 0x9a, 0x84, 0xeb, 0x3c,
  0xbd, 0xda, 0x0c, 0xbe, 0x5c, 0x5f, 0x2d, 0xbe, 0x34, 0xbb, 0x25, 0x3e,
  0x49, 0x43, 0x07, 0xbf, 0x8f, 0x51, 0x03, 0xbd, 0x53, 0x80, 0x2c, 0xbe,
  0x9d, 0x38, 0xe4, 0xbe, 0x71, 0x1c, 0x31, 0xbc, 0x5d, 0xe3, 0x30, 0xbe,
  0x5b, 0xff, 0x4d, 0xbe, 0x2a, 0xdf, 0xe6, 0x3a, 0x81, 0xb5, 0x49, 0xbf,
  0x0f, 0xc2, 0x0e, 0xbe, 0xb1, 0x86, 0x96, 0x3c, 0x38, 0x62, 0xe7, 0x3c,
  0x75, 0x19, 0xaa, 0xbe, 0xa6, 0xc3, 0x98, 0xbe, 0x36, 0x67, 0xd6, 0xbd,
  0xd9, 0x71, 0x0d, 0x3e, 0xab, 0x0c, 0x3a, 0xbf, 0xad, 0xbf, 0x80, 0x3c,
  0x55, 0xa3, 0x26, 0x3c, 0x14, 0x62, 0xa4, 0xbe, 0x4d, 0x8f, 0xbc, 0xbd,
  0x78, 0x2d, 0x8c, 0xbd, 0x05, 0xcf, 0xe3, 0xbc, 0x64, 0x07, 0xfc, 0xbd,
  0xfc, 0xa3, 0xcd, 0x3e, 0x78, 0xc9, 0x41, 0xbc, 0x47, 0xa1, 0xd9, 0xbd,
  0x96, 0x1e, 0x2c, 0xbd, 0x0c, 0x73, 0x4b, 0x3e, 0x3a, 0xa4, 0x35, 0x3d,
  0x5a, 0x06, 0x1a, 0x3d, 0xbc, 0xeb, 0xcf, 0xbd, 0x2b, 0xc5, 0x2f, 0x3c,
  0x8c, 0x7a, 0x4d, 0xbe, 0x31, 0x6a, 0xa4, 0xbe, 0x12, 0x41, 0xe8, 0x3e,
  0x93, 0x6b, 0x5a, 0xbd, 0xa6, 0xc8, 0x08, 0x3d, 0x58, 0xa1, 0xd2, 0x3d,
  0x62, 0xd3, 0x2a, 0xbd, 0x35, 0x0d, 0xc4, 0xbd, 0x86, 0xc7, 0x89, 0xbe,
  0x36, 0x46, 0x76, 0xbe, 0xed, 0xb3, 0xc7, 0x3e, 0x1d, 0xb2, 0x2d, 0x3f,
  0x98, 0x73, 0x07, 0xbd, 0x16, 0x20, 0x13, 0x3e, 0x8f, 0xdc, 0xa4, 0xbd,
  0x17, 0x01, 0xa9, 0x3e, 0x61, 0xd3, 0xb8, 0xbe, 0xf2, 0xd0, 0xa5, 0xbe,
  0x97, 0x3e, 0x65, 0x3f, 0x6c, 0x29, 0x4d, 0x3e, 0xbc, 0x86, 0x32, 0x3e,
  0xfb, 0x51, 0x1d, 0x3e, 0x14, 0x38, 0xc1, 0xbc, 0xdc, 0x5f, 0xeb, 0xbd,
  0x93, 0xe2, 0x02, 0xbe, 0x71, 0x5e, 0x93, 0xbd, 0x78, 0x71, 0xdf, 0x3e,
  0xae, 0x34, 0x2c, 0x3e, 0xe0, 0x84, 0x89, 0xb9, 0x8d, 0xeb, 0x09, 0xbe,
  0xd3, 0xd4, 0xf8, 0xbc, 0x44, 0xcd, 0x5e, 0x3e, 0x48, 0x10, 0x2b, 0x3d,
  0xb6, 0x9e, 0x9a, 0x3b, 0x5b, 0xf8, 0x5a, 0x3f, 0x7e, 0xe6, 0x14, 0x3e,
  0x8a, 0x8e, 0xde, 0xbd, 0xee, 0xce, 0x6b, 0x3d, 0x53, 0x75, 0x6b, 0x3d,
  0x12, 0x2e, 0x05, 0xbf, 0xf2, 0xb6, 0x08, 0x3d, 0xbc, 0xdc, 0x01, 0xbe,
  0xf9, 0x7e, 0x94, 0xbc, 0xa6, 0x80, 0x70, 0x3b, 0xd1, 0x24, 0xfd, 0xbd,
  0x8e, 0x8a, 0x92, 0xbd, 0x83, 0x8c, 0x1b, 0xbe, 0xd5, 0x07, 0xd4, 0xbe,
  0x6f, 0x02, 0x20, 0x3d, 0x9a, 0x09, 0x80, 0xbe, 0x95, 0x75, 0x9f, 0xbe,
  0xc7, 0x81, 0xdd, 0x3d, 0x08, 0x2a, 0x16, 0xbd, 0x80, 0xff, 0x41, 0xbe,
  0x63, 0xb9, 0xbc, 0xbc, 0xab, 0xe7, 0x25, 0x3e, 0x5a, 0xf5, 0xb4, 0xbd,
  0x41, 0xb7, 0xfc, 0xbc, 0x87, 0x41, 0xb0, 0x3e, 0x54, 0xcb, 0xd4, 0xbd,
  0xec, 0x4a, 0xc1, 0xbb, 0x38, 0x30, 0xfc, 0x3e, 0xdf, 0x26, 0x5c, 0xbd,
  0xc1, 0xcc, 0x0e, 0xbd, 0xc4, 0x19, 0x54, 0xbd, 0xb8, 0xdd, 0x87, 0xbb,
  0x3a, 0x2a, 0x51, 0x3e, 0x48, 0x01, 0x82, 0x3e, 0x8e, 0x32, 0x4c, 0x3d,
  0x34, 0x7f, 0xbe, 0x3d, 0xa4, 0x33, 0x6b, 0xbd, 0x57, 0xcb, 0x6a, 0x3d,
  0xba, 0x27, 0x95, 0xbd, 0x84, 0x6d, 0x32, 0xbd, 0x1c, 0xf7, 0x03, 0x3f,
  0x2a, 0x0f, 0x9f, 0x3d, 0x8f, 0xe9, 0x94, 0x3d, 0x8c, 0x7f, 0xc2, 0xbd,
  0x27, 0x8b, 0x47, 0xbd, 0xab, 0xab, 0x45, 0xbc, 0xea, 0x83, 0xdb, 0x3c,
  0x7b, 0x92, 0x3e, 0xbd, 0x57, 0xf0, 0x24, 0x3e, 0x2b, 0x95, 0x7a, 0x3e,
  0x3d, 0x55, 0xed, 0xbc, 0xa7, 0x4a, 0x1d, 0x3e, 0x0d, 0xfc, 0xfd, 0xbd,
  0x37, 0x7e, 0x09, 0xbe, 0x35, 0x14, 0xaa, 0xbd, 0x25, 0x62, 0xbd, 0xbd,
  0xc2, 0xf6, 0x4e, 0xbc, 0x87, 0x89, 0x2c, 0xbe, 0xfe, 0x78, 0xc6, 0x3d,
  0x72, 0x74, 0xfd, 0xbe, 0x59, 0xff, 0xb5, 0xbb, 0x8b, 0xc6, 0x63, 0x3d,
  0x14, 0x18, 0x97, 0xbd, 0xbc, 0x2a, 0xea, 0xbc, 0x79, 0x24, 0x97, 0x3e,
  0xc7, 0x6d, 0x20, 0x3e, 0x4a, 0x3b, 0x6e, 0xbc, 0x61, 0xfe, 0x26, 0x3d,
  0x7b, 0x92, 0xf2, 0xbd, 0xea, 0xef, 0x41, 0xbd, 0x39, 0xfb, 0x54, 0x3d,
  0x8c, 0x74, 0xbc, 0xbd, 0x63, 0xe9, 0x47, 0x3d, 0x60, 0x28, 0x42, 0x3d,
  0xb7, 0x14, 0x83, 0xbe, 0x05, 0xac, 0x9b, 0xbe, 0xf3, 0xf0, 0x31, 0xbd,
  0x75, 0x39, 0x8a, 0xbd, 0xc0, 0x99, 0x2e, 0xbe, 0xb6, 0xcc, 0x81, 0xbe,
  0x69, 0xbf, 0x0a, 0xbe, 0x26, 0xde, 0xff, 0xff, 0x10, 0x00, 0x00, 0x00,
  0x0a, 0x00, 0x00, 0x00, 0x1c, 0x00, 0x00, 0x00, 0x38, 0x00, 0x00, 0x00,
  0x04, 0x00, 0x00, 0x00, 0x10, 0x00, 0x00, 0x00, 0x04, 0x00, 0x00, 0x00,
  0x01, 0x00, 0x00, 0x00, 0x08, 0x00, 0x00, 0x00, 0x1a, 0x00, 0x00, 0x00,
  0x73, 0x65, 0x71, 0x75, 0x65, 0x6e, 0x74, 0x69, 0x61, 0x6c, 0x2f, 0x63,
  0x6f, 0x6e, 0x76, 0x32, 0x64, 0x5f, 0x31, 0x2f, 0x43, 0x6f, 0x6e, 0x76,
  0x32, 0x44, 0x00, 0x00, 0x9c, 0xdd, 0xff, 0xff, 0xa6, 0xde, 0xff, 0xff,
  0x04, 0x00, 0x00, 0x00, 0x80, 0x01, 0x00, 0x00, 0x08, 0xa9, 0xe4, 0xbd,
  0x51, 0x84, 0x88, 0xbe, 0x70, 0x31, 0xa8, 0xbe, 0xe3, 0x6c, 0x94, 0x3d,
  0x32, 0xa6, 0x0a, 0xbe, 0xd5, 0x2e, 0x34, 0xbd, 0xd0, 0x0a, 0x65, 0x3d,
  0xc6, 0x80, 0x79, 0xbe, 0x81, 0xc0, 0x14, 0xbe, 0x04, 0x27, 0xf2, 0xbd,
  0x23, 0x4d, 0x44, 0x3e, 0xcc, 0x86, 0x41, 0x3d, 0x2e, 0xf5, 0x68, 0xbe,
  0xbc, 0x19, 0x8c, 0xbe, 0xe9, 0x8c, 0x17, 0xbe, 0xf1, 0xc0, 0x6e, 0xbe,
  0x06, 0x77, 0x65, 0xbe, 0x11, 0x33, 0xde, 0x39, 0xd2, 0xbf, 0xe4, 0x3d,
  0x37, 0x1a, 0xe5, 0xbd, 0xf2, 0x1d, 0x1d, 0x3d, 0x98, 0x53, 0xf0, 0x3c,
  0xeb, 0x15, 0x0c, 0xbe, 0x07, 0x14, 0x31, 0xbe, 0xa9, 0xc5, 0x56, 0xbe,
  0x4a, 0x73, 0xee, 0x3d, 0xc0, 0xfb, 0x2b, 0x3c, 0x0a, 0xfa, 0x6f, 0xbe,
  0x80, 0xae, 0x10, 0xbe, 0x2f, 0x76, 0xee, 0xbd, 0xbc, 0x3d, 0x8e, 0xbe,
  0x9f, 0xd7, 0xf9, 0x3d, 0xad, 0xc1, 0xc4, 0xbe, 0x26, 0x39, 0xa1, 0xbe,
  0xc5, 0xbb, 0x32, 0x3e, 0x28, 0x1b, 0x77, 0xbe, 0x63, 0xeb, 0x71, 0x3d,
  0x46, 0x1a, 0x3a, 0x3d, 0xa3, 0x33, 0x95, 0xbc, 0x06, 0xbf, 0x40, 0xbe,
  0x67, 0xad, 0x69, 0x39, 0x60, 0x2f, 0x0a, 0xbd, 0x59, 0x4d, 0x7f, 0x3e,
  0xbc, 0xc1, 0xf5, 0xbb, 0x9a, 0xf6, 0x5a, 0x3e, 0x5b, 0xf8, 0x85, 0xbd,
  0xe8, 0x77, 0xd9, 0x3c, 0xa7, 0xea, 0x89, 0xbe, 0x43, 0x34, 0x1b, 0x3e,
  0x96, 0xda, 0x94, 0xbe, 0x6d, 0x7d, 0x45, 0x3d, 0x3d, 0x4c, 0xf0, 0xbb,
  0xe3, 0x06, 0x79, 0xbe, 0x6e, 0x26, 0x83, 0xbe, 0x3e, 0x98, 0x5d, 0x3d,
  0xfc, 0x11, 0xe6, 0xbe, 0x5e, 0xf6, 0xd1, 0xbe, 0x9c, 0xf8, 0x38, 0x3e,
  0x18, 0x53, 0xb3, 0xbe, 0x71, 0x0a, 0x30, 0xbe, 0x49, 0x42, 0xa5, 0x3d,
  0x80, 0x42, 0x25, 0x3d, 0x04, 0x42, 0x48, 0x3c, 0x57, 0xc8, 0xe4, 0x3c,
  0x89, 0xa1, 0x6d, 0xbd, 0xff, 0x50, 0x86, 0xbd, 0x96, 0xac, 0x80, 0xbe,
  0x5c, 0x78, 0x4d, 0x3d, 0x70, 0x88, 0xb6, 0xbe, 0xed, 0x7b, 0x56, 0xbb,
  0x9d, 0x3b, 0x11, 0xbe, 0xe1, 0xf5, 0x48, 0xbd, 0x89, 0xef, 0x92, 0xbe,
  0x19, 0xf4, 0x6c, 0x3e, 0xde, 0xe9, 0x17, 0xbf, 0xf3, 0xf4, 0x16, 0xbc,
  0x8e, 0xa2, 0x73, 0x3e, 0x9d, 0xef, 0xb5, 0xbe, 0xf7, 0x31, 0x1b, 0x3d,
  0x99, 0xab, 0xed, 0xbb, 0x39, 0x87, 0x09, 0xbf, 0x94, 0xac, 0x5f, 0xbe,
  0x61, 0x60, 0x33, 0x3d, 0x04, 0xfd, 0xc2, 0xbd, 0xe2, 0x34, 0x99, 0xbe,
  0x58, 0x5a, 0x55, 0x3d, 0xa3, 0xc0, 0x91, 0xbe, 0xe8, 0xc8, 0xff, 0xbe,
  0xde, 0x80, 0xd3, 0xbe, 0x4a, 0x4a, 0x78, 0xbe, 0x7f, 0x13, 0xaa, 0xbe,
  0x3b, 0x3d, 0x4c, 0xbe, 0x42, 0x13, 0x83, 0x3c, 0xb9, 0xb8, 0xd3, 0x3c,
  0xf2, 0xf7, 0x54, 0xbe, 0xf1, 0x78, 0x03, 0xbe, 0xfe, 0xdf, 0xff, 0xff,
  0x10, 0x00, 0x00, 0x00, 0x09, 0x00, 0x00, 0x00, 0x1c, 0x00, 0x00, 0x00,
  0x38, 0x00, 0x00, 0x00, 0x04, 0x00, 0x00, 0x00, 0x08, 0x00, 0x00, 0x00,
  0x04, 0x00, 0x00, 0x00, 0x03, 0x00, 0x00, 0x00, 0x01, 0x00, 0x00, 0x00,
  0x18, 0x00, 0x00, 0x00, 0x73, 0x65, 0x71, 0x75, 0x65, 0x6e, 0x74, 0x69,
  0x61, 0x6c, 0x2f, 0x63, 0x6f, 0x6e, 0x76, 0x32, 0x64, 0x2f, 0x43, 0x6f,
  0x6e, 0x76, 0x32, 0x44, 0x00, 0x00, 0x00, 0x00, 0x74, 0xdf, 0xff, 0xff,
  0x7e, 0xe0, 0xff, 0xff, 0x04, 0x00, 0x00, 0x00, 0xc0, 0x00, 0x00, 0x00,
  0x93, 0x01, 0xb0, 0x3e, 0x01, 0x07, 0x45, 0x3e, 0xc1, 0x30, 0xd8, 0xbe,
  0xfb, 0xcf, 0xa3, 0x3d, 0x9b, 0x5e, 0xd6, 0xbe, 0x96, 0x20, 0x77, 0xbe,
  0xd1, 0xd8, 0x95, 0x3e, 0x3a, 0x49, 0x09, 0x3d, 0xd9, 0x0d, 0xd0, 0x3e,
  0x26, 0x54, 0x01, 0xbe, 0xd3, 0x2d, 0x56, 0xbd, 0x51, 0xda, 0x90, 0x3e,
  0x73, 0x8c, 0x36, 0xbe, 0x15, 0x31, 0x0c, 0x3e, 0x75, 0xcd, 0xcd, 0x3e,
  0x4f, 0xbf, 0xad, 0xbc, 0xbb, 0x08, 0xbb, 0x3e, 0xe6, 0x1a, 0x04, 0x3e,
  0x6d, 0x0c, 0xcb, 0xbd, 0x31, 0x42, 0x47, 0xbb, 0x57, 0x8c, 0xac, 0xbe,
  0x0d, 0x10, 0x32, 0xbe, 0x5e, 0x0c, 0xbd, 0x3e, 0xb6, 0x64, 0x4f, 0x3e,
  0xfa, 0x2b, 0x05, 0x3f, 0x24, 0xbe, 0xc0, 0xbd, 0x77, 0x7a, 0xde, 0xbd,
  0xb3, 0xb7, 0x02, 0xbe, 0x60, 0x1f, 0x17, 0x3e, 0xbe, 0xdf, 0x2c, 0x3e,
  0xbd, 0xaa, 0xb6, 0x3e, 0x38, 0xc8, 0x60, 0xbd, 0xa0, 0xbb, 0xcb, 0xbe,
  0x92, 0xab, 0x8e, 0xbe, 0x18, 0xcd, 0x9c, 0x3e, 0x66, 0x3f, 0x80, 0x3d,
  0x59, 0x54, 0x2a, 0xbf, 0xbb, 0x43, 0x3b, 0xbf, 0x31, 0xdb, 0x17, 0xbf,
  0x2d, 0x54, 0x8e, 0xbd, 0x95, 0x7c, 0x44, 0xbf, 0x01, 0x3d, 0x29, 0xbf,
  0x9d, 0x57, 0x4b, 0xbf, 0xa2, 0x56, 0x9f, 0x3e, 0x05, 0x17, 0x51, 0xbd,
  0x0e, 0x69, 0xb0, 0x3a, 0xf4, 0x52, 0xc7, 0xbe, 0x15, 0x58, 0x97, 0xbf,
  0x16, 0xe1, 0xff, 0xff, 0x10, 0x00, 0x00, 0x00, 0x08, 0x00, 0x00, 0x00,
  0x14, 0x00, 0x00, 0x00, 0x30, 0x00, 0x00, 0x00, 0x02, 0x00, 0x00, 0x00,
  0x03, 0x00, 0x00, 0x00, 0x10, 0x00, 0x00, 0x00, 0x19, 0x00, 0x00, 0x00,
  0x73, 0x65, 0x71, 0x75, 0x65, 0x6e, 0x74, 0x69, 0x61, 0x6c, 0x2f, 0x64,
  0x65, 0x6e, 0x73, 0x65, 0x5f, 0x31, 0x2f, 0x4d, 0x61, 0x74, 0x4d, 0x75,
  0x6c, 0x00, 0x00, 0x00, 0x84, 0xe0, 0xff, 0xff, 0x8e, 0xe1, 0xff, 0xff,
  0x04, 0x00, 0x00, 0x00, 0x00, 0x1c, 0x00, 0x00, 0xbe, 0xdb, 0x0d, 0xbe,
  0x02, 0x03, 0x79, 0x3e, 0xf0, 0x30, 0x12, 0xbe, 0x86, 0xdd, 0x6b, 0xbe,
  0x10, 0x3d, 0xd5, 0x3d, 0x70, 0xe8, 0x03, 0xbe, 0xa7, 0x3e, 0x62, 0xbd,
  0xe8, 0x9a, 0x27, 0x3f, 0xf4, 0x0e, 0x10, 0xbe, 0xe5, 0x34, 0xbf, 0x3c,
  0x4f, 0x8a, 0xad, 0xbd, 0x67, 0x6d, 0x1f, 0xbe, 0xd9, 0xe7, 0xf9, 0x3e,
  0xbd, 0x64, 0x07, 0x3e, 0x6c, 0xe0, 0xe3, 0xbd, 0x6a, 0x54, 0x22, 0x3e,
  0x5c, 0xa4, 0xa7, 0x3e, 0x9b, 0x95, 0x01, 0x3e, 0xc8, 0xb3, 0x15, 0x3e,
  0xb4, 0x4f, 0xda, 0xbd, 0x6a, 0x08, 0xd8, 0x3b, 0x81, 0xb1, 0x8c, 0xbe,
  0x51, 0x81, 0x65, 0xbd, 0x35, 0xe1, 0xc9, 0x3d, 0x0f, 0xd3, 0x36, 0x3d,
  0xa7, 0xa8, 0xa7, 0xbe, 0xba, 0xd0, 0x9b, 0x3d, 0x70, 0x19, 0x62, 0xbe,
  0x89, 0xd8, 0x75, 0xbe, 0x56, 0x5b, 0x24, 0xbe, 0x74, 0xa8, 0x6a, 0x3c,
  0x7c, 0x4e, 0x92, 0xbd, 0xfe, 0x99, 0x95, 0x3e, 0x05, 0x95, 0x82, 0x3d,
  0x01, 0x1d, 0xf7, 0x3c, 0x1d, 0x0b, 0x38, 0x3d, 0x0b, 0xc2, 0xe8, 0x3d,
  0x3f, 0x93, 0xe2, 0xbd, 0x07, 0xdf, 0xd9, 0xbd, 0x73, 0xec, 0x0a, 0x3e,
  0x3c, 0xb9, 0x73, 0xbe, 0x06, 0x9b, 0x2d, 0xbe, 0xb6, 0xf7, 0x10, 0x3e,
  0x4c, 0x41, 0x11, 0x3d, 0x8e, 0x55, 0xf5, 0xbd, 0x78, 0xfc, 0x50, 0x3e,
  0x29, 0xc8, 0x83, 0x3d, 0x67, 0x4c, 0x7a, 0x3e, 0x0c, 0xa7, 0x62, 0xbd,
  0x28, 0xd5, 0x74, 0x3e, 0xcf, 0xfe, 0xbd, 0xbd, 0xa6, 0x97, 0x00, 0xbe,
  0x70, 0x30, 0x07, 0xbd, 0x08, 0x63, 0x60, 0xbe, 0xd9, 0xe7, 0x74, 0x3d,
  0x7e, 0xef, 0x82, 0xbd, 0x78, 0x15, 0xdf, 0x3d, 0xed, 0xae, 0x1f, 0x3d,
  0xff, 0x6e, 0x5a, 0x3e, 0x27, 0x0c, 0xfb, 0xbd, 0x66, 0xf0, 0x26, 0x3e,
  0xd2, 0x0f, 0xb4, 0x3d, 0xb7, 0x38, 0x99, 0x3e, 0xd1, 0x40, 0x75, 0x3e,
  0x49, 0xe0, 0x45, 0xbe, 0xf1, 0x66, 0x98, 0x3e, 0xbb, 0xca, 0x06, 0xbe,
  0x66, 0x6f, 0x95, 0x3e, 0x91, 0x5c, 0x2c, 0xbe, 0xa7, 0x1b, 0xcb, 0xbd,
  0xb9, 0x3d, 0x5b, 0xbb, 0x7f, 0xc8, 0xe5, 0xbd, 0xea, 0x48, 0x7f, 0xbe,
  0xf9, 0xea, 0xf0, 0x3d, 0x75, 0xa4, 0x83, 0xbd, 0x8a, 0x2a, 0x26, 0xbd,
  0xef, 0x3f, 0x61, 0x3d, 0xc0, 0x5e, 0x7a, 0x3e, 0xe9, 0x96, 0x68, 0xbe,
  0x98, 0xdd, 0x94, 0x3e, 0xe4, 0x43, 0xa1, 0xbe, 0x05, 0x81, 0x75, 0xbd,
  0xb7, 0x27, 0x9e, 0x3e, 0x1e, 0xd4, 0xd3, 0x3d, 0xa8, 0x0a, 0x76, 0xbd,
  0x86, 0x92, 0x20, 0x3e, 0x86, 0xee, 0x6b, 0xbe, 0xfe, 0x6f, 0x84, 0xbe,
  0x16, 0xee, 0x04, 0xbe, 0x35, 0x01, 0xa1, 0x3d, 0x42, 0x57, 0x03, 0xbe,
  0x01, 0x94, 0x85, 0x3e, 0x85, 0x06, 0x4f, 0xbe, 0x51, 0x95, 0xde, 0x3d,
  0x3a, 0x57, 0xa3, 0xbc, 0xe8, 0x09, 0x5a, 0x3e, 0x11, 0xf3, 0x52, 0xbe,
  0x86, 0x92, 0xab, 0xbd, 0xb9, 0x96, 0x79, 0x3d, 0xe1, 0x24, 0xd4, 0x3e,
  0x65, 0x1c, 0x27, 0xbe, 0x53, 0xa0, 0xc4, 0xbc, 0x45, 0xe4, 0x0f, 0x3e,
  0x54, 0x7d, 0x0c, 0xbe, 0x30, 0xd6, 0x2f, 0xbe, 0xfb, 0x50, 0x25, 0xbd,
  0x5b, 0x4b, 0x9c, 0xbe, 0x3b, 0x81, 0xe2, 0x3d, 0xea, 0x60, 0xf2, 0x3c,
  0x44, 0xe1, 0x45, 0xbe, 0x20, 0x5a, 0x9a, 0xbd, 0xa9, 0xa8, 0x3b, 0xbe,
  0x6b, 0x06, 0x07, 0xbe, 0x06, 0xd2, 0xa3, 0xbd, 0x31, 0xcf, 0xc5, 0x3e,
  0x00, 0x45, 0x0b, 0x3f, 0xd8, 0x03, 0xf0, 0x3b, 0x0b, 0x78, 0x43, 0xbd,
  0xfb, 0xef, 0xa1, 0x3e, 0x54, 0xe3, 0x0b, 0xbe, 0x53, 0xe2, 0x1d, 0x3e,
  0x29, 0x7d, 0x19, 0x3e, 0x75, 0x51, 0x41, 0xbe, 0x75, 0x0a, 0xa3, 0x3e,
  0xde, 0xcd, 0x69, 0xbe, 0x08, 0x32, 0xeb, 0x3d, 0x2f, 0x70, 0x47, 0xbe,
  0xc9, 0x0c, 0x02, 0x3e, 0x3c, 0x1c, 0x25, 0xbe, 0x3c, 0x46, 0xd7, 0x3c,
  0x4d, 0xc3, 0x96, 0x3d, 0xf6, 0xaf, 0x91, 0x3e, 0xb5, 0x1b, 0x51, 0x3d,
  0x53, 0xd9, 0x39, 0x3e, 0xd1, 0x43, 0x31, 0x3f, 0xf1, 0x38, 0xd4, 0xbd,
  0x78, 0x90, 0x43, 0x3d, 0x91, 0x55, 0x3d, 0x3e, 0xce, 0xe5, 0x0a, 0xbe,
  0xa1, 0x89, 0x70, 0x3e, 0x45, 0xb2, 0x19, 0xbe, 0x61, 0x9f, 0x48, 0xbd,
  0xfe, 0xce, 0x97, 0xbd, 0xed, 0xb7, 0x77, 0xbe, 0xbf, 0x49, 0x4a, 0xbe,
  0x40, 0xca, 0xbf, 0xbc, 0xc9, 0x2b, 0x1a, 0x3e, 0xde, 0x2e, 0xfb, 0x3d,
  0x95, 0xf5, 0xa7, 0x3d, 0xe5, 0x08, 0xa6, 0x3c, 0xee, 0x13, 0x55, 0x3e,
  0x3a, 0xbd, 0x89, 0xbd, 0xb2, 0x9c, 0x54, 0x3e, 0x7f, 0xec, 0xa6, 0x3d,
  0x0a, 0xa3, 0x90, 0xbd, 0x25, 0x88, 0x91, 0x3e, 0xb4, 0x3e, 0xd2, 0xbe,
  0x7a, 0x0e, 0x74, 0x3e, 0xc2, 0xc2, 0xa3, 0xbd, 0x0a, 0xe5, 0x58, 0x3d,
  0xf4, 0x92, 0x23, 0xbe, 0x0b, 0x14, 0xeb, 0x3b, 0x23, 0xa2, 0x8e, 0x3d,
  0x49, 0x51, 0x99, 0xbe, 0x90, 0xcf, 0x25, 0x3d, 0x3f, 0x32, 0xbc, 0xbd,
  0x31, 0xff, 0x3e, 0xbd, 0x55, 0xf7, 0x93, 0xbe, 0x38, 0x07, 0xda, 0x3d,
  0x04, 0xdc, 0xeb, 0x3d, 0x5c, 0xea, 0xcf, 0xbd, 0x04, 0xdd, 0x3d, 0xbe,
  0xe7, 0x0a, 0x97, 0xbe, 0x49, 0xe6, 0xe1, 0x3c, 0xb4, 0x61, 0xd6, 0xbd,
  0xd4, 0xda, 0x97, 0x3d, 0x51, 0x5d, 0x62, 0x3e, 0x62, 0xc2, 0xb8, 0x3e,
  0xfa, 0x5b, 0x08, 0x3d, 0x4d, 0x5d, 0x37, 0xbe, 0xea, 0x78, 0x09, 0x3e,
  0xd8, 0x53, 0x2d, 0x3d, 0xde, 0x87, 0xbd, 0x3d, 0xd8, 0xd2, 0x17, 0xbe,
  0xc5, 0x8c, 0x7d, 0x3e, 0xf3, 0x30, 0x29, 0xbe, 0x17, 0x56, 0xe8, 0xbd,
  0x13, 0xce, 0x16, 0xbe, 0x38, 0x67, 0x32, 0xbe, 0x2e, 0x3f, 0x03, 0x3e,
  0xd9, 0x59, 0x85, 0xbd, 0x60, 0xbd, 0x59, 0x3e, 0xd5, 0xb7, 0x11, 0x3e,
  0x78, 0x4e, 0x32, 0x3e, 0xa1, 0x16, 0x04, 0xbe, 0xc5, 0x9a, 0x67, 0xbe,
  0x2e, 0xef, 0xb5, 0x3d, 0x25, 0xe8, 0x04, 0x3e, 0xc9, 0xc0, 0x8f, 0xbe,
  0x9e, 0x96, 0x4b, 0x3e, 0x30, 0xdf, 0x3d, 0x3d, 0x05, 0x63, 0xa3, 0xbe,
  0xf8, 0x7c, 0x45, 0x3e, 0x36, 0x6c, 0x89, 0xbd, 0x96, 0x10, 0x16, 0x3e,
  0x90, 0x61, 0x2e, 0x3d, 0x3e, 0x79, 0x21, 0x3e, 0xc5, 0x22, 0xef, 0x3e,
  0x38, 0xf8, 0x83, 0x3c, 0x43, 0xcf, 0xe2, 0x3d, 0x67, 0x70, 0xc3, 0xbe,
  0x2d, 0x36, 0xcb, 0xbe, 0x56, 0xc3, 0x1a, 0xbe, 0x9c, 0xd6, 0x75, 0xbe,
  0xa6, 0x4f, 0x8a, 0xbe, 0xb6, 0x1c, 0xe4, 0x3d, 0x94, 0x3e, 0x5a, 0x3d,
  0x3c, 0x9f, 0x71, 0xbb, 0xf0, 0x44, 0xc6, 0x3e, 0xcf, 0xbe, 0xa4, 0xbe,
  0x21, 0xf5, 0x43, 0x3e, 0x65, 0xdf, 0x1b, 0x3e, 0x12, 0x97, 0x8e, 0x3e,
  0xb8, 0x29, 0x84, 0x3e, 0x17, 0x68, 0xd1, 0x3d, 0xe2, 0x91, 0x17, 0xbe,
  0xc4, 0x92, 0x77, 0xbd, 0xf0, 0x64, 0x4e, 0xbe, 0xe7, 0xa4, 0x3c, 0x3d,
  0x52, 0x12, 0x22, 0xbe, 0x62, 0xbf, 0xe3, 0xbd, 0x8f, 0xe0, 0x38, 0xbe,
  0x8d, 0x16, 0x83, 0xbe, 0xe7, 0xaf, 0x61, 0xbd, 0xcd, 0xcd, 0x13, 0x3e,
  0x8b, 0xf2, 0xc2, 0xbd, 0x2d, 0x33, 0x03, 0x3e, 0x37, 0xea, 0x46, 0xbe,
  0x87, 0x7c, 0xcf, 0xbd, 0x07, 0xb8, 0x6e, 0xbe, 0x76, 0x0c, 0x55, 0x3e,
  0xa2, 0x5b, 0x4f, 0x3e, 0x03, 0xce, 0xb6, 0x3d, 0x3e, 0xe9, 0xc3, 0xbd,
  0x94, 0xed, 0xc4, 0x3c, 0x44, 0x5a, 0x57, 0xbe, 0xbf, 0x42, 0x6d, 0xbd,
  0x5f, 0x44, 0x79, 0xbe, 0x1a, 0x5a, 0x3c, 0xbe, 0x31, 0x0d, 0x23, 0xbe,
  0x35, 0x17, 0x19, 0xbe, 0x40, 0xdb, 0xa4, 0xbd, 0xd3, 0x2e, 0x65, 0xbe,
  0x46, 0xa2, 0xb1, 0x3d, 0xd8, 0x53, 0x55, 0xbe, 0xba, 0x63, 0x89, 0x3c,
  0x60, 0xc5, 0x82, 0xbe, 0xaf, 0x7b, 0x6a, 0x3d, 0xdd, 0x8d, 0x0c, 0xbe,
  0x40, 0x41, 0x01, 0xbd, 0xa9, 0xa5, 0x4f, 0x3e, 0x6d, 0x05, 0xc7, 0x3d,
  0x7e, 0xed, 0x47, 0xbc, 0x22, 0xd3, 0x60, 0xbc, 0xda, 0x1c, 0x30, 0xbe,
  0xa2, 0xb3, 0x28, 0xbe, 0x84, 0x20, 0x56, 0xbe, 0x2f, 0x50, 0x46, 0xbe,
  0x74, 0xf7, 0x48, 0xbe, 0xcc, 0xdd, 0xc3, 0xbd, 0x09, 0x29, 0x5b, 0xbe,
  0x9d, 0xbe, 0x30, 0xbe, 0xf2, 0x71, 0x24, 0x3e, 0xf8, 0x99, 0xee, 0xbc,
  0x94, 0xc3, 0xa8, 0x3d, 0xc5, 0x96, 0x4d, 0xbe, 0x05, 0xfb, 0x86, 0xbd,
  0x3f, 0x57, 0xf9, 0xbc, 0x60, 0xa9, 0xa1, 0xbd, 0xdd, 0x28, 0x53, 0x3b,
  0xd7, 0x04, 0x38, 0xbe, 0x3d, 0xbb, 0xec, 0xbd, 0xca, 0x91, 0x41, 0xbe,
  0x6f, 0x20, 0x23, 0xbd, 0x85, 0x85, 0x14, 0xbd, 0xc0, 0xfb, 0x56, 0xbc,
  0xe9, 0xd4, 0x35, 0xbe, 0x38, 0xc6, 0x3a, 0x3e, 0x83, 0xd3, 0x5a, 0xbe,
  0x1e, 0xb3, 0x19, 0xbe, 0x9b, 0x36, 0xaa, 0x3c, 0x1c, 0x9e, 0xf6, 0xbd,
  0x3e, 0x3d, 0x6f, 0x3e, 0x79, 0xc5, 0x2b, 0xbe, 0x13, 0xcb, 0xad, 0xbd,
  0x42, 0x68, 0xb4, 0xbd, 0x05, 0xef, 0x49, 0xbe, 0xcd, 0x03, 0x4f, 0x3d,
  0x67, 0x7e, 0x4e, 0xbe, 0x4f, 0xb7, 0x1d, 0xbd, 0x19, 0x47, 0x60, 0xbd,
  0x0a, 0x8d, 0x8a, 0xbb, 0x90, 0xd6, 0xf1, 0xbd, 0x43, 0x87, 0x12, 0xbe,
  0x93, 0x58, 0x21, 0xbe, 0xdd, 0x1f, 0x0a, 0xbe, 0x8d, 0xf0, 0x41, 0xbe,
  0x8f, 0x13, 0x2e, 0x3d, 0xaf, 0x1c, 0xb0, 0x3c, 0x84, 0x86, 0xe6, 0x3d,
  0xda, 0x5a, 0x8e, 0xbc, 0x4b, 0x98, 0x9f, 0x3c, 0x13, 0x80, 0x10, 0x3d,
  0x02, 0x0f, 0xa3, 0xbd, 0x3d, 0x3c, 0x87, 0xbe, 0x48, 0x59, 0x94, 0xbc,
  0xc6, 0x4f, 0xbc, 0xbd, 0x35, 0x2b, 0xba, 0x3c, 0xbc, 0x5f, 0x92, 0xbe,
  0xbe, 0x0f, 0x3e, 0xbe, 0x62, 0xdb, 0xa7, 0x3d, 0x93, 0xc8, 0x93, 0xbb,
  0x09, 0x37, 0xaf, 0xbd, 0x59, 0x68, 0xa8, 0x3d, 0xe8, 0xf4, 0x5e, 0xbe,
  0x6b, 0xc7, 0x21, 0xbe, 0x9f, 0x0c, 0x9d, 0xbd, 0x01, 0x98, 0x54, 0x3c,
  0xa1, 0x70, 0x79, 0xbe, 0xb5, 0xc0, 0x84, 0xbe, 0x6b, 0x82, 0x2c, 0xbe,
  0x46, 0xdc, 0x58, 0xbe, 0xa0, 0xd3, 0x8c, 0x3d, 0xa6, 0x8b, 0xca, 0xbc,
  0x13, 0xbd, 0x83, 0xbc, 0x54, 0xae, 0x62, 0xbe, 0xe6, 0x64, 0xf7, 0xbd,
  0xba, 0x5b, 0xf0, 0x3d, 0xb0, 0x4b, 0x4e, 0x3e, 0x99, 0x4d, 0xf1, 0x3c,
  0x5e, 0x60, 0x14, 0x3e, 0x92, 0x68, 0xb7, 0xbc, 0x53, 0x7e, 0x86, 0x3e,
  0x18, 0xa6, 0x8c, 0xbe, 0x8b, 0xc9, 0x77, 0x3d, 0x98, 0x78, 0x80, 0xbd,
  0x0a, 0xa0, 0x9d, 0xbc, 0xcc, 0x06, 0x3e, 0x3d, 0x6a, 0x7b, 0xc3, 0xbd,
  0x74, 0x62, 0x9f, 0xbc, 0x21, 0x3d, 0xec, 0xbd, 0x9d, 0xac, 0x0e, 0x3d,
  0x08, 0xe7, 0x0f, 0x3c, 0x35, 0x6b, 0x25, 0xbe, 0x6e, 0x25, 0x00, 0xbd,
  0x15, 0x5e, 0xa5, 0x3e, 0xf0, 0x9a, 0x4f, 0xbe, 0xe0, 0x2c, 0x81, 0x3e,
  0x58, 0x88, 0x19, 0xbd, 0xfe, 0xf3, 0xfc, 0xbd, 0x8f, 0x0e, 0x04, 0x3e,
  0xcd, 0xfb, 0xad, 0xbe, 0x27, 0x8f, 0x11, 0xbe, 0x99, 0x0e, 0x0d, 0xbe,
  0x4e, 0xc6, 0x59, 0xbe, 0xd5, 0xe5, 0x5c, 0x3e, 0xa9, 0xcb, 0x24, 0xbe,
  0x0c, 0x23, 0x12, 0x3e, 0x52, 0x9a, 0x2d, 0x3c, 0xd0, 0x5a, 0x59, 0xbe,
  0xb5, 0x0a, 0x9a, 0xbd, 0xe1, 0xb8, 0x62, 0x3e, 0x2a, 0x80, 0x13, 0xbe,
  0x9c, 0xa5, 0xa7, 0xbd, 0x2d, 0x54, 0x14, 0x3e, 0xc4, 0x92, 0xd4, 0x3d,
  0x1b, 0xca, 0x24, 0xbe, 0xff, 0x92, 0xf6, 0xbd, 0xac, 0x83, 0xdd, 0xbd,
  0xb7, 0xc1, 0x94, 0x3d, 0xfb, 0x2f, 0x43, 0x3d, 0x4c, 0x12, 0x86, 0x3e,
  0xa1, 0xb2, 0x13, 0xbe, 0x23, 0x8a, 0xdb, 0xbd, 0x7b, 0x23, 0x1d, 0x3e,
  0x11, 0x4d, 0x55, 0x3e, 0xd5, 0xd0, 0x07, 0x3e, 0xf9, 0x0d, 0xee, 0xbb,
  0x86, 0x7d, 0x1c, 0xbd, 0x7f, 0xa2, 0xde, 0x3d, 0x10, 0xdd, 0x19, 0x3e,
  0xd0, 0x67, 0x91, 0xbd, 0x78, 0xd6, 0xd9, 0x3d, 0x4f, 0x86, 0x39, 0x3c,
  0xcb, 0xd2, 0xb0, 0xbd, 0xba, 0x67, 0xdb, 0x3b, 0xe1, 0xd9, 0x62, 0xbc,
  0x25, 0x5e, 0x61, 0x3d, 0xcd, 0x74, 0x02, 0xbd, 0xff, 0xb1, 0x77, 0x3e,
  0x8e, 0xd5, 0xe3, 0x3d, 0x26, 0xaf, 0x1a, 0x3e, 0x4d, 0xd0, 0xf7, 0xbc,
  0x86, 0x4a, 0xf3, 0xbc, 0xb2, 0xc7, 0x6a, 0x3d, 0x78, 0x55, 0x79, 0xbd,
  0x79, 0xab, 0xa2, 0x3d, 0x8d, 0x46, 0x9e, 0xbd, 0x01, 0x43, 0x24, 0xbc,
  0x1e, 0xd4, 0x03, 0xbe, 0xf4, 0xb9, 0x10, 0x3c, 0xe4, 0x03, 0xc4, 0xbd,
  0xb1, 0x29, 0xf8, 0x3d, 0x3f, 0xad, 0xaa, 0x3e, 0x22, 0x01, 0x08, 0xbe,
  0xf5, 0xce, 0x9a, 0x3e, 0x47, 0xea, 0x66, 0xbe, 0x14, 0xb3, 0xe3, 0xbd,
  0x0b, 0x3d, 0x88, 0x3b, 0xcb, 0x27, 0x00, 0xbc, 0x8a, 0x66, 0x34, 0xbc,
  0x3e, 0x5f, 0xf7, 0x3d, 0xbe, 0x62, 0x26, 0xbd, 0x35, 0x57, 0xff, 0x3d,
  0x6d, 0xa3, 0x59, 0xbc, 0x09, 0xf3, 0x79, 0x3d, 0x94, 0xa6, 0x49, 0xbe,
  0x7e, 0x55, 0x9c, 0xbd, 0x27, 0x6f, 0xb6, 0xbd, 0x98, 0xd3, 0x03, 0xbb,
  0xca, 0x67, 0x0f, 0x3e, 0x24, 0x33, 0x84, 0x3e, 0xff, 0x7f, 0x36, 0x3e,
  0xc7, 0xc7, 0x8c, 0xbe, 0x43, 0xb7, 0x2c, 0x3d, 0xe0, 0x68, 0x6c, 0xbe,
  0x7c, 0xd5, 0x9d, 0x3d, 0x6e, 0x55, 0x5c, 0xbe, 0xeb, 0x2c, 0x0b, 0xbe,
  0x7e, 0x12, 0x56, 0x3e, 0x0b, 0x52, 0x93, 0xbd, 0xe9, 0xed, 0xe3, 0xbe,
  0x15, 0x06, 0xdd, 0x3d, 0xdb, 0x17, 0x7c, 0xbe, 0x38, 0x12, 0x87, 0xbd,
  0x19, 0x68, 0xf5, 0x3d, 0x60, 0x6e, 0x2e, 0x3e, 0xa1, 0xc0, 0x62, 0x3e,
  0x1a, 0xdc, 0x07, 0xbe, 0x35, 0x5c, 0xe1, 0x3d, 0xfd, 0x20, 0xf4, 0xbd,
  0x73, 0xda, 0x2c, 0xbe, 0xa0, 0x2f, 0x1d, 0x3e, 0xa3, 0x0e, 0x36, 0x3e,
  0x4d, 0x35, 0x75, 0x3c, 0x34, 0xd6, 0x51, 0xbe, 0x49, 0x45, 0x16, 0x3e,
  0x61, 0x50, 0xfe, 0xbd, 0xe4, 0xcb, 0x6c, 0xbd, 0x5c, 0xa0, 0xb3, 0xbe,
  0xf1, 0x85, 0x8d, 0x3e, 0x47, 0x90, 0x43, 0xbe, 0x93, 0x93, 0x88, 0xbd,
  0xe6, 0xdb, 0x11, 0x3e, 0xe3, 0xd0, 0xf0, 0x3b, 0x4f, 0x49, 0x1d, 0xbe,
  0x4b, 0x5b, 0xb1, 0xbe, 0xb0, 0xc1, 0x5f, 0xbd, 0x30, 0x31, 0x2b, 0x3b,
  0xd3, 0x82, 0x9f, 0xbe, 0xc5, 0x85, 0x05, 0xbd, 0xf3, 0xc6, 0x06, 0xbe,
  0xc5, 0x36, 0xb5, 0x3a, 0xbd, 0x5e, 0xae, 0x3c, 0x0a, 0xc5, 0x3e, 0x3e,
  0x50, 0xef, 0xc7, 0xbe, 0xdd, 0xd3, 0xb3, 0x3d, 0x26, 0xc1, 0xc0, 0xbe,
  0x10, 0x74, 0xd0, 0xbd, 0x8a, 0x01, 0xb1, 0xbd, 0x47, 0xa7, 0x56, 0x3e,
  0x97, 0xe7, 0x3d, 0xbe, 0x47, 0x6a, 0x77, 0xbe, 0x9b, 0x4d, 0x0a, 0xbe,
  0xe5, 0x63, 0x26, 0x3e, 0x5c, 0x39, 0x8f, 0xbe, 0xd0, 0x37, 0xd2, 0xbc,
  0x39, 0xfd, 0x35, 0x3e, 0xa0, 0x3e, 0x27, 0xbc, 0xfc, 0x09, 0xda, 0x3d,
  0x1e, 0xcd, 0x02, 0xbe, 0x15, 0x4e, 0x4e, 0xbe, 0x98, 0x3e, 0x13, 0xbd,
  0x71, 0xaa, 0x69, 0xbe, 0xe8, 0x67, 0x1e, 0x3e, 0x4d, 0xaf, 0x63, 0xbd,
  0xb2, 0x34, 0x82, 0x3d, 0xd7, 0xfb, 0x23, 0xbe, 0x0b, 0x8a, 0xd5, 0xbe,
  0x4a, 0x07, 0x02, 0xbe, 0x4d, 0xc5, 0x1a, 0x3e, 0x9f, 0x0e, 0xce, 0xbe,
  0x95, 0x1b, 0x2a, 0xbe, 0x0a, 0xd6, 0xae, 0xbd, 0x55, 0x05, 0xbb, 0xbd,
  0x2a, 0xb6, 0xf7, 0xbd, 0xf9, 0x20, 0xb3, 0xbd, 0xb8, 0x8c, 0x9a, 0xbe,
  0x10, 0x33, 0x4b, 0x3d, 0x5c, 0xe4, 0x1e, 0x3e, 0x24, 0xc9, 0xf3, 0x3d,
  0x87, 0xf7, 0xf2, 0xbd, 0xa9, 0xa3, 0xc5, 0x3d, 0xa7, 0xf4, 0x6c, 0xbe,
  0x37, 0x5b, 0xba, 0xbd, 0x8a, 0x45, 0xed, 0x3d, 0x5c, 0x02, 0x20, 0xbd,
  0xce, 0xc4, 0xca, 0x3c, 0xda, 0x48, 0xf3, 0xbd, 0x9f, 0x46, 0x70, 0xbe,
  0xeb, 0xfc, 0xe2, 0xbe, 0xb2, 0x7d, 0x09, 0xbe, 0xa9, 0xa2, 0x42, 0x3e,
  0x32, 0xf9, 0xf5, 0x3c, 0x16, 0x4c, 0x94, 0x3b, 0xe0, 0xb0, 0x0a, 0x3e,
  0x92, 0x93, 0x41, 0x3e, 0x03, 0xd9, 0xf4, 0x3d, 0xb0, 0x71, 0x88, 0xbe,
  0x9b, 0x49, 0xee, 0xbb, 0xef, 0x25, 0x72, 0x3d, 0x26, 0xc9, 0x4b, 0x3e,
  0x5d, 0xc3, 0xa2, 0xbc, 0x2d, 0x34, 0x2e, 0x3e, 0x59, 0xe3, 0x0c, 0xbd,
  0x3b, 0x6b, 0xca, 0xbd, 0xf4, 0x70, 0x3b, 0xbd, 0x70, 0x40, 0x33, 0xbd,
  0xe3, 0x76, 0x21, 0xbe, 0x89, 0x17, 0xf3, 0x3d, 0x6c, 0xc8, 0xce, 0xbd,
  0x29, 0x2d, 0xc2, 0xbd, 0x8e, 0xe5, 0x30, 0xbe, 0xa7, 0x6e, 0xd7, 0xbd,
  0xd2, 0x7c, 0xac, 0xbe, 0x3e, 0x7e, 0x4b, 0xbe, 0x84, 0x25, 0x90, 0x3e,
  0x3f, 0xd7, 0x6c, 0xbc, 0x1b, 0x33, 0xdf, 0xbd, 0xdd, 0xf7, 0x2c, 0x3d,
  0x83, 0x82, 0x6d, 0x3e, 0xd8, 0xb9, 0xb6, 0xbb, 0x8d, 0xe5, 0x91, 0xbd,
  0x27, 0xda, 0x52, 0xbd, 0x48, 0x89, 0x22, 0xbe, 0xc1, 0xd4, 0x8d, 0x3c,
  0x41, 0x87, 0x66, 0xbe, 0xa0, 0xad, 0xf0, 0x3c, 0xc8, 0x35, 0xc7, 0xbd,
  0x53, 0x47, 0xf1, 0xbc, 0x8b, 0x2f, 0x29, 0x3e, 0x67, 0xaa, 0xbd, 0x3d,
  0x05, 0xd0, 0x4c, 0xbe, 0x94, 0x60, 0xcd, 0xbe, 0x61, 0x9c, 0x74, 0xbd,
  0x0c, 0xbd, 0x07, 0xbe, 0x11, 0x38, 0xc4, 0xbe, 0xeb, 0xf7, 0x61, 0x3e,
  0xb1, 0x9a, 0xc3, 0xbc, 0x5f, 0xa4, 0x77, 0xbe, 0x69, 0x87, 0x57, 0x3e,
  0x40, 0x32, 0x4f, 0xbe, 0xc1, 0x8e, 0x57, 0x3e, 0x75, 0x0d, 0x73, 0xbe,
  0x3c, 0xe6, 0x5c, 0x3e, 0x6d, 0x10, 0xce, 0x3d, 0xee, 0x32, 0x35, 0x3e,
  0x37, 0xe7, 0x2a, 0x3d, 0xcb, 0x54, 0xf1, 0xbd, 0xd8, 0x52, 0x6d, 0xbe,
  0xc0, 0xfe, 0xe4, 0x3c, 0x3f, 0x70, 0x1d, 0xbe, 0x65, 0xc4, 0x9c, 0xbe,
  0x8c, 0xe6, 0x88, 0x3d, 0x6d, 0x68, 0x1f, 0xbd, 0x43, 0x42, 0x47, 0xbe,
  0x8a, 0x8b, 0x96, 0x3d, 0xde, 0xaa, 0x5a, 0xbe, 0xb2, 0xc2, 0x69, 0xbd,
  0x0a, 0x3e, 0xd9, 0xbd, 0x87, 0x2f, 0xa4, 0x3d, 0xc0, 0xa2, 0x83, 0x3e,
  0x69, 0x12, 0xed, 0xbb, 0xe6, 0xa0, 0x8f, 0x3d, 0x60, 0xfd, 0x2e, 0xbd,
  0x49, 0x50, 0x8a, 0xbe, 0x3f, 0x5b, 0x16, 0x3e, 0x77, 0x5d, 0xef, 0xbd,
  0x93, 0x34, 0x78, 0xbe, 0x63, 0x88, 0xaf, 0x3d, 0x56, 0xba, 0x15, 0xbe,
  0x8b, 0xa0, 0xdc, 0xbd, 0x0d, 0x9a, 0xf8, 0xbc, 0x60, 0xaa, 0xb2, 0xbd,
  0x0e, 0xf8, 0x88, 0x3e, 0xa7, 0x6b, 0x53, 0x3e, 0x8f, 0x6a, 0x9e, 0x3d,
  0x9b, 0x38, 0x99, 0x3e, 0x57, 0x20, 0x2f, 0x3d, 0x43, 0x71, 0x3e, 0x3e,
  0x95, 0xc1, 0xee, 0xbd, 0x57, 0x7f, 0xaa, 0x3d, 0x43, 0x61, 0x50, 0x3e,
  0x1a, 0x72, 0x14, 0xbd, 0x8b, 0x31, 0x09, 0x3e, 0x85, 0x81, 0x74, 0x3e,
  0x32, 0x7e, 0x67, 0x3e, 0xd1, 0x77, 0x8a, 0xbd, 0xf4, 0xb5, 0xa9, 0x3c,
  0x65, 0x1d, 0x8c, 0xbd, 0x58, 0x93, 0x69, 0x3e, 0xf5, 0x55, 0xa7, 0x3e,
  0xb6, 0x30, 0xa9, 0x3d, 0xfd, 0x13, 0xec, 0x3d, 0xf4, 0x74, 0xda, 0x3c,
  0xf0, 0x1a, 0x09, 0xbe, 0x37, 0x7f, 0x96, 0x3d, 0xdd, 0xc4, 0x0c, 0x3e,
  0x80, 0xbb, 0x13, 0xbe, 0x8d, 0x71, 0x14, 0x3d, 0x27, 0x56, 0x01, 0x3e,
  0xdf, 0xa2, 0x36, 0x3e, 0xb7, 0x60, 0x56, 0xbe, 0xb2, 0xd4, 0x3c, 0x3e,
  0x53, 0xf9, 0x39, 0xbc, 0x63, 0xb3, 0xf2, 0x3d, 0x92, 0x39, 0xca, 0xbd,
  0xa5, 0xf5, 0x8b, 0x3e, 0xe6, 0x24, 0x97, 0x3d, 0x78, 0xd8, 0xa5, 0x3c,
  0xa0, 0x57, 0xf8, 0xbd, 0xa4, 0x52, 0xbc, 0xbe, 0xcf, 0x63, 0x9c, 0x3e,
  0xde, 0x6f, 0x9d, 0x3e, 0x0b, 0x88, 0xc2, 0xbd, 0x78, 0x22, 0x80, 0x3e,
  0x66, 0xe5, 0x36, 0x3e, 0x4e, 0xf9, 0xb3, 0xbd, 0xb9, 0xba, 0x6b, 0xbe,
  0x29, 0x10, 0x4e, 0x3e, 0x03, 0x8c, 0x31, 0xbe, 0x2f, 0x7a, 0x11, 0x3e,
  0x08, 0x33, 0xad, 0xbe, 0x89, 0x4d, 0x11, 0x3e, 0x6e, 0xe9, 0x40, 0xbe,
  0xaf, 0x77, 0xf7, 0x3c, 0x67, 0x38, 0x5e, 0xbe, 0x21, 0xc7, 0xb3, 0xbe,
  0x35, 0x9a, 0x49, 0x3e, 0xe1, 0x38, 0x11, 0x3f, 0x27, 0xcf, 0x1f, 0x3e,
  0x67, 0x64, 0xb4, 0x3e, 0xc2, 0x8a, 0x58, 0x3e, 0x00, 0x71, 0x28, 0xbe,
  0x5b, 0x78, 0xb9, 0xbd, 0x6b, 0xff, 0xc0, 0x3d, 0xb6, 0x22, 0x85, 0xbd,
  0x37, 0x81, 0x74, 0x3e, 0x12, 0x0c, 0x5a, 0xbe, 0xdb, 0x5b, 0x62, 0xbe,
  0xf3, 0x3d, 0x45, 0xbe, 0x1d, 0x13, 0x11, 0xbd, 0x74, 0xd8, 0xf9, 0x3d,
  0x8a, 0x31, 0xae, 0x3d, 0xd8, 0x24, 0xef, 0xbd, 0x7c, 0x8f, 0xad, 0xbe,
  0xe7, 0x1d, 0xb3, 0x3d, 0xd4, 0xc9, 0x98, 0xbc, 0x1a, 0xde, 0xe6, 0xbe,
  0x0b, 0x25, 0xb2, 0x3e, 0x51, 0x36, 0xdc, 0x3c, 0x98, 0xb8, 0x00, 0xbe,
  0xdd, 0x3c, 0xba, 0x3d, 0x18, 0xbf, 0x5b, 0xbc, 0x87, 0x1d, 0x79, 0x3e,
  0xbb, 0xea, 0x45, 0xbd, 0x36, 0x0c, 0xfe, 0x3d, 0x84, 0x96, 0x71, 0x3e,
  0x60, 0x97, 0x11, 0x3e, 0x7a, 0x43, 0x6e, 0x3e, 0xce, 0x2e, 0x86, 0xbd,
  0x6f, 0xf5, 0xb2, 0xbe, 0x34, 0x26, 0xd1, 0xbd, 0x79, 0xd4, 0x7a, 0xbe,
  0xb0, 0xb4, 0x1d, 0xbe, 0xee, 0x64, 0x0c, 0x3e, 0xa3, 0xd9, 0x43, 0xbe,
  0x50, 0xb7, 0x38, 0xbe, 0x7f, 0xbd, 0xa3, 0xba, 0x42, 0x16, 0x87, 0xbe,
  0xc3, 0xad, 0xcf, 0x3d, 0x98, 0x4c, 0x84, 0xbd, 0xac, 0x23, 0xcd, 0xbd,
  0x23, 0xe2, 0x30, 0x3e, 0xbb, 0x03, 0x1c, 0x3e, 0x29, 0x7a, 0x98, 0x3e,
  0x8b, 0x99, 0x97, 0xbe, 0xa3, 0xcf, 0xcd, 0xbe, 0x86, 0x65, 0x49, 0xbd,
  0x21, 0x3b, 0x5b, 0xbe, 0x11, 0x42, 0x8a, 0xbe, 0x58, 0x92, 0x9d, 0x3c,
  0x44, 0xa6, 0xac, 0xbd, 0xe2, 0xd0, 0x84, 0xbe, 0xed, 0xb6, 0x3b, 0x3e,
  0x6b, 0x97, 0x8f, 0xbe, 0x1a, 0x39, 0x1a, 0x3e, 0x1d, 0x3b, 0x67, 0xbe,
  0x1b, 0xf4, 0x12, 0x3c, 0x8f, 0x2b, 0x72, 0x3e, 0x3e, 0x78, 0x00, 0xbe,
  0x51, 0x08, 0x8e, 0x3d, 0x02, 0x46, 0x59, 0xbe, 0x15, 0x13, 0x35, 0xbe,
  0x2e, 0xfc, 0xaf, 0x3d, 0x46, 0x18, 0xee, 0xbd, 0x7f, 0x26, 0xba, 0xbd,
  0xed, 0xe3, 0x0f, 0x3e, 0xc3, 0xb7, 0xd6, 0xbd, 0xc3, 0xae, 0x94, 0x3a,
  0xd7, 0xf3, 0xd5, 0x3d, 0xaf, 0x93, 0xa8, 0xbd, 0x2b, 0x4e, 0x1a, 0x3e,
  0xe7, 0x78, 0x90, 0x3d, 0x4f, 0x59, 0x47, 0x3e, 0xa9, 0x96, 0xa2, 0x3c,
  0x10, 0xd7, 0x1d, 0xbe, 0x6c, 0x37, 0x66, 0xbd, 0xe2, 0x3c, 0x15, 0x3c,
  0xe2, 0x7a, 0xa6, 0x3d, 0x14, 0x98, 0xb8, 0xbd, 0x16, 0x23, 0x02, 0xbd,
  0xbd, 0x12, 0x0c, 0xbe, 0x59, 0xa8, 0xe2, 0x3d, 0xd2, 0x8a, 0xac, 0xbe,
  0xc0, 0x29, 0x41, 0x3d, 0x84, 0x3d, 0xae, 0xbd, 0x4f, 0xdf, 0x18, 0x3e,
  0x58, 0x8a, 0xe1, 0x3c, 0x01, 0xc1, 0x70, 0x3e, 0x9c, 0x97, 0xb8, 0xbd,
  0xdb, 0x36, 0x8d, 0x3d, 0x24, 0x7a, 0x2c, 0xbe, 0x43, 0x1c, 0xc2, 0xbe,
  0xa1, 0x2e, 0x66, 0x3e, 0xcf, 0x06, 0xc2, 0x3e, 0x7c, 0x3c, 0xcd, 0xbd,
  0x93, 0xee, 0x10, 0x3e, 0x40, 0x07, 0x79, 0x3e, 0x4c, 0xb5, 0x25, 0xbd,
  0x6c, 0xc6, 0xfe, 0xbe, 0xd2, 0x37, 0x4d, 0x3e, 0x19, 0xef, 0x8e, 0xbd,
  0x07, 0x6a, 0xb3, 0x3e, 0xc7, 0x9e, 0x87, 0xbe, 0x1b, 0xcb, 0x03, 0x3f,
  0x21, 0x21, 0x32, 0xbe, 0x79, 0x07, 0x34, 0x3d, 0xc9, 0x47, 0x59, 0xbe,
  0x34, 0x48, 0xbe, 0xbe, 0xd1, 0x7c, 0x6b, 0x3e, 0x04, 0xd0, 0xbb, 0x3e,
  0x25, 0x29, 0x26, 0x3e, 0xd4, 0xff, 0x8f, 0x3e, 0xab, 0x9b, 0xc6, 0x3e,
  0x31, 0x87, 0xa8, 0xbd, 0x93, 0xe3, 0x9d, 0xbe, 0xa4, 0x0f, 0xfb, 0x3c,
  0x9e, 0xe8, 0xf3, 0xbd, 0xbd, 0x9e, 0xbd, 0x3d, 0x33, 0x32, 0xdd, 0xbe,
  0x1f, 0x29, 0x53, 0xbe, 0x7e, 0xcb, 0x43, 0xbe, 0x74, 0xf8, 0x64, 0xbd,
  0x2d, 0xfa, 0xc4, 0x3d, 0xca, 0x35, 0xb4, 0x3d, 0x3f, 0xa4, 0x2a, 0xbe,
  0xc1, 0x9c, 0x10, 0xbc, 0xb3, 0xc3, 0xaa, 0xbd, 0x3c, 0x4c, 0x0f, 0x3e,
  0x39, 0xd4, 0x52, 0x3a, 0x0e, 0x6d, 0x61, 0x3e, 0x69, 0x64, 0x2b, 0x3e,
  0x39, 0x21, 0x3f, 0xbe, 0xff, 0xed, 0xb7, 0x3c, 0x79, 0x37, 0xca, 0x3d,
  0xde, 0xdc, 0x3c, 0xbd, 0x64, 0xb6, 0x58, 0xbe, 0x36, 0x10, 0xcf, 0xbd,
  0x7d, 0xe2, 0x0d, 0x3e, 0x80, 0x1c, 0x1a, 0xbe, 0x68, 0x3a, 0x43, 0x3b,
  0x2f, 0xa1, 0xca, 0x39, 0x41, 0x81, 0xb6, 0xbe, 0x44, 0x1e, 0x20, 0xbe,
  0xea, 0x71, 0x81, 0x3d, 0xf3, 0x18, 0x09, 0xbe, 0xfb, 0x7a, 0xe2, 0x3d,
  0xd0, 0xcf, 0xe0, 0x3c, 0x11, 0xd6, 0xa8, 0xbe, 0xc8, 0x5c, 0x16, 0x3e,
  0x67, 0xa9, 0xa4, 0xbe, 0x81, 0x84, 0x88, 0x3e, 0xb7, 0xc7, 0xdf, 0x3d,
  0x82, 0x44, 0xa0, 0xbd, 0xc5, 0xf7, 0xe1, 0x3e, 0xe2, 0xec, 0x84, 0xbd,
  0x20, 0x34, 0x7d, 0xbd, 0x5e, 0x54, 0xe0, 0x3c, 0xb3, 0x3b, 0x29, 0xbd,
  0xa4, 0x15, 0x36, 0xbc, 0xb1, 0x51, 0x4a, 0xbd, 0x32, 0xb6, 0x8c, 0xbe,
  0xda, 0x4e, 0x91, 0xbc, 0xe1, 0x76, 0x66, 0x3d, 0xb4, 0x16, 0x0c, 0xbf,
  0xc1, 0x12, 0x0e, 0xbd, 0x12, 0x13, 0x22, 0xbe, 0x5b, 0xf5, 0x09, 0x3e,
  0xf6, 0x6f, 0x6b, 0xbc, 0x03, 0x2b, 0xc3, 0xbb, 0x43, 0xea, 0x88, 0x3e,
  0xb8, 0x52, 0x45, 0x3d, 0x84, 0x5b, 0xe8, 0x3d, 0xbc, 0x8d, 0x80, 0xbe,
  0xa0, 0xda, 0x02, 0x3e, 0xf1, 0x8f, 0xb0, 0xbd, 0xff, 0xd8, 0x28, 0x3b,
  0xba, 0xd0, 0x70, 0xbe, 0xb9, 0xfb, 0x9f, 0x3e, 0x3f, 0x93, 0x8b, 0xbd,
  0x77, 0xf5, 0x16, 0xbe, 0x29, 0xd8, 0x5c, 0xbe, 0xa1, 0x62, 0x62, 0xbe,
  0x97, 0x58, 0x13, 0xbe, 0xbf, 0x31, 0xcf, 0x3d, 0x0a, 0xfc, 0x00, 0x3e,
  0x53, 0xd3, 0x68, 0x3e, 0x4c, 0xa6, 0x84, 0x3d, 0xf8, 0x38, 0xa2, 0xbd,
  0x54, 0x00, 0x13, 0x3d, 0x66, 0x4d, 0x33, 0x3d, 0x89, 0x31, 0x05, 0x3e,
  0x0b, 0x31, 0x85, 0x3d, 0xc9, 0x45, 0xe6, 0xbd, 0x61, 0x1c, 0xf9, 0x3d,
  0x3d, 0x95, 0x53, 0x3c, 0xba, 0x94, 0xe9, 0x3b, 0x99, 0xdb, 0x80, 0xbe,
  0x31, 0x71, 0xe4, 0xbc, 0x73, 0xd4, 0x14, 0x3d, 0x9d, 0x5b, 0xb3, 0x3e,
  0x17, 0xf3, 0xb2, 0x3b, 0x9c, 0x5c, 0x17, 0x3e, 0xaf, 0x30, 0xf6, 0xbd,
  0x44, 0xb2, 0x07, 0xbe, 0x6f, 0xd1, 0x35, 0x3e, 0x8c, 0x8b, 0xb2, 0xbc,
  0x6f, 0xef, 0xad, 0xbd, 0xce, 0xce, 0xb9, 0xbd, 0xa8, 0x35, 0xa8, 0x3e,
  0xde, 0xed, 0x3e, 0xbe, 0x74, 0xc8, 0xa3, 0xbc, 0x51, 0xe2, 0xeb, 0x3d,
  0x4c, 0x98, 0x79, 0xbd, 0xdc, 0x3f, 0x53, 0x3d, 0x0d, 0x79, 0x7a, 0xbe,
  0x8d, 0x9b, 0xaf, 0x3d, 0x83, 0x94, 0x18, 0xbe, 0xf8, 0xff, 0x28, 0x3e,
  0xfc, 0x72, 0xa0, 0x3c, 0xb8, 0xb8, 0x3c, 0x3d, 0x21, 0x4a, 0x38, 0xbd,
  0xc6, 0xd2, 0xa6, 0x3e, 0xd6, 0xee, 0xc4, 0x3c, 0xe3, 0xff, 0xf3, 0x3d,
  0x90, 0x96, 0x31, 0x3e, 0xdb, 0x89, 0x36, 0xbe, 0xa6, 0x7a, 0x2e, 0xbe,
  0xe9, 0x0d, 0x09, 0x3e, 0x86, 0xcb, 0x90, 0xbe, 0x5c, 0x88, 0x76, 0x3e,
  0x83, 0xb3, 0xdc, 0xbd, 0x4a, 0xa6, 0xab, 0xbd, 0xde, 0x7c, 0x9f, 0xbe,
  0x1f, 0x61, 0xcf, 0xbd, 0xe8, 0xe3, 0xab, 0x3d, 0x15, 0xe8, 0x8b, 0x3e,
  0xd5, 0x40, 0xb4, 0xbe, 0x16, 0xf6, 0xa5, 0xbe, 0x70, 0xb6, 0x8c, 0x3d,
  0x03, 0xcd, 0xc5, 0xbd, 0xa6, 0xb2, 0xad, 0xbe, 0x80, 0x90, 0x2b, 0x3e,
  0x44, 0x55, 0x1f, 0x3e, 0xcb, 0x4a, 0xa4, 0xbe, 0x8f, 0x76, 0x7b, 0x3e,
  0x1b, 0x85, 0xd1, 0xbe, 0x58, 0x90, 0xbf, 0x3d, 0xe0, 0x6a, 0xc5, 0xbc,
  0x19, 0x98, 0x9c, 0x3e, 0x9b, 0x4b, 0xd5, 0x3e, 0x57, 0xcf, 0x66, 0x3e,
  0x39, 0x17, 0xf2, 0x3d, 0x82, 0xc6, 0xa7, 0xbe, 0x31, 0x8c, 0x57, 0xbe,
  0x1f, 0x81, 0x85, 0xbd, 0x67, 0x2e, 0x70, 0xbd, 0x08, 0x38, 0xc2, 0xbd,
  0xdb, 0x64, 0x0a, 0x3e, 0x76, 0x3a, 0x33, 0xbd, 0x9e, 0x4a, 0x9f, 0xbe,
  0x76, 0x8e, 0xc6, 0xbc, 0x8c, 0x93, 0xdb, 0xbe, 0xa5, 0xe4, 0x7c, 0x3e,
  0xff, 0xe7, 0x82, 0x3d, 0x20, 0xc6, 0xb1, 0x3d, 0x53, 0x08, 0x8b, 0x3e,
  0xe6, 0x07, 0x45, 0x3e, 0xd8, 0xfb, 0x3e, 0x3e, 0x27, 0x0f, 0xc0, 0xbd,
  0x35, 0x61, 0x89, 0xbd, 0xe9, 0xa0, 0x10, 0x3e, 0x1e, 0xaa, 0x84, 0x3b,
  0x6f, 0xa6, 0xec, 0xbd, 0x6a, 0x90, 0x07, 0x3e, 0xab, 0x5d, 0xac, 0xbe,
  0x7e, 0x58, 0x4e, 0xbe, 0x1a, 0xb7, 0x54, 0xbd, 0x13, 0xa4, 0x14, 0xbd,
  0x89, 0xa2, 0xa4, 0x3e, 0x29, 0xba, 0x22, 0x3e, 0xd5, 0x03, 0x8d, 0x3e,
  0xe1, 0xe4, 0xa9, 0x3d, 0xb7, 0xff, 0xe1, 0x3d, 0x52, 0x10, 0x59, 0x3e,
  0x2b, 0x29, 0xb1, 0xbd, 0xae, 0x16, 0x8f, 0x3e, 0x9e, 0x8b, 0xe5, 0x3d,
  0x3c, 0xa5, 0x85, 0xbd, 0x40, 0x3a, 0xf4, 0xbd, 0x41, 0xa4, 0x34, 0x3e,
  0x65, 0x93, 0x13, 0xbe, 0xae, 0xec, 0x67, 0x3e, 0x45, 0x91, 0xe3, 0x3d,
  0x60, 0x99, 0xf6, 0x3d, 0x9d, 0xee, 0xb4, 0x3d, 0xb1, 0xca, 0xb2, 0x3e,
  0x84, 0x45, 0xd5, 0x3c, 0x28, 0xed, 0x63, 0xbd, 0x85, 0x6c, 0xf6, 0xbd,
  0x96, 0x58, 0x09, 0xbd, 0x79, 0xdc, 0x02, 0x3e, 0x19, 0x3e, 0x18, 0x3e,
  0x6f, 0xd4, 0x34, 0xbe, 0x86, 0x7c, 0x90, 0x3c, 0xab, 0x76, 0x9a, 0x3d,
  0xc6, 0x0d, 0x34, 0x3d, 0xd6, 0x77, 0x21, 0xbe, 0x14, 0x7a, 0x29, 0x3e,
  0x7a, 0xd4, 0x9c, 0x3d, 0x3a, 0x95, 0xd2, 0x3d, 0xb6, 0x01, 0x1c, 0xbd,
  0x52, 0x42, 0x24, 0x3e, 0xd7, 0x70, 0x43, 0x3c, 0xa9, 0x59, 0x54, 0x3e,
  0x2e, 0xac, 0x7c, 0xbe, 0x64, 0x69, 0xb1, 0xbe, 0x92, 0x39, 0x69, 0x3e,
  0xb1, 0xd3, 0x99, 0x3e, 0x90, 0x17, 0xb0, 0xbd, 0x66, 0x89, 0x45, 0x3e,
  0x2e, 0xa0, 0xd4, 0x3d, 0xa9, 0xb4, 0x14, 0xba, 0x34, 0x86, 0x5a, 0xbe,
  0xd7, 0xc6, 0x16, 0x3e, 0xc4, 0xa0, 0x0d, 0xbe, 0xa3, 0xd2, 0x89, 0xbd,
  0x67, 0xf4, 0x63, 0xbe, 0x4c, 0xda, 0x96, 0x3e, 0xee, 0x69, 0x5f, 0xbe,
  0xa8, 0x59, 0xc6, 0xbd, 0xfb, 0x20, 0xce, 0xbe, 0x16, 0x03, 0x8d, 0xbe,
  0x98, 0x9b, 0x92, 0x3e, 0xd8, 0x3d, 0x23, 0x3e, 0x75, 0xe4, 0x8b, 0xbc,
  0x28, 0x1e, 0x66, 0x3d, 0x6e, 0x48, 0x99, 0x3e, 0x47, 0x12, 0xd4, 0xbd,
  0x4a, 0x46, 0x0c, 0xbe, 0xc0, 0x51, 0x6d, 0xbd, 0x90, 0xe3, 0x27, 0xbe,
  0x55, 0x3a, 0x34, 0x3e, 0xd8, 0x74, 0x91, 0xbe, 0x0a, 0x3a, 0x5b, 0xbe,
  0x83, 0x13, 0x58, 0xbe, 0x98, 0xeb, 0x67, 0xbe, 0xb5, 0x6d, 0x82, 0x3e,
  0xba, 0xcb, 0x21, 0xbe, 0x25, 0xcd, 0x0d, 0xbe, 0x52, 0x93, 0xee, 0xbe,
  0xf3, 0x07, 0x0a, 0x3e, 0xe8, 0x6e, 0x4b, 0xbe, 0xdc, 0xb4, 0x98, 0xbe,
  0x33, 0x2c, 0x7b, 0x3e, 0x8e, 0x90, 0x32, 0x3e, 0x52, 0x11, 0xb0, 0xbe,
  0x74, 0x24, 0x0d, 0xbd, 0x3d, 0x66, 0x11, 0xbe, 0x99, 0x14, 0x24, 0x3e,
  0x99, 0xd9, 0x4a, 0xbe, 0x74, 0x98, 0x47, 0x3e, 0x6e, 0x64, 0x59, 0x3e,
  0x38, 0x12, 0x92, 0xbe, 0x73, 0x1c, 0x2e, 0xbe, 0x15, 0x44, 0xaa, 0xbd,
  0x9c, 0x96, 0x6d, 0xbe, 0xd2, 0x2a, 0xc5, 0x3d, 0x32, 0xe2, 0x2c, 0xbe,
  0x3a, 0xd4, 0xd6, 0xbd, 0x78, 0x5f, 0x83, 0x3d, 0x05, 0x84, 0x28, 0xbe,
  0x55, 0x59, 0x96, 0xbe, 0x5a, 0x29, 0xf8, 0x3d, 0x9a, 0x33, 0x65, 0xbe,
  0x46, 0x3c, 0x0b, 0x3e, 0xa1, 0x27, 0xab, 0x3e, 0x75, 0x7b, 0xa1, 0x3e,
  0x20, 0xcc, 0x24, 0x3e, 0x7e, 0x15, 0xc1, 0x3d, 0x43, 0x0f, 0x82, 0x3e,
  0x09, 0xb1, 0x2f, 0x3d, 0x13, 0xd1, 0xf2, 0x3d, 0xe0, 0xde, 0x05, 0xbe,
  0x5a, 0x7b, 0x68, 0x3d, 0x23, 0xb0, 0x94, 0xbd, 0x43, 0x02, 0x6d, 0x3c,
  0x9b, 0x83, 0xc0, 0xbe, 0x10, 0xd0, 0x7a, 0xbe, 0x19, 0x27, 0xc5, 0x3d,
  0xc7, 0x69, 0xc8, 0xbd, 0x38, 0xce, 0x71, 0x3d, 0xdf, 0x4a, 0x50, 0x3e,
  0x07, 0xce, 0x23, 0x3d, 0x05, 0x8d, 0x3d, 0x3e, 0x05, 0x90, 0x33, 0xbd,
  0x1d, 0xd5, 0xd3, 0xbd, 0x1e, 0x5c, 0x23, 0xbd, 0x0b, 0x4a, 0xbc, 0x3e,
  0x15, 0x3d, 0x46, 0x3e, 0xa1, 0x9f, 0x0d, 0x3e, 0xe3, 0xf2, 0x7e, 0xbc,
  0x53, 0x9a, 0x9b, 0x3d, 0x27, 0x04, 0xe7, 0xbd, 0x2c, 0x8b, 0x54, 0x3e,
  0x7e, 0x8c, 0x28, 0xbc, 0xbc, 0x6e, 0xd3, 0x3d, 0x72, 0xd6, 0x67, 0xbc,
  0x02, 0x56, 0x63, 0x3e, 0xec, 0x12, 0x76, 0x3d, 0x56, 0x42, 0x4e, 0x3e,
  0x5c, 0x91, 0xcf, 0x3c, 0xb1, 0x6d, 0x20, 0xbe, 0x2b, 0xce, 0xf1, 0x3b,
  0x24, 0x6d, 0xae, 0xbd, 0x2f, 0x30, 0x0e, 0x3d, 0xc1, 0x5d, 0x08, 0x3e,
  0x88, 0x3e, 0x8c, 0x3d, 0x48, 0xc6, 0xa3, 0xbb, 0xd6, 0xa3, 0xb5, 0x3d,
  0x7d, 0x13, 0x2e, 0x3e, 0xbb, 0x59, 0xdd, 0xbd, 0xe8, 0x03, 0x05, 0x3e,
  0x81, 0x79, 0xda, 0xbd, 0x7b, 0x5d, 0x52, 0x3d, 0x97, 0xf6, 0xe3, 0xbd,
  0x56, 0x07, 0xee, 0x3d, 0x1c, 0xea, 0xfb, 0xbd, 0x4c, 0xa5, 0x96, 0xbe,
  0xe4, 0x95, 0x57, 0x3e, 0xde, 0x8c, 0x48, 0xbd, 0xbc, 0x8e, 0x08, 0x3e,
  0x5a, 0xa9, 0x32, 0x3b, 0x1c, 0x24, 0x60, 0x3e, 0xc8, 0xc2, 0xf2, 0xbd,
  0x8e, 0xe1, 0xbd, 0xbc, 0x2b, 0xa8, 0x65, 0xbe, 0xe5, 0x0e, 0x04, 0xbe,
  0x9e, 0x40, 0xd8, 0x3d, 0xfd, 0xdb, 0x08, 0xbe, 0xa4, 0xeb, 0x7b, 0x3e,
  0xa5, 0xf6, 0x98, 0xbe, 0xac, 0xaa, 0x1b, 0xbe, 0xc3, 0x44, 0x58, 0xbe,
  0xa1, 0xd2, 0xa1, 0xbe, 0xcd, 0x5f, 0x82, 0x3d, 0x8f, 0x02, 0xd9, 0x3e,
  0x99, 0xd4, 0xa3, 0xbc, 0xf6, 0xf3, 0x44, 0x3e, 0x97, 0x04, 0xdd, 0xbc,
  0x2e, 0xb1, 0xdd, 0xbd, 0x4d, 0x86, 0xa8, 0xbc, 0x57, 0x91, 0x8c, 0x3e,
  0xeb, 0xc8, 0xfd, 0xbd, 0xe0, 0x7c, 0xc1, 0x3e, 0xf1, 0xc3, 0x95, 0xbd,
  0xdb, 0x51, 0x94, 0xbe, 0xb0, 0xb0, 0x09, 0xbe, 0x0e, 0xb2, 0x10, 0xbe,
  0xe9, 0x5e, 0x8e, 0xbe, 0xec, 0x01, 0xfc, 0xbd, 0xb6, 0xf6, 0xad, 0x3e,
  0x1c, 0xde, 0x24, 0x3f, 0x6f, 0xeb, 0x1d, 0x3b, 0x1f, 0xa3, 0x0b, 0x3e,
  0x72, 0xd1, 0xae, 0x3e, 0x53, 0xea, 0x9f, 0xbe, 0xe6, 0xcc, 0xb8, 0x3c,
  0xad, 0x73, 0x09, 0x3e, 0xcd, 0x09, 0x55, 0xbe, 0x65, 0xe7, 0x7f, 0x3c,
  0x5e, 0x42, 0x64, 0xbd, 0x63, 0x35, 0x9b, 0x3e, 0xe6, 0x34, 0x5c, 0xbe,
  0xed, 0x5f, 0x8b, 0x3d, 0xcf, 0x01, 0x33, 0xbe, 0x58, 0x9f, 0xec, 0xbd,
  0x5c, 0xbe, 0x0a, 0x3e, 0x37, 0xf9, 0x68, 0x3e, 0x05, 0xf0, 0x42, 0x3e,
  0xa3, 0x0f, 0x43, 0x3e, 0x55, 0x41, 0xe4, 0x3c, 0xee, 0x4f, 0x0d, 0xbe,
  0x19, 0xe1, 0x8b, 0x3d, 0x24, 0xb8, 0xb0, 0x3e, 0xa9, 0x36, 0x4d, 0xbe,
  0x2f, 0xf1, 0x25, 0xbc, 0x4c, 0x20, 0x91, 0xbe, 0xd6, 0xa0, 0x79, 0x3d,
  0xa8, 0x75, 0x3d, 0xbe, 0xb8, 0x45, 0x09, 0x3d, 0x8c, 0x25, 0xba, 0xbd,
  0x6c, 0xdf, 0x16, 0xbe, 0x29, 0x07, 0x0b, 0x3e, 0xe1, 0x92, 0x0f, 0x3e,
  0xe5, 0x95, 0xdf, 0xbc, 0xa6, 0xe1, 0x3c, 0x3e, 0xfc, 0x08, 0x92, 0x3e,
  0x12, 0x7b, 0x69, 0xbe, 0xed, 0x6b, 0x08, 0x3d, 0x35, 0x9d, 0xe0, 0x3d,
  0x4c, 0x5b, 0x1a, 0xbe, 0x3e, 0x55, 0xbe, 0x3e, 0x53, 0x0e, 0xf3, 0xbd,
  0x50, 0xd2, 0x34, 0xbd, 0x81, 0x55, 0x59, 0xbd, 0xc2, 0x7c, 0xe0, 0x3d,
  0xe7, 0x4a, 0x97, 0x3d, 0xab, 0x17, 0xb2, 0x3c, 0x82, 0xc9, 0x30, 0xbd,
  0xde, 0xa8, 0x48, 0xbe, 0x17, 0x22, 0x44, 0x3e, 0x61, 0x2b, 0x23, 0xbd,
  0xef, 0xee, 0xf4, 0x3c, 0xa2, 0x1b, 0x4c, 0xbe, 0x36, 0x3c, 0xd5, 0x3d,
  0xa6, 0xb8, 0x09, 0x3e, 0xca, 0xb4, 0x53, 0xbc, 0xd1, 0xb0, 0x1e, 0x3e,
  0xed, 0x9e, 0x4d, 0xbd, 0xdb, 0xd9, 0xe7, 0xbd, 0x36, 0x52, 0xf5, 0x3c,
  0xa5, 0x42, 0x64, 0x3d, 0xd9, 0x7f, 0x58, 0x3e, 0x9a, 0x16, 0xa1, 0x3e,
  0x42, 0x46, 0x5e, 0xbd, 0xfd, 0x74, 0x93, 0xbe, 0xe6, 0x75, 0x64, 0x3d,
  0x61, 0xf7, 0xac, 0x3d, 0x16, 0x0e, 0x13, 0xbe, 0xf2, 0x5d, 0xd4, 0xbd,
  0x83, 0xbf, 0xb9, 0x3e, 0x3e, 0xaf, 0x93, 0xbd, 0xc3, 0x53, 0x58, 0x3d,
  0xda, 0x69, 0xc9, 0xbd, 0x7b, 0x2c, 0xba, 0xbd, 0xaa, 0x10, 0x14, 0xbe,
  0xf7, 0x5f, 0xd0, 0xbd, 0xd6, 0xe0, 0xb6, 0x3e, 0xd0, 0xb2, 0x66, 0x3e,
  0xa7, 0x2f, 0x39, 0x3d, 0xda, 0xe1, 0x82, 0xbd, 0x4c, 0x43, 0x97, 0xbe,
  0xbe, 0x8c, 0x84, 0xbd, 0x99, 0x93, 0x0c, 0xbe, 0xbf, 0x53, 0x21, 0xbe,
  0x02, 0x01, 0x4e, 0x3e, 0x3f, 0x89, 0xf3, 0x3e, 0x08, 0xac, 0x08, 0xbe,
  0x48, 0x8b, 0xc6, 0xbd, 0xf9, 0x7d, 0xce, 0xbd, 0xce, 0xc4, 0x20, 0x3e,
  0xd9, 0xe5, 0xee, 0xbd, 0x5a, 0x06, 0x04, 0x3d, 0x25, 0xa8, 0x35, 0x3e,
  0xec, 0xed, 0x49, 0x3e, 0xd3, 0xee, 0x83, 0x3e, 0x9d, 0xdc, 0x74, 0xbe,
  0xfc, 0x1e, 0xe2, 0xbe, 0x6c, 0xb6, 0xe3, 0x3d, 0xe1, 0x99, 0x5d, 0xbe,
  0xd9, 0x08, 0xb2, 0xbe, 0xe7, 0x83, 0xb1, 0x3e, 0x0d, 0x7c, 0x54, 0x3e,
  0x2b, 0xd6, 0x55, 0xbe, 0xc3, 0x77, 0x3b, 0xbd, 0x11, 0xf2, 0x8d, 0xbe,
  0x8d, 0xa2, 0x8a, 0x3e, 0xb0, 0x65, 0xeb, 0x3d, 0xe7, 0x25, 0xbd, 0x3e,
  0xfb, 0x06, 0x06, 0x3f, 0x6b, 0xd6, 0x28, 0xbc, 0x23, 0x1d, 0xca, 0xbc,
  0x27, 0x7b, 0x84, 0xbe, 0xc6, 0x42, 0x36, 0xbe, 0xaa, 0x77, 0x03, 0x3e,
  0xf5, 0x92, 0x6b, 0x3d, 0xdb, 0x48, 0x98, 0x3e, 0x49, 0x7d, 0x6f, 0xbb,
  0x93, 0x91, 0x30, 0x3d, 0x24, 0xb2, 0xa4, 0x3d, 0x1d, 0xa4, 0x3a, 0xbe,
  0x91, 0x04, 0xb2, 0x3d, 0x3d, 0x83, 0x21, 0xbe, 0x9c, 0x75, 0x07, 0x3d,
  0xe4, 0x25, 0x85, 0xbd, 0x1f, 0xda, 0x5d, 0xbd, 0x95, 0x90, 0x1e, 0xbe,
  0x00, 0x32, 0x92, 0xbe, 0x92, 0x3e, 0x6a, 0xbe, 0x29, 0x42, 0x37, 0x3e,
  0xd6, 0xb9, 0x26, 0xbd, 0x44, 0x53, 0x14, 0xbe, 0xfc, 0xe1, 0xfe, 0x3d,
  0xac, 0xe5, 0x34, 0xba, 0x84, 0xdf, 0x5d, 0x3d, 0xc7, 0xb4, 0xc1, 0x3c,
  0xc9, 0xb8, 0x75, 0xbe, 0x77, 0xc7, 0x93, 0x3d, 0x6d, 0xa7, 0xe1, 0xbd,
  0x81, 0xf0, 0x7c, 0xbe, 0xb5, 0x28, 0x96, 0xbd, 0xb8, 0x9a, 0x49, 0xbe,
  0x02, 0xcc, 0x1f, 0xbe, 0xf2, 0x19, 0x1e, 0xbe, 0x31, 0x96, 0x5c, 0xbe,
  0x52, 0x57, 0x0b, 0xbe, 0xeb, 0x65, 0xf7, 0x3d, 0x32, 0x2b, 0x80, 0x3c,
  0x71, 0x80, 0x10, 0x3e, 0x5e, 0x27, 0x08, 0xbc, 0x82, 0xc3, 0xd3, 0x3c,
  0x93, 0xa7, 0x03, 0x3e, 0x4a, 0xc9, 0x54, 0xbe, 0xa8, 0xd4, 0x64, 0x3c,
  0xc8, 0x9a, 0x03, 0xbe, 0xcf, 0xdc, 0x20, 0x3e, 0x23, 0x91, 0xa6, 0xbc,
  0x02, 0x2d, 0x83, 0xbe, 0x33, 0x53, 0x26, 0x3e, 0x80, 0x2b, 0xa3, 0xbb,
  0x72, 0xb5, 0x45, 0xbe, 0xff, 0xc8, 0x7d, 0xbe, 0xec, 0x12, 0x54, 0x3c,
  0xe9, 0x5c, 0x69, 0xbe, 0xa4, 0xfc, 0x1e, 0x3e, 0xe8, 0x72, 0x74, 0x3d,
  0x98, 0x2a, 0xac, 0x3d, 0x27, 0x77, 0xd3, 0xbc, 0x0a, 0x8a, 0x20, 0xbe,
  0x94, 0x55, 0x8f, 0xbd, 0xc5, 0xae, 0x47, 0xbe, 0xc2, 0x65, 0x81, 0xbe,
  0xc9, 0xf1, 0x59, 0x3d, 0x82, 0xf4, 0x32, 0xbe, 0x6a, 0x69, 0x3a, 0x3e,
  0x14, 0x41, 0x55, 0xbe, 0xe0, 0xd1, 0x8e, 0xbd, 0x59, 0xa9, 0xd8, 0xbd,
  0x1b, 0x3e, 0x86, 0x3c, 0x72, 0xdb, 0xf8, 0x3d, 0x45, 0xb9, 0xe9, 0x3a,
  0x2e, 0x48, 0x15, 0x3e, 0x25, 0xbd, 0x0b, 0xbe, 0x9e, 0xbf, 0xff, 0xbd,
  0x61, 0xe1, 0x36, 0xbe, 0x0f, 0xbd, 0xb0, 0x3c, 0xb9, 0xc6, 0xdf, 0xbd,
  0x94, 0x46, 0x86, 0xbd, 0x3a, 0xc5, 0x15, 0xbe, 0x77, 0x82, 0x11, 0x3e,
  0xaa, 0x54, 0x91, 0x3e, 0x41, 0x84, 0x83, 0xbd, 0xe9, 0xbd, 0x97, 0x3b,
  0x0b, 0x23, 0x81, 0xbe, 0x66, 0xbc, 0x5c, 0xbe, 0x8c, 0x0b, 0xea, 0x3c,
  0x58, 0x9a, 0xb8, 0xbd, 0x37, 0x43, 0x1d, 0xbe, 0xb8, 0xd3, 0x66, 0x3e,
  0xd5, 0xc5, 0x33, 0xbe, 0xb6, 0x8a, 0xdc, 0xbd, 0xfa, 0x94, 0x1e, 0x3e,
  0x87, 0x52, 0x71, 0x3e, 0x37, 0x6d, 0xc4, 0x3d, 0x4c, 0x47, 0xa5, 0x3c,
  0xb8, 0xb3, 0x16, 0xbe, 0xb0, 0x97, 0x6f, 0x3c, 0xf8, 0x04, 0x27, 0xbe,
  0xce, 0x9e, 0x5d, 0xbe, 0x65, 0xfa, 0x9f, 0xbd, 0x12, 0x02, 0x89, 0xbd,
  0x97, 0x6a, 0x2e, 0xbe, 0x93, 0x3e, 0x9b, 0xbe, 0xdb, 0x9b, 0x21, 0x3e,
  0xc9, 0xfd, 0xb8, 0xbd, 0x41, 0x14, 0x07, 0xbe, 0xf3, 0x00, 0x0e, 0xbc,
  0x2c, 0xd5, 0x38, 0xbe, 0x30, 0x58, 0x1c, 0xbe, 0x8f, 0x1d, 0x97, 0xbe,
  0xb7, 0xb1, 0x03, 0xbe, 0x57, 0x73, 0xda, 0x3d, 0x4b, 0x6e, 0x7c, 0xbe,
  0xef, 0xd8, 0x55, 0xbe, 0x2a, 0x30, 0x15, 0xbe, 0x2d, 0xa7, 0xab, 0xbd,
  0x62, 0xed, 0x13, 0x3e, 0xb2, 0x87, 0x0a, 0xbd, 0xe0, 0x27, 0x1c, 0xbe,
  0xbc, 0xc2, 0x6a, 0x3c, 0x1d, 0x88, 0xb0, 0xbd, 0x6a, 0x61, 0x8d, 0x3d,
  0x6b, 0xf2, 0x1e, 0xbe, 0x75, 0xc1, 0x25, 0xbe, 0x63, 0xcf, 0x57, 0x3d,
  0xdb, 0xd9, 0x7b, 0xbe, 0x87, 0xab, 0x57, 0xbe, 0xd4, 0x7d, 0xc5, 0xbd,
  0xfc, 0xbe, 0x49, 0x3d, 0x04, 0x14, 0xcd, 0xbd, 0xf6, 0x2c, 0x64, 0x3b,
  0x7d, 0x56, 0x7a, 0xbe, 0xa3, 0x31, 0x13, 0x3d, 0x3a, 0x44, 0xa9, 0xbd,
  0x51, 0xd1, 0xbd, 0xbd, 0xb2, 0x9b, 0xba, 0xbc, 0x35, 0xe1, 0x90, 0xbe,
  0x4d, 0x17, 0x75, 0x3c, 0xf0, 0x76, 0x5b, 0xbe, 0xe6, 0x52, 0x46, 0xbd,
  0xea, 0x04, 0x98, 0xbe, 0x5e, 0xca, 0x6f, 0x3d, 0xd6, 0xb0, 0x06, 0xbe,
  0x6c, 0x10, 0x12, 0x3e, 0xaa, 0x0f, 0x6f, 0x3d, 0xbc, 0xdf, 0xb1, 0x3b,
  0xe3, 0x51, 0x08, 0xbe, 0x02, 0x5b, 0x46, 0x3d, 0x84, 0x49, 0x9a, 0x3d,
  0x74, 0x28, 0x6f, 0x3d, 0x90, 0x2a, 0x64, 0xbd, 0x64, 0x15, 0x91, 0xbe,
  0xf9, 0xa7, 0x9c, 0xbd, 0x62, 0xa1, 0x41, 0xbe, 0xb7, 0xb8, 0x7b, 0xbd,
  0xe0, 0x4f, 0xea, 0xbb, 0xd7, 0x45, 0xfe, 0xbd, 0x4f, 0x81, 0x4f, 0xbe,
  0xaf, 0xe7, 0xb5, 0xbd, 0x50, 0x0f, 0x77, 0xbe, 0x5f, 0x21, 0xf8, 0x3d,
  0xc2, 0xcc, 0xdb, 0x3d, 0x75, 0xef, 0x67, 0xbe, 0x10, 0x5b, 0xb6, 0xbd,
  0x34, 0x09, 0xd9, 0xbd, 0x59, 0xf3, 0x1f, 0x3b, 0x48, 0x18, 0x28, 0x3e,
  0xdc, 0x90, 0x62, 0xbd, 0x80, 0xf2, 0x3d, 0xbd, 0xb7, 0x33, 0x38, 0x3b,
  0x3c, 0xa8, 0x9c, 0xbd, 0xe8, 0xea, 0x30, 0xbe, 0x3c, 0x5d, 0xc7, 0xbd,
  0x95, 0xf9, 0x11, 0xbe, 0x36, 0x90, 0x73, 0x3d, 0x9b, 0xe6, 0xc8, 0xbd,
  0xff, 0xa8, 0xd8, 0xbd, 0xfd, 0x96, 0xfa, 0xbd, 0x8c, 0x7b, 0x82, 0xbe,
  0x96, 0x12, 0x0f, 0x3d, 0x12, 0x52, 0xad, 0xbd, 0x29, 0x0a, 0xa2, 0x3d,
  0xf8, 0x62, 0x21, 0x3e, 0x84, 0x45, 0x9e, 0x3d, 0x62, 0x4b, 0x52, 0xbd,
  0xaa, 0xca, 0x4f, 0x3c, 0x84, 0x1e, 0x3b, 0xbe, 0x5d, 0x77, 0x23, 0x3c,
  0x5b, 0x0b, 0x32, 0xbe, 0x30, 0x25, 0xfd, 0xbd, 0x0e, 0xd8, 0x4d, 0xbe,
  0xbe, 0xb1, 0x29, 0x3d, 0x0a, 0xbc, 0xd2, 0xbd, 0x9d, 0x03, 0x08, 0x3d,
  0xa4, 0x25, 0x54, 0xbe, 0x32, 0x63, 0x09, 0x3d, 0xa5, 0x1f, 0xef, 0xbd,
  0xc4, 0xa0, 0xba, 0xbc, 0x9b, 0x4b, 0xd9, 0x3c, 0xf8, 0xdc, 0x96, 0xbe,
  0xbc, 0x46, 0x3b, 0xbd, 0xce, 0x60, 0x02, 0xbe, 0x20, 0x2c, 0x0c, 0xbe,
  0xf0, 0xf6, 0x91, 0xbd, 0xe0, 0xd8, 0x89, 0x3d, 0xad, 0x10, 0x89, 0x3d,
  0xe5, 0x81, 0xa5, 0xbd, 0x75, 0x09, 0x35, 0xbe, 0xe6, 0x1b, 0x79, 0x3c,
  0x1d, 0x7c, 0x5f, 0xbd, 0x43, 0x3e, 0x41, 0x3d, 0x6a, 0x1b, 0x0e, 0xbe,
  0xef, 0x11, 0x41, 0xbe, 0x1a, 0x98, 0x32, 0xbe, 0x2f, 0xfa, 0x32, 0xbe,
  0x01, 0x8e, 0xcf, 0xbb, 0xf8, 0x44, 0x3e, 0xbd, 0xaa, 0x2d, 0x2c, 0xbe,
  0xc1, 0xa2, 0x3f, 0xbe, 0x55, 0xc3, 0x6d, 0x3d, 0x09, 0x93, 0x14, 0xbe,
  0x96, 0x8a, 0x89, 0xbe, 0xa1, 0xcd, 0x03, 0xbd, 0x63, 0x37, 0x58, 0x3d,
  0xe1, 0x6f, 0xf2, 0x3d, 0x30, 0x36, 0x1f, 0x3e, 0x57, 0x3b, 0xce, 0xbc,
  0x3c, 0xab, 0x6a, 0xbe, 0x2e, 0xd4, 0x1e, 0x3e, 0x0f, 0x0c, 0x23, 0xbd,
  0xfe, 0x42, 0x87, 0xbe, 0xc5, 0x42, 0x84, 0x3e, 0x56, 0x81, 0x83, 0x3d,
  0x69, 0x0e, 0xb8, 0xbd, 0xa4, 0x6d, 0xfd, 0xbd, 0x70, 0x0c, 0xa1, 0xbe,
  0x67, 0x81, 0x50, 0x3e, 0xeb, 0x4c, 0xf4, 0xbc, 0x09, 0xc0, 0x42, 0x3e,
  0xfa, 0xd3, 0x52, 0x3e, 0xad, 0x86, 0x1e, 0x3e, 0x1b, 0x1d, 0x6d, 0x3e,
  0xa9, 0xbf, 0xd1, 0xbd, 0x1e, 0xe1, 0x0c, 0xbd, 0x49, 0xd3, 0x58, 0xbe,
  0x82, 0xac, 0x8a, 0xbe, 0x4e, 0x9d, 0x5a, 0xbe, 0x13, 0x26, 0x6c, 0x3d,
  0xa4, 0x16, 0x34, 0xbc, 0xf3, 0x98, 0x3c, 0xbe, 0x69, 0xbc, 0xc6, 0x3d,
  0xa2, 0x45, 0xaf, 0xbe, 0xac, 0x8e, 0xf1, 0xbd, 0x10, 0xd9, 0xa6, 0x3d,
  0xe2, 0x96, 0x26, 0xba, 0x7f, 0x92, 0x3d, 0x3d, 0x98, 0x00, 0x45, 0xbd,
  0xfc, 0xca, 0x8c, 0x3d, 0x7e, 0xc9, 0x4a, 0xbd, 0xdf, 0xf0, 0x53, 0xbd,
  0x06, 0x23, 0xd4, 0xbc, 0xb0, 0xab, 0x85, 0xbc, 0x0b, 0xad, 0x29, 0xbe,
  0x0e, 0xae, 0x27, 0x3e, 0x01, 0x2d, 0x70, 0xbe, 0x52, 0x87, 0x81, 0xbe,
  0x5a, 0xcc, 0x25, 0x3e, 0x81, 0x20, 0x41, 0xbb, 0x13, 0x26, 0x9e, 0x3d,
  0x07, 0x60, 0x60, 0x3e, 0x8a, 0xf5, 0xaf, 0xbb, 0x86, 0x97, 0x99, 0x3e,
  0x9b, 0xdc, 0x95, 0x3d, 0x9f, 0xd2, 0x7b, 0x3e, 0x76, 0x82, 0xdc, 0xbc,
  0xbd, 0x05, 0xdf, 0x3d, 0x69, 0x28, 0xd3, 0x3d, 0x39, 0x96, 0x97, 0xbd,
  0xc9, 0xd5, 0xd5, 0xbd, 0x2c, 0x2e, 0xc7, 0x3d, 0xb7, 0x47, 0x28, 0xbe,
  0xee, 0x87, 0x13, 0x3e, 0x2b, 0xd3, 0x9a, 0x3e, 0x25, 0x26, 0xdf, 0xbd,
  0x57, 0x5a, 0xf4, 0x3d, 0x0c, 0x65, 0xc0, 0x3e, 0x16, 0x9a, 0x5f, 0x3e,
  0xbd, 0x5b, 0x6f, 0x3e, 0x6b, 0xf3, 0x03, 0xbe, 0x3c, 0xbe, 0x43, 0x3e,
  0x2a, 0xab, 0xd5, 0xbc, 0x5e, 0xaa, 0x15, 0x3e, 0x19, 0x42, 0xfb, 0xbd,
  0xb5, 0xf3, 0x24, 0xbd, 0xd5, 0x0d, 0xee, 0x3d, 0x24, 0x16, 0x92, 0xbd,
  0x22, 0xd5, 0x8f, 0xbe, 0x2f, 0xdb, 0x1c, 0xbd, 0x4b, 0x6e, 0x14, 0xbe,
  0xf0, 0x37, 0xc7, 0xbb, 0xd4, 0x78, 0x6f, 0xbe, 0xc1, 0x71, 0x83, 0x3e,
  0xe2, 0xf4, 0xc6, 0x3d, 0xac, 0x80, 0x9a, 0x3d, 0xd6, 0xb3, 0x0f, 0xbe,
  0x50, 0x8a, 0x9e, 0xbd, 0xbc, 0x2e, 0x1f, 0x3e, 0x80, 0xbc, 0x99, 0x3d,
  0x35, 0xfd, 0xc4, 0x3b, 0xcc, 0xc5, 0x5f, 0x3e, 0x15, 0xc2, 0x68, 0x3c,
  0xb1, 0x18, 0x17, 0xbe, 0x58, 0x32, 0x56, 0xbe, 0x73, 0x40, 0x3a, 0x3e,
  0x7d, 0xa0, 0x54, 0xbd, 0x0c, 0x47, 0x78, 0x3e, 0xf3, 0x18, 0x4c, 0x3d,
  0xd9, 0xd2, 0x69, 0x3e, 0xa9, 0x51, 0xc7, 0xbd, 0x4c, 0xe3, 0x80, 0x3d,
  0x6d, 0x06, 0x33, 0xbe, 0x2c, 0x7b, 0x91, 0xbe, 0x19, 0x29, 0x8c, 0x3e,
  0x2d, 0xb3, 0x9a, 0x3e, 0x3a, 0x64, 0x5f, 0x3d, 0xaf, 0x91, 0x64, 0x3e,
  0x00, 0x68, 0xa4, 0x3d, 0x46, 0x40, 0x0f, 0xbe, 0x3b, 0x52, 0x9c, 0xbd,
  0x85, 0x99, 0xee, 0x3c, 0x73, 0xfd, 0xe1, 0xbd, 0xae, 0x19, 0xaa, 0x3d,
  0x23, 0xa1, 0x87, 0xbd, 0xa5, 0x75, 0x43, 0xbe, 0xb0, 0x35, 0x6b, 0xbe,
  0xa0, 0x5c, 0xb5, 0x3d, 0xd5, 0x82, 0x49, 0xbe, 0x70, 0xdd, 0x35, 0xbe,
  0x92, 0xcc, 0xff, 0x3d, 0xfc, 0xf5, 0xf3, 0x3e, 0x0c, 0xaf, 0xca, 0xbd,
  0xfb, 0x21, 0xca, 0x3d, 0x4a, 0xd1, 0x04, 0x3f, 0x67, 0x7c, 0x2e, 0xbe,
  0x63, 0xa1, 0xa1, 0x3d, 0x16, 0xea, 0xd2, 0x3d, 0x7c, 0xe5, 0x5a, 0xbe,
  0xe1, 0x7b, 0x08, 0x3e, 0xf6, 0x9e, 0x97, 0xbd, 0x6b, 0x4f, 0x77, 0x3d,
  0xda, 0x56, 0x23, 0xbe, 0x00, 0x9f, 0x58, 0x3d, 0xa2, 0xac, 0x48, 0xbe,
  0xd0, 0xd3, 0xc0, 0xb9, 0xfd, 0x97, 0x95, 0x3d, 0x3f, 0x47, 0x71, 0x3e,
  0x15, 0x52, 0x21, 0xbe, 0x13, 0xb9, 0x24, 0x3d, 0xe9, 0xd3, 0x49, 0x3e,
  0x74, 0xda, 0x0b, 0xbe, 0x22, 0xc0, 0x8c, 0x3e, 0x4f, 0x6a, 0x46, 0x3e,
  0x74, 0xb6, 0x1c, 0xbe, 0xad, 0x99, 0x82, 0x3e, 0x47, 0xea, 0x64, 0xbe,
  0x17, 0x34, 0xf5, 0x3b, 0x85, 0x8c, 0xf9, 0xbd, 0xf5, 0x36, 0x59, 0xbc,
  0xa4, 0x24, 0x12, 0xbe, 0x4a, 0x13, 0xcc, 0xbe, 0x90, 0xd7, 0x0a, 0x3e,
  0xad, 0x5f, 0xbb, 0x3e, 0xf9, 0xf0, 0x83, 0x3d, 0x83, 0x2f, 0xc2, 0x3d,
  0xbb, 0x0b, 0x5d, 0x3e, 0x26, 0x64, 0xfb, 0xbc, 0x95, 0x0e, 0xf7, 0x3d,
  0x82, 0x5d, 0x32, 0x3e, 0x70, 0x66, 0xc6, 0xbd, 0x4c, 0x11, 0x55, 0xbd,
  0x57, 0xa4, 0x31, 0xbe, 0x46, 0xa9, 0x8a, 0xbd, 0xe6, 0x86, 0x0f, 0xbd,
  0xcd, 0x27, 0x93, 0x3d, 0x3b, 0x0f, 0x0c, 0xbe, 0xfe, 0xe7, 0xba, 0xbd,
  0x13, 0x43, 0x9c, 0x3d, 0xc8, 0xfb, 0x59, 0xbe, 0x19, 0x2a, 0x0b, 0xbd,
  0xb7, 0x28, 0x4f, 0x3e, 0x71, 0x67, 0xb4, 0xbd, 0x1d, 0x4d, 0xa9, 0xbe,
  0xa0, 0xb4, 0xc9, 0x3d, 0x56, 0xb1, 0x3b, 0x3d, 0xfc, 0x8b, 0xd2, 0xbd,
  0xc6, 0x3d, 0x67, 0xbd, 0xb5, 0x53, 0x0b, 0xbe, 0x97, 0x6e, 0x96, 0xbd,
  0xd3, 0x79, 0xbe, 0xbd, 0xcc, 0x42, 0xca, 0x3d, 0x28, 0x9a, 0x98, 0x3d,
  0x1f, 0x32, 0xda, 0xba, 0xf6, 0x41, 0xb1, 0xbd, 0xb4, 0x56, 0x24, 0xbe,
  0x0f, 0x74, 0xe6, 0x3c, 0xdd, 0x80, 0x26, 0xbe, 0x50, 0xbf, 0x96, 0xbd,
  0xd8, 0x43, 0x61, 0xbe, 0x3d, 0xcc, 0x96, 0x3e, 0xed, 0xba, 0x91, 0x3d,
  0x7c, 0xbf, 0xb1, 0xbd, 0x27, 0xf0, 0x00, 0xbe, 0x9e, 0x3f, 0x85, 0xbd,
  0xed, 0x0a, 0xf2, 0x3d, 0x71, 0x2c, 0xec, 0xba, 0x4d, 0x23, 0x88, 0x3e,
  0x3c, 0x82, 0x85, 0x3e, 0xde, 0x16, 0x0a, 0x3f, 0x8f, 0x49, 0xd9, 0xbd,
  0xcb, 0xf3, 0xdb, 0xbe, 0xc4, 0x31, 0x33, 0xbd, 0x09, 0xc2, 0x03, 0xbe,
  0xe6, 0xa9, 0x85, 0xbe, 0x7c, 0x2a, 0xc0, 0xbd, 0x3f, 0xee, 0x0f, 0x3e,
  0xbc, 0xed, 0x51, 0xbe, 0x39, 0x21, 0xf2, 0x3d, 0x43, 0x89, 0x29, 0xbe,
  0x59, 0x4d, 0x7b, 0x3e, 0x0d, 0x9f, 0xa1, 0x3d, 0xa3, 0x46, 0x66, 0x3e,
  0x49, 0x7b, 0x2d, 0x3e, 0xae, 0x18, 0x2b, 0x3e, 0xb1, 0xa1, 0xa0, 0x3e,
  0x9a, 0xf9, 0x84, 0xbe, 0x5e, 0x75, 0xe4, 0xbe, 0x63, 0xd3, 0x50, 0x3c,
  0xc2, 0x9b, 0x35, 0xbe, 0x73, 0x13, 0xec, 0xbe, 0xbd, 0xee, 0xb4, 0x3e,
  0xd9, 0x98, 0x1f, 0xbe, 0x63, 0xdf, 0x32, 0xbe, 0x4f, 0x5c, 0x7b, 0x3e,
  0xdd, 0x35, 0x5e, 0xbe, 0x8c, 0x9e, 0xb1, 0x3e, 0x24, 0x71, 0x3e, 0x3e,
  0x82, 0x0d, 0xef, 0x3c, 0x75, 0x87, 0xe5, 0x3e, 0x83, 0x30, 0x37, 0xbe,
  0xf8, 0x5f, 0x44, 0xbe, 0x26, 0x5a, 0x0d, 0x3e, 0xa2, 0xce, 0x8b, 0x3e,
  0x33, 0xc2, 0x13, 0x3b, 0xd0, 0xe8, 0x8b, 0x3e, 0x5b, 0xf1, 0x88, 0x3e,
  0x67, 0x6c, 0x87, 0xbe, 0xc7, 0x47, 0x4e, 0x3c, 0xa2, 0xa8, 0x8c, 0x3d,
  0xeb, 0xa4, 0x17, 0xbe, 0x4c, 0xd4, 0x1d, 0x3e, 0x41, 0xc3, 0x3e, 0xbe,
  0x29, 0xba, 0x18, 0x3e, 0x00, 0xbb, 0x1f, 0xbe, 0x76, 0xf6, 0x45, 0x3e,
  0xc5, 0x3b, 0xf0, 0xbd, 0xcb, 0x55, 0x42, 0xbc, 0x15, 0x50, 0x44, 0x3e,
  0x99, 0x5f, 0xab, 0x3e, 0x9f, 0x2e, 0xfd, 0xbd, 0xb3, 0x63, 0x52, 0x3b,
  0x13, 0x7b, 0x39, 0x3e, 0x5e, 0x36, 0xb5, 0xbc, 0x56, 0x19, 0xd4, 0x3d,
  0x2b, 0xee, 0x11, 0x3e, 0xda, 0xa6, 0xbc, 0xbd, 0xfc, 0x9f, 0x78, 0x3e,
  0x73, 0xa2, 0x65, 0xbd, 0x30, 0x31, 0xb6, 0x3e, 0xfc, 0xe1, 0x6a, 0xbe,
  0x14, 0x95, 0xdd, 0xbd, 0x81, 0xec, 0x69, 0xbe, 0x40, 0x76, 0x64, 0xbe,
  0x7f, 0x5d, 0x38, 0x3e, 0x0c, 0x23, 0xfb, 0x3c, 0xeb, 0x7e, 0x11, 0xbe,
  0xd2, 0x21, 0x93, 0x3e, 0xe7, 0x82, 0xd2, 0x3e, 0x9f, 0xa3, 0xb4, 0xbd,
  0x94, 0x34, 0x54, 0xbd, 0xdf, 0xeb, 0x38, 0xba, 0x04, 0xc2, 0x08, 0xbe,
  0x11, 0xcc, 0x4b, 0x3e, 0xe8, 0x24, 0xa9, 0xbe, 0x49, 0x77, 0x93, 0x3d,
  0x5c, 0x8c, 0x60, 0xbe, 0x32, 0xfb, 0x47, 0x3e, 0xd9, 0x13, 0x56, 0xbc,
  0x4b, 0xf2, 0x8e, 0xbe, 0x72, 0x2b, 0xea, 0x3d, 0x55, 0x0d, 0xdb, 0xbd,
  0xa7, 0x33, 0x0e, 0x3e, 0x08, 0xf6, 0x00, 0x3e, 0xa4, 0x31, 0x0c, 0x3e,
  0x10, 0x01, 0x43, 0xbe, 0x69, 0x92, 0x72, 0x3e, 0xd2, 0x44, 0x95, 0xbd,
  0x75, 0x0a, 0x9d, 0xbd, 0xdf, 0x2f, 0x09, 0xbe, 0xe8, 0x11, 0x23, 0xbd,
  0x33, 0x04, 0xa8, 0x3d, 0x5c, 0xa9, 0x57, 0xbd, 0x13, 0x68, 0x98, 0x3d,
  0x76, 0x16, 0x35, 0x3e, 0x57, 0xaa, 0x57, 0x3e, 0xaf, 0x41, 0xaf, 0xbb,
  0x3b, 0xdc, 0x36, 0xbd, 0x32, 0x0c, 0x98, 0x3e, 0x76, 0x25, 0x29, 0x3d,
  0x70, 0xc8, 0x9f, 0xbe, 0x85, 0xd7, 0x9b, 0x3c, 0x39, 0xc2, 0xc0, 0x3e,
  0x39, 0x74, 0x29, 0xbd, 0x7b, 0x25, 0x43, 0xbd, 0x72, 0xf7, 0x0d, 0xbe,
  0x8f, 0xb9, 0xd8, 0xbc, 0x67, 0x54, 0x8c, 0x3d, 0x10, 0x54, 0x66, 0x3e,
  0xb5, 0x3e, 0x02, 0x3e, 0x5c, 0x08, 0xe1, 0x3d, 0x0e, 0xfa, 0x6a, 0x3e,
  0x18, 0xc3, 0x98, 0xbd, 0x7b, 0x1a, 0xd4, 0xbe, 0xe2, 0x69, 0xa1, 0xbd,
  0xe5, 0xca, 0x22, 0xbe, 0x5a, 0x54, 0x6a, 0xbe, 0x56, 0xad, 0x4d, 0x3e,
  0x38, 0x6a, 0xc0, 0x3e, 0xd7, 0xb9, 0x34, 0xbe, 0xc8, 0xcf, 0x4c, 0x3e,
  0xf1, 0x2f, 0xc7, 0xbd, 0x0f, 0x3a, 0xae, 0x3e, 0xc3, 0x9e, 0x28, 0x3d,
  0x65, 0x4e, 0xa6, 0x3e, 0xbd, 0x38, 0x8f, 0x3e, 0xd4, 0xfe, 0x74, 0x3e,
  0x59, 0x7f, 0xce, 0x3e, 0x3d, 0x32, 0xe9, 0xbd, 0x6a, 0x27, 0xde, 0xbe,
  0x6b, 0xae, 0x01, 0xbe, 0xa3, 0x60, 0x27, 0xbe, 0x33, 0xb3, 0x01, 0xbf,
  0x3e, 0xfa, 0x7c, 0xbe, 0xf8, 0xf1, 0x99, 0xbc, 0xce, 0x13, 0xdf, 0xbd,
  0x09, 0x5f, 0x1c, 0x3e, 0xb0, 0xe2, 0xa1, 0xbe, 0xdf, 0xcd, 0xe0, 0x3d,
  0xae, 0xf5, 0x2e, 0x3d, 0x22, 0x37, 0xcb, 0x3e, 0x99, 0x4b, 0xa8, 0x3d,
  0x66, 0xfd, 0xff, 0xff, 0x10, 0x00, 0x00, 0x00, 0x07, 0x00, 0x00, 0x00,
  0x14, 0x00, 0x00, 0x00, 0x2c, 0x00, 0x00, 0x00, 0x02, 0x00, 0x00, 0x00,
  0x10, 0x00, 0x00, 0x00, 0x70, 0x00, 0x00, 0x00, 0x17, 0x00, 0x00, 0x00,
  0x73, 0x65, 0x71, 0x75, 0x65, 0x6e, 0x74, 0x69, 0x61, 0x6c, 0x2f, 0x64,
  0x65, 0x6e, 0x73, 0x65, 0x2f, 0x4d, 0x61, 0x74, 0x4d, 0x75, 0x6c, 0x00,
  0xd0, 0xfc, 0xff, 0xff, 0xda, 0xfd, 0xff, 0xff, 0x04, 0x00, 0x00, 0x00,
  0x08, 0x00, 0x00, 0x00, 0xff, 0xff, 0xff, 0xff, 0x70, 0x00, 0x00, 0x00,
  0x00, 0x00, 0x0e, 0x00, 0x18, 0x00, 0x08, 0x00, 0x07, 0x00, 0x0c, 0x00,
  0x10, 0x00, 0x14, 0x00, 0x0e, 0x00, 0x00, 0x00, 0x00, 0x00, 0x00, 0x02,
  0x10, 0x00, 0x00, 0x00, 0x06, 0x00, 0x00, 0x00, 0x10, 0x00, 0x00, 0x00,
  0x2c, 0x00, 0x00, 0x00, 0x01, 0x00, 0x00, 0x00, 0x02, 0x00, 0x00, 0x00,
  0x18, 0x00, 0x00, 0x00, 0x73, 0x65, 0x71, 0x75, 0x65, 0x6e, 0x74, 0x69,
  0x61, 0x6c, 0x2f, 0x66, 0x6c, 0x61, 0x74, 0x74, 0x65, 0x6e, 0x2f, 0x43,
  0x6f, 0x6e, 0x73, 0x74, 0x00, 0x00, 0x00, 0x00, 0x38, 0xfd, 0xff, 0xff,
  0x42, 0xfe, 0xff, 0xff, 0x04, 0x00, 0x00, 0x00, 0x0c, 0x00, 0x00, 0x00,
  0xd5, 0x92, 0x17, 0x3f, 0xf8, 0x64, 0x50, 0xbd, 0x28, 0x7b, 0x94, 0xc0,
  0x26, 0xfe, 0xff, 0xff, 0x10, 0x00, 0x00, 0x00, 0x05, 0x00, 0x00, 0x00,
  0x10, 0x00, 0x00, 0x00, 0x44, 0x00, 0x00, 0x00, 0x01, 0x00, 0x00, 0x00,
  0x03, 0x00, 0x00, 0x00, 0x32, 0x00, 0x00, 0x00, 0x73, 0x65, 0x71, 0x75,
  0x65, 0x6e, 0x74, 0x69, 0x61, 0x6c, 0x2f, 0x64, 0x65, 0x6e, 0x73, 0x65,
  0x5f, 0x31, 0x2f, 0x42, 0x69, 0x61, 0x73, 0x41, 0x64, 0x64, 0x2f, 0x52,
  0x65, 0x61, 0x64, 0x56, 0x61, 0x72, 0x69, 0x61, 0x62, 0x6c, 0x65, 0x4f,
  0x70, 0x2f, 0x72, 0x65, 0x73, 0x6f, 0x75, 0x72, 0x63, 0x65, 0x00, 0x00,
  0xa8, 0xfd, 0xff, 0xff, 0xb2, 0xfe, 0xff, 0xff, 0x04, 0x00, 0x00, 0x00,
  0x40, 0x00, 0x00, 0x00, 0x20, 0x59, 0xed, 0xbd, 0x1b, 0x98, 0x03, 0x3e,
  0x3b, 0x19, 0x25, 0xbe, 0x2f, 0x4c, 0x85, 0xbe, 0x7a, 0x50, 0x61, 0xbe,
  0xcf, 0xf5, 0xbb, 0xbd, 0x25, 0x90, 0xd3, 0xbd, 0xa0, 0x9e, 0x39, 0xbe,
  0x70, 0xd8, 0x28, 0x3c, 0xa0, 0x6a, 0xf4, 0xbd, 0xd7, 0x86, 0x7d, 0x3e,
  0x98, 0xc9, 0xad, 0xbe, 0x85, 0x97, 0x59, 0xbe, 0x53, 0xfd, 0x29, 0xbe,
  0xa6, 0x99, 0xf0, 0x3e, 0x15, 0x37, 0xcb, 0x3e, 0xca, 0xfe, 0xff, 0xff,
  0x10, 0x00, 0x00, 0x00, 0x04, 0x00, 0x00, 0x00, 0x10, 0x00, 0x00, 0x00,
  0x44, 0x00, 0x00, 0x00, 0x01, 0x00, 0x00, 0x00, 0x10, 0x00, 0x00, 0x00,
  0x30, 0x00, 0x00, 0x00, 0x73, 0x65, 0x71, 0x75, 0x65, 0x6e, 0x74, 0x69,
  0x61, 0x6c, 0x2f, 0x64, 0x65, 0x6e, 0x73, 0x65, 0x2f, 0x42, 0x69, 0x61,
  0x73, 0x41, 0x64, 0x64, 0x2f, 0x52, 0x65, 0x61, 0x64, 0x56, 0x61, 0x72,
  0x69, 0x61, 0x62, 0x6c, 0x65, 0x4f, 0x70, 0x2f, 0x72, 0x65, 0x73, 0x6f,
  0x75, 0x72, 0x63, 0x65, 0x00, 0x00, 0x00, 0x00, 0x4c, 0xfe, 0xff, 0xff,
  0x56, 0xff, 0xff, 0xff, 0x04, 0x00, 0x00, 0x00, 0x40, 0x00, 0x00, 0x00,
  0xaf, 0x5b, 0x7d, 0xbf, 0x5f, 0xfe, 0x0c, 0xbf, 0x04, 0x71, 0xe3, 0x3e,
  0xa6, 0x95, 0xfd, 0xbd, 0x59, 0xf4, 0x9e, 0xbe, 0xac, 0x5d, 0xf1, 0x3d,
  0x75, 0x16, 0x05, 0xbe, 0x89, 0xca, 0x77, 0xbf, 0xe6, 0x86, 0x1c, 0x3d,
  0xdc, 0xf3, 0xc5, 0xbd, 0xbd, 0xe3, 0x9a, 0xbf, 0x09, 0x0b, 0xa2, 0x3d,
  0x93, 0x2a, 0x57, 0xbf, 0x8f, 0xe3, 0x22, 0xbd, 0x15, 0xfd, 0xa1, 0xbf,
  0x1f, 0x82, 0x9b, 0xbe, 0x6e, 0xff, 0xff, 0xff, 0x10, 0x00, 0x00, 0x00,
  0x03, 0x00, 0x00, 0x00, 0x10, 0x00, 0x00, 0x00, 0x48, 0x00, 0x00, 0x00,
  0x01, 0x00, 0x00, 0x00, 0x10, 0x00, 0x00, 0x00, 0x33, 0x00, 0x00, 0x00,
  0x73, 0x65, 0x71, 0x75, 0x65, 0x6e, 0x74, 0x69, 0x61, 0x6c, 0x2f, 0x63,
  0x6f, 0x6e, 0x76, 0x32, 0x64, 0x5f, 0x31, 0x2f, 0x42, 0x69, 0x61, 0x73,
  0x41, 0x64, 0x64, 0x2f, 0x52, 0x65, 0x61, 0x64, 0x56, 0x61, 0x72, 0x69,
  0x61, 0x62, 0x6c, 0x65, 0x4f, 0x70, 0x2f, 0x72, 0x65, 0x73, 0x6f, 0x75,
  0x72, 0x63, 0x65, 0x00, 0x04, 0x00, 0x06, 0x00, 0x04, 0x00, 0x00, 0x00,
  0x00, 0x00, 0x06, 0x00, 0x08, 0x00, 0x04, 0x00, 0x06, 0x00, 0x00, 0x00,
  0x04, 0x00, 0x00, 0x00, 0x20, 0x00, 0x00, 0x00, 0xce, 0xcd, 0x07, 0xbf,
  0xb1, 0x26, 0xcd, 0xbd, 0xb8, 0x94, 0x00, 0x3c, 0xf1, 0x95, 0x78, 0xbf,
  0xe9, 0x5d, 0x95, 0x3b, 0x0d, 0x9d, 0x46, 0xbf, 0xdb, 0x66, 0xf1, 0xbe,
  0xc4, 0xde, 0x38, 0xbd, 0x00, 0x00, 0x0e, 0x00, 0x14, 0x00, 0x04, 0x00,
  0x00, 0x00, 0x08, 0x00, 0x0c, 0x00, 0x10, 0x00, 0x0e, 0x00, 0x00, 0x00,
  0x10, 0x00, 0x00, 0x00, 0x02, 0x00, 0x00, 0x00, 0x10, 0x00, 0x00, 0x00,
  0x44, 0x00, 0x00, 0x00, 0x01, 0x00, 0x00, 0x00, 0x08, 0x00, 0x00, 0x00,
  0x31, 0x00, 0x00, 0x00, 0x73, 0x65, 0x71, 0x75, 0x65, 0x6e, 0x74, 0x69,
  0x61, 0x6c, 0x2f, 0x63, 0x6f, 0x6e, 0x76, 0x32, 0x64, 0x2f, 0x42, 0x69,
  0x61, 0x73, 0x41, 0x64, 0x64, 0x2f, 0x52, 0x65, 0x61, 0x64, 0x56, 0x61,
  0x72, 0x69, 0x61, 0x62, 0x6c, 0x65, 0x4f, 0x70, 0x2f, 0x72, 0x65, 0x73,
  0x6f, 0x75, 0x72, 0x63, 0x65, 0x00, 0x00, 0x00, 0x90, 0xff, 0xff, 0xff,
  0x14, 0x00, 0x18, 0x00, 0x04, 0x00, 0x00, 0x00, 0x08, 0x00, 0x0c, 0x00,
  0x10, 0x00, 0x00, 0x00, 0x00, 0x00, 0x14, 0x00, 0x14, 0x00, 0x00, 0x00,
  0x14, 0x00, 0x00, 0x00, 0x01, 0x00, 0x00, 0x00, 0x20, 0x00, 0x00, 0x00,
  0x44, 0x00, 0x00, 0x00, 0x2c, 0x00, 0x00, 0x00, 0x04, 0x00, 0x00, 0x00,
  0x01, 0x00, 0x00, 0x00, 0x40, 0x00, 0x00, 0x00, 0x03, 0x00, 0x00, 0x00,
  0x01, 0x00, 0x00, 0x00, 0x0c, 0x00, 0x00, 0x00, 0x63, 0x6f, 0x6e, 0x76,
  0x32, 0x64, 0x5f, 0x69, 0x6e, 0x70, 0x75, 0x74, 0x00, 0x00, 0x00, 0x00,
  0x04, 0x00, 0x00, 0x00, 0xff, 0xff, 0xff, 0xff, 0x40, 0x00, 0x00, 0x00,
  0x03, 0x00, 0x00, 0x00, 0x01, 0x00, 0x00, 0x00, 0xfc, 0xff, 0xff, 0xff,
  0x04, 0x00, 0x04, 0x00, 0x04, 0x00, 0x00, 0x00




};


unsigned int model_tflite_len = 13052;// Fill the int in `src/model.cc` here
