#include "magic_wand_model_data.h"


// We need to keep the data array aligned on some architectures.

#ifdef __has_attribute

#define HAVE_ATTRIBUTE(x) __has_attribute(x)

#else

#define HAVE_ATTRIBUTE(x) 0

#endif

#if HAVE_ATTRIBUTE(aligned) || (defined(__GNUC__) && !defined(__clang__))

#define DATA_ALIGN_ATTRIBUTE __attribute__((aligned(4)))

#else

#define DATA_ALIGN_ATTRIBUTE

#endif


const unsigned char g_magic_wand_model_data[] DATA_ALIGN_ATTRIBUTE = {

  0x1c, 0x00, 0x00, 0x00, 0x54, 0x46, 0x4c, 0x33, 0x14, 0x00, 0x20, 0x00,
  0x04, 0x00, 0x08, 0x00, 0x0c, 0x00, 0x10, 0x00, 0x14, 0x00, 0x00, 0x00,
  0x18, 0x00, 0x1c, 0x00, 0x14, 0x00, 0x00, 0x00, 0x03, 0x00, 0x00, 0x00,
  0x18, 0x00, 0x00, 0x00, 0x2c, 0x00, 0x00, 0x00, 0xd8, 0x00, 0x00, 0x00,
  0x2c, 0x00, 0x00, 0x00, 0x80, 0x00, 0x00, 0x00, 0x78, 0x00, 0x00, 0x00,
  0x05, 0x00, 0x00, 0x00, 0x28, 0x07, 0x00, 0x00, 0x44, 0x06, 0x00, 0x00,
  0xbc, 0x03, 0x00, 0x00, 0xf8, 0x02, 0x00, 0x00, 0xac, 0x01, 0x00, 0x00,
  0x01, 0x00, 0x00, 0x00, 0xd0, 0x00, 0x00, 0x00, 0x14, 0x00, 0x00, 0x00,
  0x98, 0x32, 0x00, 0x00, 0x94, 0x32, 0x00, 0x00, 0x8c, 0x31, 0x00, 0x00,
  0xd8, 0x30, 0x00, 0x00, 0x30, 0x30, 0x00, 0x00, 0xbc, 0x2f, 0x00, 0x00,
  0x50, 0x2f, 0x00, 0x00, 0x00, 0x13, 0x00, 0x00, 0xec, 0x11, 0x00, 0x00,
  0x10, 0x10, 0x00, 0x00, 0xb4, 0x07, 0x00, 0x00, 0x6c, 0x32, 0x00, 0x00,
  0x68, 0x32, 0x00, 0x00, 0x64, 0x32, 0x00, 0x00, 0x60, 0x32, 0x00, 0x00,
  0x5c, 0x32, 0x00, 0x00, 0x58, 0x32, 0x00, 0x00, 0x54, 0x32, 0x00, 0x00,
  0x50, 0x32, 0x00, 0x00, 0x3c, 0x00, 0x00, 0x00, 0x00, 0x00, 0x00, 0x00,
  0x01, 0x00, 0x00, 0x00, 0x0c, 0x00, 0x00, 0x00, 0x08, 0x00, 0x0c, 0x00,
  0x04, 0x00, 0x08, 0x00, 0x08, 0x00, 0x00, 0x00, 0x08, 0x00, 0x00, 0x00,
  0x13, 0x00, 0x00, 0x00, 0x13, 0x00, 0x00, 0x00, 0x6d, 0x69, 0x6e, 0x5f,
  0x72, 0x75, 0x6e, 0x74, 0x69, 0x6d, 0x65, 0x5f, 0x76, 0x65, 0x72, 0x73,
  0x69, 0x6f, 0x6e, 0x00, 0xfa, 0xce, 0xff, 0xff, 0x04, 0x00, 0x00, 0x00,
  0x10, 0x00, 0x00, 0x00, 0x31, 0x2e, 0x35, 0x2e, 0x30, 0x00, 0x00, 0x00,
  0x00, 0x00, 0x00, 0x00, 0x00, 0x00, 0x00, 0x00, 0x0f, 0x00, 0x00, 0x00,
  0x4d, 0x4c, 0x49, 0x52, 0x20, 0x43, 0x6f, 0x6e, 0x76, 0x65, 0x72, 0x74,
  0x65, 0x64, 0x2e, 0x00, 0x00, 0x00, 0x0e, 0x00, 0x18, 0x00, 0x04, 0x00,
  0x08, 0x00, 0x0c, 0x00, 0x10, 0x00, 0x14, 0x00, 0x0e, 0x00, 0x00, 0x00,
  0x14, 0x00, 0x00, 0x00, 0x5c, 0x00, 0x00, 0x00, 0x60, 0x00, 0x00, 0x00,
  0x64, 0x00, 0x00, 0x00, 0x84, 0x00, 0x00, 0x00, 0x12, 0x00, 0x00, 0x00,
  0x58, 0x31, 0x00, 0x00, 0xe8, 0x30, 0x00, 0x00, 0x44, 0x30, 0x00, 0x00,
  0x9c, 0x2f, 0x00, 0x00, 0xf4, 0x2e, 0x00, 0x00, 0x94, 0x2e, 0x00, 0x00,
  0x2c, 0x2e, 0x00, 0x00, 0xd8, 0x11, 0x00, 0x00, 0xbc, 0x10, 0x00, 0x00,
  0xe0, 0x0e, 0x00, 0x00, 0x0c, 0x06, 0x00, 0x00, 0x28, 0x05, 0x00, 0x00,
  0xe8, 0x03, 0x00, 0x00, 0x3c, 0x03, 0x00, 0x00, 0x98, 0x02, 0x00, 0x00,
  0xd4, 0x01, 0x00, 0x00, 0x10, 0x01, 0x00, 0x00, 0x84, 0x00, 0x00, 0x00,
  0x01, 0x00, 0x00, 0x00, 0x00, 0x00, 0x00, 0x00, 0x01, 0x00, 0x00, 0x00,
  0x11, 0x00, 0x00, 0x00, 0x08, 0x00, 0x00, 0x00, 0x74, 0x05, 0x00, 0x00,
  0x94, 0x04, 0x00, 0x00, 0x78, 0x03, 0x00, 0x00, 0xbc, 0x02, 0x00, 0x00,
  0x30, 0x02, 0x00, 0x00, 0x50, 0x01, 0x00, 0x00, 0xa8, 0x00, 0x00, 0x00,
  0x10, 0x00, 0x00, 0x00, 0x04, 0x00, 0x00, 0x00, 0x6d, 0x61, 0x69, 0x6e,
  0x00, 0x00, 0x00, 0x00, 0x7a, 0xff, 0xff, 0xff, 0x00, 0x00, 0x00, 0x09,
  0x04, 0x00, 0x00, 0x00, 0x1c, 0x00, 0x00, 0x00, 0x10, 0x00, 0x00, 0x00,
  0x04, 0x00, 0x00, 0x00, 0xf6, 0xcf, 0xff, 0xff, 0x00, 0x00, 0x80, 0x3f,
  0x01, 0x00, 0x00, 0x00, 0x11, 0x00, 0x00, 0x00, 0x01, 0x00, 0x00, 0x00,
  0x10, 0x00, 0x00, 0x00, 0xa0, 0xfa, 0xff, 0xff, 0x19, 0x00, 0x00, 0x00,
  0x00, 0x00, 0x00, 0x19, 0x01, 0x00, 0x00, 0x00, 0x84, 0xcf, 0xff, 0xff,
  0x14, 0x00, 0x00, 0x00, 0x12, 0x00, 0x00, 0x00, 0x18, 0x00, 0x00, 0x00,
  0x30, 0x00, 0x00, 0x00, 0x20, 0x00, 0x00, 0x00, 0x02, 0x00, 0x00, 0x00,
  0x01, 0x00, 0x00, 0x00, 0x03, 0x00, 0x00, 0x00, 0x08, 0x00, 0x00, 0x00,
  0x49, 0x64, 0x65, 0x6e, 0x74, 0x69, 0x74, 0x79, 0x00, 0x00, 0x00, 0x00,
  0x02, 0x00, 0x00, 0x00, 0xff, 0xff, 0xff, 0xff, 0x03, 0x00, 0x00, 0x00,
  0x68, 0xd0, 0xff, 0xff, 0x00, 0x00, 0x0e, 0x00, 0x18, 0x00, 0x08, 0x00,
  0x0c, 0x00, 0x10, 0x00, 0x07, 0x00, 0x14, 0x00, 0x0e, 0x00, 0x00, 0x00,
  0x00, 0x00, 0x00, 0x08, 0x03, 0x00, 0x00, 0x00, 0x18, 0x00, 0x00, 0x00,
  0x0c, 0x00, 0x00, 0x00, 0x04, 0x00, 0x00, 0x00, 0x84, 0xcf, 0xff, 0xff,
  0x01, 0x00, 0x00, 0x00, 0x10, 0x00, 0x00, 0x00, 0x03, 0x00, 0x00, 0x00,
  0x0f, 0x00, 0x00, 0x00, 0x07, 0x00, 0x00, 0x00, 0x04, 0x00, 0x00, 0x00,
  0x0c, 0xd0, 0xff, 0xff, 0x14, 0x00, 0x00, 0x00, 0x11, 0x00, 0x00, 0x00,
  0x18, 0x00, 0x00, 0x00, 0x5c, 0x00, 0x00, 0x00, 0x4c, 0x00, 0x00, 0x00,
  0x02, 0x00, 0x00, 0x00, 0x01, 0x00, 0x00, 0x00, 0x03, 0x00, 0x00, 0x00,
  0x34, 0x00, 0x00, 0x00, 0x73, 0x65, 0x71, 0x75, 0x65, 0x6e, 0x74, 0x69,
  0x61, 0x6c, 0x2f, 0x64, 0x65, 0x6e, 0x73, 0x65, 0x5f, 0x31, 0x2f, 0x4d,
  0x61, 0x74, 0x4d, 0x75, 0x6c, 0x3b, 0x73, 0x65, 0x71, 0x75, 0x65, 0x6e,
  0x74, 0x69, 0x61, 0x6c, 0x2f, 0x64, 0x65, 0x6e, 0x73, 0x65, 0x5f, 0x31,
  0x2f, 0x42, 0x69, 0x61, 0x73, 0x41, 0x64, 0x64, 0x00, 0x00, 0x00, 0x00,
  0x02, 0x00, 0x00, 0x00, 0xff, 0xff, 0xff, 0xff, 0x03, 0x00, 0x00, 0x00,
  0x0c, 0xd0, 0xff, 0xff, 0xda, 0xfc, 0xff, 0xff, 0x00, 0x00, 0x00, 0x08,
  0x03, 0x00, 0x00, 0x00, 0x24, 0x00, 0x00, 0x00, 0x18, 0x00, 0x00, 0x00,
  0x0c, 0x00, 0x00, 0x00, 0x00, 0x00, 0x06, 0x00, 0x08, 0x00, 0x07, 0x00,
  0x06, 0x00, 0x00, 0x00, 0x00, 0x00, 0x00, 0x01, 0x01, 0x00, 0x00, 0x00,
  0x0f, 0x00, 0x00, 0x00, 0x03, 0x00, 0x00, 0x00, 0x0e, 0x00, 0x00, 0x00,
  0x06, 0x00, 0x00, 0x00, 0x03, 0x00, 0x00, 0x00, 0xe8, 0xfb, 0xff, 0xff,
  0x09, 0x00, 0x00, 0x00, 0x00, 0x00, 0x00, 0x09, 0x01, 0x00, 0x00, 0x00,
  0xcc, 0xd0, 0xff, 0xff, 0x14, 0x00, 0x00, 0x00, 0x10, 0x00, 0x00, 0x00,
  0x18, 0x00, 0x00, 0x00, 0x6c, 0x00, 0x00, 0x00, 0x5c, 0x00, 0x00, 0x00,
  0x02, 0x00, 0x00, 0x00, 0x01, 0x00, 0x00, 0x00, 0x10, 0x00, 0x00, 0x00,
  0x46, 0x00, 0x00, 0x00, 0x73, 0x65, 0x71, 0x75, 0x65, 0x6e, 0x74, 0x69,
  0x61, 0x6c, 0x2f, 0x64, 0x65, 0x6e, 0x73, 0x65, 0x2f, 0x4d, 0x61, 0x74,
  0x4d, 0x75, 0x6c, 0x3b, 0x73, 0x65, 0x71, 0x75, 0x65, 0x6e, 0x74, 0x69,
  0x61, 0x6c, 0x2f, 0x64, 0x65, 0x6e, 0x73, 0x65, 0x2f, 0x52, 0x65, 0x6c,
  0x75, 0x3b, 0x73, 0x65, 0x71, 0x75, 0x65, 0x6e, 0x74, 0x69, 0x61, 0x6c,
  0x2f, 0x64, 0x65, 0x6e, 0x73, 0x65, 0x2f, 0x42, 0x69, 0x61, 0x73, 0x41,
  0x64, 0x64, 0x00, 0x00, 0x02, 0x00, 0x00, 0x00, 0xff, 0xff, 0xff, 0xff,
  0x10, 0x00, 0x00, 0x00, 0xec, 0xd1, 0xff, 0xff, 0x00, 0x00, 0x0a, 0x00,
  0x10, 0x00, 0x04, 0x00, 0x08, 0x00, 0x0c, 0x00, 0x0a, 0x00, 0x00, 0x00,
  0x02, 0x00, 0x00, 0x00, 0x10, 0x00, 0x00, 0x00, 0x04, 0x00, 0x00, 0x00,
  0x01, 0x00, 0x00, 0x00, 0x0e, 0x00, 0x00, 0x00, 0x02, 0x00, 0x00, 0x00,
  0x0d, 0x00, 0x00, 0x00, 0x05, 0x00, 0x00, 0x00, 0xa8, 0xfc, 0xff, 0xff,
  0x16, 0x00, 0x00, 0x00, 0x00, 0x00, 0x00, 0x16, 0x01, 0x00, 0x00, 0x00,
  0x8c, 0xd1, 0xff, 0xff, 0x14, 0x00, 0x00, 0x00, 0x0f, 0x00, 0x00, 0x00,
  0x18, 0x00, 0x00, 0x00, 0x40, 0x00, 0x00, 0x00, 0x30, 0x00, 0x00, 0x00,
  0x02, 0x00, 0x00, 0x00, 0x01, 0x00, 0x00, 0x00, 0x70, 0x00, 0x00, 0x00,
  0x1a, 0x00, 0x00, 0x00, 0x73, 0x65, 0x71, 0x75, 0x65, 0x6e, 0x74, 0x69,
  0x61, 0x6c, 0x2f, 0x66, 0x6c, 0x61, 0x74, 0x74, 0x65, 0x6e, 0x2f, 0x52,
  0x65, 0x73, 0x68, 0x61, 0x70, 0x65, 0x00, 0x00, 0x02, 0x00, 0x00, 0x00,
  0xff, 0xff, 0xff, 0xff, 0x70, 0x00, 0x00, 0x00, 0x70, 0xd1, 0xff, 0xff,
  0x3e, 0xfe, 0xff, 0xff, 0x00, 0x00, 0x00, 0x05, 0x01, 0x00, 0x00, 0x00,
  0x38, 0x00, 0x00, 0x00, 0x2c, 0x00, 0x00, 0x00, 0x14, 0x00, 0x00, 0x00,
  0x00, 0x00, 0x0e, 0x00, 0x14, 0x00, 0x00, 0x00, 0x10, 0x00, 0x0c, 0x00,
  0x08, 0x00, 0x04, 0x00, 0x0e, 0x00, 0x00, 0x00, 0x03, 0x00, 0x00, 0x00,
  0x01, 0x00, 0x00, 0x00, 0x03, 0x00, 0x00, 0x00, 0x01, 0x00, 0x00, 0x00,
  0x01, 0x00, 0x00, 0x00, 0x0d, 0x00, 0x00, 0x00, 0x01, 0x00, 0x00, 0x00,
  0x0c, 0x00, 0x00, 0x00, 0x2c, 0xd2, 0xff, 0xff, 0x14, 0x00, 0x00, 0x00,
  0x0e, 0x00, 0x00, 0x00, 0x20, 0x00, 0x00, 0x00, 0x58, 0x00, 0x00, 0x00,
  0x40, 0x00, 0x00, 0x00, 0x04, 0x00, 0x00, 0x00, 0x01, 0x00, 0x00, 0x00,
  0x07, 0x00, 0x00, 0x00, 0x01, 0x00, 0x00, 0x00, 0x10, 0x00, 0x00, 0x00,
  0x22, 0x00, 0x00, 0x00, 0x73, 0x65, 0x71, 0x75, 0x65, 0x6e, 0x74, 0x69,
  0x61, 0x6c, 0x2f, 0x6d, 0x61, 0x78, 0x5f, 0x70, 0x6f, 0x6f, 0x6c, 0x69,
  0x6e, 0x67, 0x32, 0x64, 0x5f, 0x31, 0x2f, 0x4d, 0x61, 0x78, 0x50, 0x6f,
  0x6f, 0x6c, 0x00, 0x00, 0x04, 0x00, 0x00, 0x00, 0xff, 0xff, 0xff, 0xff,
  0x07, 0x00, 0x00, 0x00, 0x01, 0x00, 0x00, 0x00, 0x10, 0x00, 0x00, 0x00,
  0x28, 0xd2, 0xff, 0xff, 0x1a, 0xfe, 0xff, 0xff, 0x00, 0x00, 0x00, 0x01,
  0x24, 0x00, 0x00, 0x00, 0x18, 0x00, 0x00, 0x00, 0x04, 0x00, 0x00, 0x00,
  0x0c, 0xfe, 0xff, 0xff, 0x01, 0x00, 0x00, 0x00, 0x01, 0x00, 0x00, 0x00,
  0x00, 0x00, 0x00, 0x01, 0x01, 0x00, 0x00, 0x00, 0x0c, 0x00, 0x00, 0x00,
  0x03, 0x00, 0x00, 0x00, 0x0b, 0x00, 0x00, 0x00, 0x09, 0x00, 0x00, 0x00,
  0x02, 0x00, 0x00, 0x00, 0xd4, 0xd2, 0xff, 0xff, 0x14, 0x00, 0x00, 0x00,
  0x0d, 0x00, 0x00, 0x00, 0x20, 0x00, 0x00, 0x00, 0xb8, 0x00, 0x00, 0x00,
  0xa0, 0x00, 0x00, 0x00, 0x04, 0x00, 0x00, 0x00, 0x01, 0x00, 0x00, 0x00,
  0x15, 0x00, 0x00, 0x00, 0x01, 0x00, 0x00, 0x00, 0x10, 0x00, 0x00, 0x00,
  0x83, 0x00, 0x00, 0x00, 0x73, 0x65, 0x71, 0x75, 0x65, 0x6e, 0x74, 0x69,
  0x61, 0x6c, 0x2f, 0x63, 0x6f, 0x6e, 0x76, 0x32, 0x64, 0x5f, 0x31, 0x2f,
  0x52, 0x65, 0x6c, 0x75, 0x3b, 0x73, 0x65, 0x71, 0x75, 0x65, 0x6e, 0x74,
  0x69, 0x61, 0x6c, 0x2f, 0x63, 0x6f, 0x6e, 0x76, 0x32, 0x64, 0x5f, 0x31,
  0x2f, 0x42, 0x69, 0x61, 0x73, 0x41, 0x64, 0x64, 0x3b, 0x73, 0x65, 0x71,
  0x75, 0x65, 0x6e, 0x74, 0x69, 0x61, 0x6c, 0x2f, 0x63, 0x6f, 0x6e, 0x76,
  0x32, 0x64, 0x5f, 0x31, 0x2f, 0x43, 0x6f, 0x6e, 0x76, 0x32, 0x44, 0x3b,
  0x73, 0x65, 0x71, 0x75, 0x65, 0x6e, 0x74, 0x69, 0x61, 0x6c, 0x2f, 0x63,
  0x6f, 0x6e, 0x76, 0x32, 0x64, 0x5f, 0x31, 0x2f, 0x42, 0x69, 0x61, 0x73,
  0x41, 0x64, 0x64, 0x2f, 0x52, 0x65, 0x61, 0x64, 0x56, 0x61, 0x72, 0x69,
  0x61, 0x62, 0x6c, 0x65, 0x4f, 0x70, 0x2f, 0x72, 0x65, 0x73, 0x6f, 0x75,
  0x72, 0x63, 0x65, 0x00, 0x04, 0x00, 0x00, 0x00, 0xff, 0xff, 0xff, 0xff,
  0x15, 0x00, 0x00, 0x00, 0x01, 0x00, 0x00, 0x00, 0x10, 0x00, 0x00, 0x00,
  0x40, 0xd4, 0xff, 0xff, 0x00, 0x00, 0x0e, 0x00, 0x1a, 0x00, 0x08, 0x00,
  0x0c, 0x00, 0x10, 0x00, 0x07, 0x00, 0x14, 0x00, 0x0e, 0x00, 0x00, 0x00,
  0x00, 0x00, 0x00, 0x05, 0x01, 0x00, 0x00, 0x00, 0x3c, 0x00, 0x00, 0x00,
  0x30, 0x00, 0x00, 0x00, 0x14, 0x00, 0x00, 0x00, 0x00, 0x00, 0x0e, 0x00,
  0x18, 0x00, 0x17, 0x00, 0x10, 0x00, 0x0c, 0x00, 0x08, 0x00, 0x04, 0x00,
  0x0e, 0x00, 0x00, 0x00, 0x03, 0x00, 0x00, 0x00, 0x03, 0x00, 0x00, 0x00,
  0x03, 0x00, 0x00, 0x00, 0x03, 0x00, 0x00, 0x00, 0x00, 0x00, 0x00, 0x01,
  0x01, 0x00, 0x00, 0x00, 0x0b, 0x00, 0x00, 0x00, 0x01, 0x00, 0x00, 0x00,
  0x0a, 0x00, 0x00, 0x00, 0x2c, 0xff, 0xff, 0xff, 0x11, 0x00, 0x00, 0x00,
  0x00, 0x00, 0x00, 0x11, 0x01, 0x00, 0x00, 0x00, 0x10, 0xd4, 0xff, 0xff,
  0x14, 0x00, 0x00, 0x00, 0x0c, 0x00, 0x00, 0x00, 0x20, 0x00, 0x00, 0x00,
  0x58, 0x00, 0x00, 0x00, 0x40, 0x00, 0x00, 0x00, 0x04, 0x00, 0x00, 0x00,
  0x01, 0x00, 0x00, 0x00, 0x15, 0x00, 0x00, 0x00, 0x01, 0x00, 0x00, 0x00,
  0x08, 0x00, 0x00, 0x00, 0x20, 0x00, 0x00, 0x00, 0x73, 0x65, 0x71, 0x75,
  0x65, 0x6e, 0x74, 0x69, 0x61, 0x6c, 0x2f, 0x6d, 0x61, 0x78, 0x5f, 0x70,
  0x6f, 0x6f, 0x6c, 0x69, 0x6e, 0x67, 0x32, 0x64, 0x2f, 0x4d, 0x61, 0x78,
  0x50, 0x6f, 0x6f, 0x6c, 0x00, 0x00, 0x00, 0x00, 0x04, 0x00, 0x00, 0x00,
  0xff, 0xff, 0xff, 0xff, 0x15, 0x00, 0x00, 0x00, 0x01, 0x00, 0x00, 0x00,
  0x08, 0x00, 0x00, 0x00, 0x1c, 0xd5, 0xff, 0xff, 0x00, 0x00, 0x0e, 0x00,
  0x14, 0x00, 0x00, 0x00, 0x08, 0x00, 0x0c, 0x00, 0x07, 0x00, 0x10, 0x00,
  0x0e, 0x00, 0x00, 0x00, 0x00, 0x00, 0x00, 0x01, 0x30, 0x00, 0x00, 0x00,
  0x24, 0x00, 0x00, 0x00, 0x10, 0x00, 0x00, 0x00, 0x0c, 0x00, 0x10, 0x00,
  0x00, 0x00, 0x04, 0x00, 0x08, 0x00, 0x0f, 0x00, 0x0c, 0x00, 0x00, 0x00,
  0x01, 0x00, 0x00, 0x00, 0x01, 0x00, 0x00, 0x00, 0x00, 0x00, 0x00, 0x01,
  0x01, 0x00, 0x00, 0x00, 0x0a, 0x00, 0x00, 0x00, 0x03, 0x00, 0x00, 0x00,
  0x00, 0x00, 0x00, 0x00, 0x08, 0x00, 0x00, 0x00, 0x01, 0x00, 0x00, 0x00,
  0x0c, 0x00, 0x10, 0x00, 0x0b, 0x00, 0x00, 0x00, 0x0c, 0x00, 0x04, 0x00,
  0x0c, 0x00, 0x00, 0x00, 0x03, 0x00, 0x00, 0x00, 0x00, 0x00, 0x00, 0x03,
  0x01, 0x00, 0x00, 0x00, 0xf0, 0xd4, 0xff, 0xff, 0x14, 0x00, 0x00, 0x00,
  0x0b, 0x00, 0x00, 0x00, 0x20, 0x00, 0x00, 0x00, 0xb0, 0x00, 0x00, 0x00,
  0x98, 0x00, 0x00, 0x00, 0x04, 0x00, 0x00, 0x00, 0x01, 0x00, 0x00, 0x00,
  0x40, 0x00, 0x00, 0x00, 0x03, 0x00, 0x00, 0x00, 0x08, 0x00, 0x00, 0x00,
  0x7b, 0x00, 0x00, 0x00, 0x73, 0x65, 0x71, 0x75, 0x65, 0x6e, 0x74, 0x69,
  0x61, 0x6c, 0x2f, 0x63, 0x6f, 0x6e, 0x76, 0x32, 0x64, 0x2f, 0x52, 0x65,
  0x6c, 0x75, 0x3b, 0x73, 0x65, 0x71, 0x75, 0x65, 0x6e, 0x74, 0x69, 0x61,
  0x6c, 0x2f, 0x63, 0x6f, 0x6e, 0x76, 0x32, 0x64, 0x2f, 0x42, 0x69, 0x61,
  0x73, 0x41, 0x64, 0x64, 0x3b, 0x73, 0x65, 0x71, 0x75, 0x65, 0x6e, 0x74,
  0x69, 0x61, 0x6c, 0x2f, 0x63, 0x6f, 0x6e, 0x76, 0x32, 0x64, 0x2f, 0x43,
  0x6f, 0x6e, 0x76, 0x32, 0x44, 0x3b, 0x73, 0x65, 0x71, 0x75, 0x65, 0x6e,
  0x74, 0x69, 0x61, 0x6c, 0x2f, 0x63, 0x6f, 0x6e, 0x76, 0x32, 0x64, 0x2f,
  0x42, 0x69, 0x61, 0x73, 0x41, 0x64, 0x64, 0x2f, 0x52, 0x65, 0x61, 0x64,
  0x56, 0x61, 0x72, 0x69, 0x61, 0x62, 0x6c, 0x65, 0x4f, 0x70, 0x2f, 0x72,
  0x65, 0x73, 0x6f, 0x75, 0x72, 0x63, 0x65, 0x00, 0x04, 0x00, 0x00, 0x00,
  0xff, 0xff, 0xff, 0xff, 0x40, 0x00, 0x00, 0x00, 0x03, 0x00, 0x00, 0x00,
  0x08, 0x00, 0x00, 0x00, 0x44, 0xd5, 0xff, 0xff, 0x4e, 0xd6, 0xff, 0xff,
  0x04, 0x00, 0x00, 0x00, 0x00, 0x08, 0x00, 0x00, 0xb4, 0x12, 0x22, 0xbe,
  0x8f, 0xc0, 0x73, 0x3d, 0x3a, 0xdc, 0x5c, 0xbe, 0xb8, 0xd0, 0xa3, 0x3d,
  0xcb, 0x96, 0x42, 0x3d, 0x3c, 0xfa, 0x6c, 0xbe, 0x98, 0xd8, 0xab, 0x3e,
  0x5b, 0x6d, 0xf6, 0x3c, 0x7c, 0xf7, 0x44, 0x3e, 0xcf, 0x1c, 0x59, 0x3b,
  0x3d, 0xb1, 0xa7, 0xbe, 0x44, 0xef, 0x02, 0x3e, 0x88, 0xa6, 0x47, 0xbe,
  0x4e, 0xa7, 0x3a, 0xbe, 0xe3, 0x64, 0xf0, 0xbd, 0xd1, 0x9f, 0xe2, 0xbe,
  0x3a, 0x1a, 0xe5, 0xbd, 0xc9, 0xd0, 0x0b, 0xbe, 0xfd, 0xac, 0x82, 0xbe,
  0xc8, 0x06, 0x42, 0xbe, 0x84, 0xa7, 0x1b, 0xbe, 0xf9, 0xed, 0x50, 0x3e,
  0x5d, 0x53, 0x96, 0xbe, 0xf6, 0xc7, 0x00, 0x3e, 0x01, 0x89, 0x23, 0xbe,
  0x59, 0x37, 0x59, 0xbe, 0xf8, 0x7e, 0x4e, 0x3e, 0x15, 0xbc, 0xb9, 0xbe,
  0xed, 0xbd, 0x2f, 0x3e, 0x30, 0x09, 0x7e, 0xbd, 0x25, 0xc3, 0xb5, 0xbe,
  0x68, 0x9c, 0x1f, 0x3d, 0x91, 0x11, 0x88, 0xbc, 0xe0, 0x38, 0x50, 0x3e,
  0xcd, 0x01, 0x6b, 0x3e, 0xbd, 0xdd, 0xcf, 0x3e, 0xcb, 0x71, 0xe0, 0xbc,
  0x27, 0x13, 0x12, 0x3d, 0xae, 0x2a, 0x84, 0xbb, 0x1a, 0x9f, 0x85, 0xbd,
  0xc3, 0x11, 0x16, 0x3e, 0x27, 0xd1, 0xf7, 0x3c, 0xbc, 0xcb, 0x11, 0xbe,
  0x6a, 0x43, 0x86, 0x3e, 0x31, 0x90, 0x37, 0xbd, 0xe9, 0x44, 0x86, 0xbe,
  0x74, 0xb5, 0x28, 0x38, 0x39, 0x21, 0xb1, 0xbe, 0xb4, 0x79, 0x14, 0xbc,
  0xda, 0x23, 0x57, 0x3e, 0x9a, 0x69, 0xde, 0x3d, 0x1b, 0xc3, 0x3d, 0x3d,
  0xff, 0xaf, 0xe9, 0x3d, 0x3c, 0xe7, 0x46, 0xbe, 0x38, 0xcc, 0xbd, 0x3e,
  0x95, 0x72, 0xe3, 0xbe, 0x32, 0xd9, 0x09, 0x3d, 0x0e, 0xe0, 0x45, 0x3d,
  0xfe, 0x44, 0x61, 0x3e, 0x0a, 0x60, 0x0b, 0x3b, 0x31, 0x95, 0xfc, 0x3d,
  0x81, 0x96, 0x40, 0xbe, 0xf8, 0xc7, 0xa4, 0x3d, 0xc2, 0x21, 0xb3, 0xbe,
  0xf7, 0x24, 0x30, 0xbe, 0x09, 0xd4, 0x04, 0x3e, 0xa9, 0x06, 0x5e, 0xbe,
  0xc6, 0xb0, 0x1c, 0xbd, 0x1d, 0x67, 0x5f, 0x3e, 0x5a, 0xe9, 0xe9, 0x3d,
  0x87, 0x4d, 0xbb, 0xbd, 0x0b, 0x2f, 0x97, 0x3e, 0xed, 0x7f, 0xb5, 0xbd,
  0x64, 0xc6, 0xf9, 0xbc, 0xe0, 0x46, 0x9c, 0xbe, 0x3e, 0x66, 0x61, 0x3e,
  0x46, 0xa1, 0xe7, 0xbc, 0x95, 0x4b, 0x38, 0xbc, 0xb1, 0x3c, 0x17, 0xbe,
  0x38, 0xb5, 0x0e, 0x3e, 0xb0, 0xff, 0xde, 0x3a, 0x7d, 0x5c, 0xf0, 0xbd,
  0xb6, 0xda, 0xee, 0xbd, 0x02, 0xa6, 0x64, 0x3e, 0xea, 0x68, 0x68, 0x3e,
  0xe5, 0x0d, 0xaf, 0x3d, 0x4b, 0x5b, 0xac, 0xbb, 0xdf, 0x7e, 0xcb, 0xbc,
  0x93, 0x91, 0x55, 0xbe, 0x07, 0x66, 0x19, 0xbe, 0x05, 0xd9, 0x8e, 0xbe,
  0x8d, 0xbd, 0x21, 0xbe, 0x69, 0x3c, 0xcd, 0x3e, 0x78, 0xd5, 0x27, 0x3e,
  0x35, 0xa8, 0xda, 0x3b, 0x62, 0x44, 0xff, 0x3d, 0x62, 0x2a, 0xa6, 0xbc,
  0x32, 0xe0, 0x30, 0x3e, 0x23, 0x9c, 0x16, 0x3e, 0x74, 0xf2, 0xbe, 0x3e,
  0x87, 0x9d, 0x1f, 0xbe, 0x54, 0x32, 0xe3, 0x3b, 0xc7, 0xac, 0x21, 0x3d,
  0x7a, 0x03, 0x63, 0xbd, 0x19, 0x9f, 0xbd, 0x3d, 0x4b, 0xdf, 0xb1, 0xbd,
  0x0c, 0x69, 0xf2, 0x3d, 0x26, 0x77, 0x4a, 0x3e, 0x2c, 0x2f, 0x8b, 0xbd,
  0x01, 0x63, 0xb6, 0x3c, 0x38, 0x0d, 0x39, 0x3e, 0xdb, 0x5e, 0x4c, 0xbe,
  0x28, 0x81, 0xba, 0x3e, 0x60, 0xa0, 0xd3, 0x3e, 0x10, 0x4d, 0xdd, 0x3e,
  0xc5, 0xdf, 0x6a, 0x3e, 0x1f, 0x54, 0x23, 0xbe, 0xf4, 0x7b, 0xf1, 0xbc,
  0xec, 0xbd, 0x4e, 0x3e, 0x21, 0x5b, 0x9b, 0xbe, 0x95, 0xd9, 0x1f, 0x3e,
  0xf9, 0xa8, 0x7f, 0x3c, 0x51, 0xfb, 0x63, 0xbe, 0xe9, 0x1c, 0x19, 0xbe,
  0xd4, 0x51, 0xd3, 0xbd, 0x69, 0x44, 0x8a, 0x3d, 0x25, 0x36, 0xfa, 0x3c,
  0xe9, 0xe9, 0x70, 0xbe, 0xc1, 0x07, 0xa2, 0xbd, 0xa1, 0x45, 0x84, 0x3d,
  0xf1, 0x60, 0x29, 0xbe, 0x91, 0xfa, 0x66, 0xbe, 0x37, 0xaf, 0x53, 0x3e,
  0xa3, 0x54, 0x4b, 0xbd, 0x62, 0x42, 0x30, 0xbe, 0xf7, 0xc7, 0x07, 0x3e,
  0x03, 0x95, 0x1f, 0x3e, 0xf4, 0x62, 0x77, 0x3d, 0xc0, 0xec, 0x20, 0x3e,
  0x7c, 0xad, 0x91, 0x3e, 0x52, 0x80, 0xd3, 0x3e, 0x97, 0xea, 0xf5, 0x3d,
  0xb7, 0x08, 0x98, 0x3d, 0xb5, 0x91, 0xc5, 0xbc, 0xc1, 0x5d, 0xc5, 0xbd,
  0x5f, 0xb3, 0x79, 0xbe, 0xdf, 0xc4, 0xdf, 0xbe, 0x08, 0x22, 0x89, 0xbd,
  0xa5, 0x17, 0x68, 0x3e, 0x1a, 0xb5, 0x7f, 0xbe, 0xa2, 0xd7, 0x4d, 0xbe,
  0x5b, 0x65, 0x98, 0x3e, 0x27, 0x7c, 0xe7, 0xbc, 0xdd, 0x5a, 0x64, 0xbe,
  0x22, 0xdf, 0xdf, 0xbe, 0x3e, 0x1c, 0x81, 0xbd, 0xd7, 0x06, 0xe5, 0x3e,
  0x5b, 0x18, 0x17, 0x3e, 0x59, 0x70, 0x51, 0xbe, 0x9f, 0x15, 0x75, 0x3d,
  0x78, 0x23, 0xd8, 0x3d, 0x5e, 0xcc, 0xd0, 0xbd, 0xac, 0x66, 0x88, 0x3d,
  0x6a, 0xc2, 0x5d, 0x3e, 0x4f, 0xd2, 0xb8, 0x3e, 0xcf, 0x7c, 0x8a, 0x3c,
  0xdb, 0x36, 0x36, 0x3e, 0x0d, 0x75, 0xb9, 0x3c, 0xeb, 0x09, 0x93, 0xbc,
  0x88, 0xa0, 0x8e, 0x3e, 0xc2, 0xda, 0xbd, 0xbc, 0x4e, 0x8c, 0x35, 0x3d,
  0x0c, 0x7c, 0x19, 0xbe, 0x7d, 0x34, 0x48, 0xbe, 0x07, 0x48, 0x1b, 0xbe,
  0x60, 0x11, 0xbb, 0x3d, 0x7b, 0x9f, 0xb7, 0x3d, 0xa7, 0xde, 0xec, 0x3d,
  0x66, 0x0f, 0xf0, 0x3d, 0x05, 0x24, 0xa9, 0xbd, 0x50, 0x0f, 0xc9, 0x3e,
  0x01, 0xe5, 0xab, 0x3c, 0x2e, 0x38, 0x87, 0x3e, 0x48, 0x43, 0x52, 0x3e,
  0xae, 0x9c, 0x35, 0xbd, 0x90, 0xfa, 0x84, 0x3e, 0x9c, 0xa0, 0x34, 0xbe,
  0xec, 0x6e, 0xea, 0x3d, 0x26, 0x34, 0x1d, 0x3e, 0xfa, 0x7d, 0x2f, 0x3e,
  0x9d, 0xb3, 0x00, 0x3e, 0xce, 0x48, 0xb9, 0x3d, 0xfa, 0x53, 0x00, 0x3d,
  0xa1, 0x7c, 0x62, 0x3e, 0x80, 0x75, 0x6a, 0x3e, 0x44, 0x3f, 0x93, 0xbd,
  0xe8, 0xa3, 0x19, 0xbd, 0x6a, 0x7f, 0x8a, 0xbc, 0x33, 0x95, 0x8b, 0x3e,
  0x82, 0xe5, 0xaa, 0xbd, 0xa8, 0xf4, 0x75, 0x3c, 0x65, 0x44, 0x64, 0xbb,
  0x09, 0xe8, 0x4e, 0x3e, 0xcb, 0x7e, 0xc4, 0x3d, 0x83, 0x9d, 0x27, 0xbd,
  0x19, 0x85, 0x67, 0xbd, 0x41, 0x37, 0xfb, 0x3d, 0xca, 0x5e, 0xef, 0xbd,
  0xd3, 0x59, 0xc1, 0x3e, 0x44, 0x3e, 0xad, 0x3e, 0x83, 0x34, 0x66, 0x3c,
  0x29, 0x8e, 0x8a, 0x3e, 0x51, 0xda, 0x7a, 0xbc, 0xe0, 0xac, 0xf5, 0x3c,
  0xe2, 0xa6, 0xb2, 0x3c, 0x8f, 0xa8, 0xbb, 0xbe, 0xa5, 0x5f, 0x33, 0xbe,
  0x29, 0x31, 0xbd, 0xbd, 0x99, 0x02, 0x29, 0x3c, 0x47, 0xdd, 0xc6, 0x3d,
  0x8a, 0x99, 0x6c, 0xbe, 0x5e, 0xec, 0xb0, 0x3c, 0x6e, 0x4e, 0x15, 0x3e,
  0x6c, 0x74, 0x68, 0xbe, 0xc2, 0x33, 0x0e, 0x3d, 0x5a, 0xba, 0x3d, 0xbe,
  0xf5, 0xd0, 0xb1, 0xbe, 0x62, 0x77, 0x1f, 0xbe, 0xc2, 0xb2, 0xa0, 0xbd,
  0x8a, 0x5f, 0x47, 0xbe, 0xf2, 0xd7, 0x53, 0x3c, 0x01, 0x50, 0xc4, 0xbd,
  0x2d, 0xa9, 0x81, 0xbd, 0x91, 0x53, 0xc5, 0xbd, 0x42, 0xc2, 0x71, 0xbe,
  0x71, 0x86, 0xf8, 0xbd, 0x6a, 0x4c, 0x9f, 0x3e, 0xe3, 0x02, 0x08, 0x3e,
  0x5e, 0x40, 0x40, 0xbe, 0x45, 0x28, 0x87, 0x3e, 0xcd, 0xea, 0x30, 0x3e,
  0xaf, 0x15, 0x43, 0x3e, 0xfb, 0x20, 0x06, 0xbe, 0x1c, 0x80, 0x56, 0x3e,
  0xc8, 0xbc, 0xa6, 0x3e, 0xa4, 0xe6, 0x33, 0x3e, 0xed, 0x66, 0x46, 0xbe,
  0x1d, 0xa8, 0x68, 0xbe, 0xee, 0x58, 0x88, 0x3d, 0x26, 0x6c, 0x1c, 0x3e,
  0xae, 0x1a, 0x9f, 0xbe, 0x46, 0x25, 0x16, 0x3e, 0x87, 0x09, 0x89, 0x3e,
  0x56, 0x30, 0x1e, 0xbe, 0xfe, 0xd7, 0x4e, 0x3d, 0x34, 0x14, 0x9b, 0x3e,
  0xad, 0x4f, 0x2d, 0xbe, 0x5a, 0xd0, 0x21, 0x3e, 0xd0, 0xf6, 0xa8, 0xbd,
  0xdc, 0xf8, 0xd7, 0x3d, 0xe5, 0xda, 0x02, 0x3c, 0xac, 0xfa, 0xda, 0xbe,
  0xa6, 0x23, 0xb2, 0xbe, 0x92, 0x58, 0xcc, 0x3d, 0x1d, 0x89, 0x43, 0x3e,
  0xe7, 0xd7, 0x23, 0xbc, 0x23, 0xe8, 0x47, 0x3d, 0x58, 0x20, 0x30, 0x3e,
  0xcf, 0xa9, 0x90, 0x3e, 0x50, 0x29, 0xb1, 0x39, 0xd9, 0xa3, 0xcf, 0xbe,
  0x10, 0x71, 0xc5, 0x3d, 0x7b, 0x28, 0x3f, 0xbd, 0x55, 0xbb, 0x0e, 0xbd,
  0x75, 0xe0, 0xfb, 0x3d, 0xef, 0x73, 0xa3, 0xbc, 0x09, 0xc7, 0x78, 0x3e,
  0x43, 0xbf, 0xc2, 0xbe, 0xe0, 0x60, 0xb6, 0xbe, 0x06, 0x4c, 0x06, 0x3e,
  0xfa, 0x78, 0x1c, 0x3d, 0xce, 0x03, 0x82, 0x3d, 0x5d, 0xa4, 0xa4, 0x3e,
  0x49, 0x04, 0x85, 0x3e, 0xa4, 0xac, 0x25, 0x3e, 0xdf, 0x11, 0x6c, 0xbe,
  0x42, 0x12, 0xf9, 0xbd, 0x69, 0x06, 0x82, 0x3c, 0x85, 0x45, 0xf8, 0x3d,
  0x68, 0x0e, 0xaa, 0xbe, 0xa9, 0x3e, 0x0b, 0xbf, 0x7f, 0xf3, 0x51, 0xbd,
  0xfc, 0x0a, 0x25, 0x3e, 0x3c, 0x17, 0xbe, 0x3d, 0x1c, 0x06, 0x97, 0xbd,
  0x9a, 0x05, 0xc3, 0xbb, 0xf2, 0x00, 0xbc, 0xbe, 0x30, 0xe2, 0xa2, 0xbd,
  0x8c, 0x6f, 0x1c, 0xbf, 0x78, 0x6e, 0x8a, 0xbc, 0xb6, 0x44, 0x91, 0x3c,
  0x3c, 0x3b, 0x75, 0xbe, 0x40, 0x02, 0xa5, 0xbd, 0x7d, 0xf9, 0x15, 0xbe,
  0xd0, 0x20, 0xa9, 0xbe, 0xb7, 0x46, 0xab, 0xbe, 0x10, 0x56, 0xa1, 0xbe,
  0xfc, 0x0b, 0xc0, 0xbc, 0x6a, 0xe3, 0x6a, 0xbe, 0x83, 0x5b, 0xcf, 0xbc,
  0x53, 0x2b, 0x52, 0x3c, 0x9d, 0xe8, 0xe3, 0xbe, 0x29, 0xc7, 0x21, 0xbd,
  0x1e, 0xa6, 0xb1, 0x3d, 0xe7, 0xe8, 0x2a, 0xbe, 0xf9, 0x08, 0x7f, 0x3c,
  0xe3, 0x54, 0x1a, 0xbe, 0x7f, 0xf1, 0xd8, 0xbd, 0xb7, 0x38, 0x72, 0x3e,
  0x0c, 0x4d, 0x0c, 0xbe, 0x25, 0x59, 0xb5, 0xbe, 0xd8, 0x40, 0x48, 0xbd,
  0xc1, 0x1a, 0x87, 0xbe, 0x10, 0x84, 0xe2, 0x3d, 0x30, 0x24, 0xb8, 0x3c,
  0xba, 0x97, 0x17, 0x3e, 0x26, 0x15, 0x9e, 0xbd, 0x64, 0x13, 0x43, 0x3e,
  0x4e, 0xa8, 0xc7, 0xbd, 0x55, 0xdf, 0xd2, 0x3d, 0xde, 0x50, 0x25, 0x3e,
  0x99, 0x45, 0x06, 0xbe, 0x7a, 0x4d, 0x79, 0x3c, 0x73, 0xc5, 0x61, 0x3e,
  0x6d, 0xf2, 0x19, 0x3e, 0xe2, 0x00, 0x86, 0xbc, 0x82, 0x48, 0xaa, 0x3e,
  0xb1, 0x52, 0xf7, 0x3d, 0x2c, 0x32, 0x8a, 0xbd, 0x75, 0xbb, 0xac, 0x3e,
  0x66, 0x38, 0xa1, 0x3d, 0x70, 0xaa, 0x45, 0x3d, 0x8b, 0xd0, 0xdc, 0x3e,
  0x94, 0xc1, 0x36, 0xbc, 0x91, 0x66, 0x0b, 0x3e, 0xc2, 0xba, 0x0b, 0x3e,
  0x65, 0x04, 0x9b, 0xbc, 0x70, 0x2c, 0x3f, 0x3e, 0x1e, 0x91, 0x81, 0x3e,
  0x90, 0xa2, 0x8f, 0xbd, 0xc6, 0xda, 0x11, 0xbd, 0x00, 0x38, 0xb8, 0x3d,
  0x3c, 0x58, 0x14, 0x3e, 0x9f, 0x53, 0xb7, 0xbd, 0xf7, 0xfa, 0xfd, 0x3d,
  0x03, 0xe2, 0x52, 0xbe, 0x92, 0xce, 0xf9, 0x3d, 0xc7, 0xc6, 0xa5, 0xbe,
  0x05, 0xe7, 0xb1, 0xbe, 0x0d, 0x65, 0xb8, 0x3d, 0x29, 0x7d, 0x53, 0xbe,
  0x7b, 0x7d, 0x21, 0xbe, 0xe3, 0x0b, 0x9b, 0xbe, 0x4c, 0x13, 0xac, 0xbe,
  0xda, 0x22, 0xcb, 0xbe, 0xb5, 0x5d, 0xc4, 0xbc, 0x93, 0xcc, 0xa7, 0xbe,
  0xc9, 0xde, 0x20, 0x3e, 0x55, 0x8e, 0x40, 0xbe, 0xdd, 0x5c, 0xc6, 0xbd,
  0x55, 0x01, 0xd9, 0xbe, 0x76, 0x43, 0xfb, 0xbc, 0x1a, 0x94, 0xaf, 0xbd,
  0x06, 0x79, 0xf7, 0x3d, 0xac, 0x8c, 0x5d, 0xbe, 0xf6, 0x65, 0xfe, 0x3c,
  0xd4, 0x62, 0xa0, 0xbe, 0xbc, 0x5c, 0xbd, 0x3c, 0xea, 0x52, 0x28, 0xbf,
  0x7a, 0x2e, 0x3e, 0x3e, 0xa9, 0x8a, 0x02, 0xbe, 0xad, 0x35, 0x8f, 0x3e,
  0x70, 0x8f, 0x80, 0x3e, 0xcd, 0xc5, 0x4b, 0xbe, 0x1b, 0xb4, 0x83, 0xbe,
  0x9e, 0x5f, 0x46, 0xbe, 0x01, 0xf8, 0xa4, 0xbe, 0xef, 0x00, 0x00, 0xbe,
  0xeb, 0x90, 0x68, 0x3d, 0xf5, 0x78, 0x58, 0xbc, 0x4f, 0x94, 0xb0, 0xbe,
  0x92, 0x2b, 0x44, 0xbe, 0x64, 0xbd, 0xa2, 0xbd, 0x31, 0x37, 0x1b, 0x3e,
  0x9a, 0x77, 0x9c, 0x3c, 0x87, 0x1a, 0x3a, 0x3e, 0x76, 0x62, 0x56, 0xbe,
  0xb4, 0x69, 0x9c, 0x3c, 0x37, 0x6d, 0xc2, 0xbd, 0xaa, 0xd8, 0xd0, 0x3c,
  0x7e, 0x5a, 0x73, 0x3e, 0x73, 0x43, 0x40, 0x3e, 0xd4, 0x2b, 0x3c, 0xbe,
  0x99, 0x55, 0x33, 0xbd, 0xb0, 0xd4, 0xcb, 0xbc, 0xaf, 0x82, 0x59, 0xbd,
  0xbf, 0xd5, 0xb7, 0x3e, 0x72, 0xe3, 0xd8, 0xbe, 0xfe, 0x9a, 0x0d, 0x3e,
  0x12, 0xc2, 0xb7, 0xbd, 0xbe, 0xc2, 0x92, 0xbc, 0x9f, 0x7e, 0xba, 0x3d,
  0xb1, 0xd1, 0x79, 0x3d, 0x2b, 0x57, 0x71, 0x3b, 0x8e, 0x6e, 0xb8, 0xbc,
  0x56, 0x2f, 0x8b, 0xbe, 0x57, 0xf6, 0xb8, 0xbe, 0x96, 0x2c, 0x1d, 0xbf,
  0x37, 0x14, 0x0a, 0xbe, 0x21, 0x8f, 0x26, 0x3e, 0x48, 0x93, 0x11, 0x3e,
  0x44, 0xf5, 0x93, 0xbe, 0x1a, 0xfc, 0xf2, 0xbe, 0x78, 0x0f, 0xb1, 0x3e,
  0x1d, 0x8f, 0x8f, 0xbd, 0x07, 0x4d, 0xb3, 0xbe, 0x72, 0x9d, 0x52, 0x3e,
  0xe8, 0x9f, 0x53, 0x3e, 0x13, 0x24, 0x43, 0xbe, 0xc5, 0x62, 0xb3, 0xbe,
  0x4a, 0x99, 0xca, 0xbe, 0xd8, 0x57, 0x90, 0xbd, 0x08, 0x98, 0x30, 0x3e,
  0xbe, 0x3f, 0xac, 0xbe, 0xaa, 0x39, 0x91, 0xbd, 0x80, 0x2f, 0x78, 0x3e,
  0xfd, 0x90, 0x95, 0xbd, 0x00, 0x07, 0xf0, 0x3c, 0xa4, 0x58, 0xac, 0xbe,
  0x9a, 0x27, 0x85, 0x3b, 0x77, 0xfb, 0xff, 0x3d, 0x08, 0xc2, 0x1d, 0x3c,
  0x4b, 0x98, 0x1e, 0x3e, 0x20, 0xd6, 0xcc, 0x3e, 0xc6, 0xdb, 0xb7, 0xbc,
  0xd2, 0xdf, 0xf4, 0x3d, 0x3a, 0x04, 0xbf, 0xbe, 0xcc, 0x5b, 0x81, 0x3e,
  0xc0, 0xcd, 0xaa, 0x3d, 0x09, 0xe5, 0xee, 0xbd, 0xcc, 0x25, 0xf1, 0xbc,
  0xe8, 0x36, 0x9e, 0x3d, 0x3a, 0x9c, 0x9e, 0xbd, 0x38, 0x5e, 0x88, 0xbe,
  0x8f, 0xb5, 0x78, 0xbd, 0x99, 0x90, 0x8a, 0xbe, 0x72, 0xf3, 0x9c, 0x3e,
  0xd6, 0xff, 0x0d, 0x3e, 0xae, 0x79, 0x8d, 0x3e, 0xc9, 0x55, 0xcf, 0x3e,
  0x03, 0x35, 0x76, 0x3e, 0x72, 0xe9, 0x1e, 0xbd, 0x07, 0xa1, 0x1c, 0x3e,
  0x0e, 0xd2, 0x61, 0xbd, 0x1e, 0xbf, 0x20, 0xbe, 0xcc, 0x6f, 0x90, 0xbd,
  0xf2, 0x2a, 0x8e, 0xbd, 0x94, 0x67, 0x36, 0x3e, 0xab, 0xa8, 0x6f, 0xbd,
  0xda, 0xc3, 0x29, 0xbf, 0x40, 0x98, 0xe4, 0xbd, 0x23, 0xdc, 0xaf, 0xbe,
  0x95, 0x5f, 0x10, 0x3e, 0x68, 0x76, 0xb3, 0x3e, 0x54, 0x2d, 0x07, 0x3d,
  0x82, 0x64, 0xd9, 0x3d, 0x0f, 0x7f, 0x41, 0x3e, 0xbe, 0x7b, 0xd7, 0xbe,
  0x7b, 0xf3, 0x50, 0xbe, 0x77, 0x99, 0x84, 0x3d, 0x98, 0x8d, 0x08, 0xbe,
  0x0b, 0xd9, 0x40, 0xbe, 0xdf, 0xc5, 0xb4, 0xbd, 0x7b, 0xcd, 0x35, 0xbe,
  0x9b, 0x2c, 0x6f, 0x3e, 0x44, 0xd1, 0x30, 0x3e, 0xc0, 0xd5, 0xb2, 0x3b,
  0x53, 0xff, 0x85, 0x3e, 0xa5, 0x0e, 0x80, 0x3d, 0x4f, 0x42, 0xec, 0xbd,
  0x48, 0x08, 0x70, 0x3c, 0x07, 0xe4, 0x00, 0xbe, 0xb9, 0xc0, 0x08, 0x3e,
  0x8b, 0x67, 0x5a, 0x3e, 0x7d, 0xbe, 0x2b, 0x3d, 0x3f, 0xb1, 0xa5, 0xbc,
  0xe6, 0xda, 0x68, 0x3e, 0xb6, 0x8c, 0xa6, 0x3e, 0xd5, 0x10, 0x50, 0x3e,
  0xe7, 0x78, 0xe5, 0x3e, 0xb9, 0xea, 0x8d, 0x3e, 0x73, 0xb8, 0x92, 0xbd,
  0xb8, 0xfc, 0x02, 0xbd, 0xa7, 0x5e, 0xa4, 0xbc, 0x31, 0x8d, 0x5f, 0x3d,
  0xa7, 0x50, 0xd9, 0x3e, 0x46, 0xfd, 0x70, 0x3d, 0xb9, 0x19, 0x02, 0x3f,
  0x51, 0xc3, 0x3f, 0x3e, 0x04, 0x3e, 0x4c, 0xbe, 0x65, 0x74, 0x91, 0xbb,
  0x33, 0xc2, 0x56, 0x3e, 0x26, 0xde, 0xff, 0xff, 0x10, 0x00, 0x00, 0x00,
  0x0a, 0x00, 0x00, 0x00, 0x1c, 0x00, 0x00, 0x00, 0x38, 0x00, 0x00, 0x00,
  0x04, 0x00, 0x00, 0x00, 0x10, 0x00, 0x00, 0x00, 0x04, 0x00, 0x00, 0x00,
  0x01, 0x00, 0x00, 0x00, 0x08, 0x00, 0x00, 0x00, 0x1a, 0x00, 0x00, 0x00,
  0x73, 0x65, 0x71, 0x75, 0x65, 0x6e, 0x74, 0x69, 0x61, 0x6c, 0x2f, 0x63,
  0x6f, 0x6e, 0x76, 0x32, 0x64, 0x5f, 0x31, 0x2f, 0x43, 0x6f, 0x6e, 0x76,
  0x32, 0x44, 0x00, 0x00, 0x9c, 0xdd, 0xff, 0xff, 0xa6, 0xde, 0xff, 0xff,
  0x04, 0x00, 0x00, 0x00, 0x80, 0x01, 0x00, 0x00, 0x8d, 0xd2, 0x2e, 0xbe,
  0x75, 0x27, 0x91, 0x3d, 0x56, 0xac, 0x20, 0xbd, 0x5b, 0xa7, 0x75, 0xbe,
  0xd9, 0xc4, 0xb5, 0x3c, 0x6d, 0x8e, 0x08, 0xbe, 0x36, 0x8b, 0xb1, 0xbe,
  0x61, 0x2f, 0x3b, 0xbd, 0x90, 0x78, 0x81, 0xbe, 0x4c, 0xc3, 0xa1, 0xbe,
  0xc5, 0xb8, 0xf2, 0x3d, 0x57, 0xec, 0x03, 0xbd, 0x1a, 0x30, 0xa1, 0xbe,
  0x0c, 0x96, 0xa0, 0x3d, 0x8f, 0xa3, 0x6b, 0x3d, 0x51, 0x26, 0x7c, 0xbe,
  0x31, 0x88, 0x24, 0xbd, 0x27, 0x74, 0x83, 0xbe, 0x5f, 0x26, 0x2b, 0xbe,
  0x37, 0x9f, 0x01, 0xbe, 0x1f, 0xe5, 0xdd, 0xbd, 0x60, 0x6d, 0xa6, 0xbe,
  0x7c, 0xa4, 0x3f, 0xbc, 0xfd, 0x38, 0x04, 0xbe, 0xaa, 0xec, 0x7d, 0xbd,
  0xb1, 0x31, 0xb1, 0xbe, 0xa1, 0xfa, 0xf7, 0xbc, 0x2f, 0x24, 0x5f, 0xbd,
  0xe4, 0xc6, 0x70, 0xbe, 0xe0, 0x04, 0xb1, 0xbe, 0x61, 0x8d, 0xa0, 0x3b,
  0x00, 0x11, 0xbc, 0xbe, 0xbf, 0x73, 0xa8, 0x3c, 0x15, 0x4a, 0x02, 0xbe,
  0x47, 0x35, 0xb8, 0xbc, 0x95, 0xab, 0x5c, 0xbd, 0x6a, 0xcd, 0x17, 0xbe,
  0xfe, 0x11, 0x80, 0xbd, 0x3f, 0x1a, 0xf7, 0x3c, 0xc9, 0x72, 0xb1, 0xbd,
  0x38, 0xd4, 0xa5, 0xbd, 0xb7, 0x52, 0x52, 0xbc, 0x02, 0x59, 0xbd, 0xbd,
  0xaf, 0xcf, 0x70, 0xbe, 0x38, 0x5e, 0xb4, 0xbe, 0x2c, 0xb9, 0xfa, 0xbd,
  0x2a, 0x73, 0x1b, 0xbe, 0x7b, 0x4a, 0x9c, 0xbd, 0x1d, 0x82, 0x26, 0x3e,
  0x6e, 0x73, 0xde, 0xbe, 0x36, 0x27, 0x9b, 0xbd, 0x60, 0x86, 0x55, 0x3d,
  0x39, 0x4a, 0x93, 0xbe, 0x18, 0x7d, 0xc3, 0xbe, 0x65, 0xf1, 0xa8, 0x3d,
  0xc8, 0xc3, 0x44, 0xbe, 0x34, 0xe5, 0x31, 0xbe, 0xca, 0xc8, 0x80, 0x3e,
  0xde, 0x26, 0x61, 0xbe, 0x0e, 0x73, 0xb4, 0xbe, 0x60, 0x88, 0xa8, 0xbe,
  0xba, 0x7a, 0xa0, 0xba, 0x7f, 0x19, 0x2b, 0xbf, 0x6a, 0xfb, 0x2a, 0xbe,
  0x6a, 0x39, 0x7e, 0xbe, 0x4f, 0x24, 0x6e, 0xbe, 0x85, 0x55, 0x6a, 0x3e,
  0x1e, 0x94, 0x03, 0xbe, 0x03, 0x9a, 0x25, 0xbe, 0xb3, 0x53, 0x94, 0x3e,
  0x46, 0x9d, 0x36, 0x3d, 0xa3, 0x2f, 0x1b, 0xbd, 0xde, 0x02, 0x85, 0xbe,
  0x33, 0xc6, 0x91, 0x3d, 0xa5, 0x8f, 0x55, 0xbd, 0xe4, 0x32, 0x62, 0xbe,
  0xf6, 0x1b, 0x3a, 0xbe, 0x03, 0x8f, 0x97, 0xbe, 0x65, 0x6e, 0x8d, 0xbe,
  0xe2, 0x91, 0x4c, 0x3e, 0x70, 0x6f, 0x50, 0xbe, 0x45, 0xfa, 0x3e, 0xbe,
  0x12, 0x06, 0x66, 0x3e, 0xb5, 0x89, 0x8a, 0xbe, 0x0c, 0x64, 0x22, 0x3d,
  0x45, 0x47, 0x40, 0x3e, 0x04, 0x97, 0x95, 0xbe, 0x67, 0xaf, 0x37, 0xbe,
  0x2c, 0x8d, 0x0e, 0x3e, 0xef, 0x7d, 0xb7, 0xbe, 0x79, 0x9e, 0x8b, 0xbe,
  0x86, 0xb8, 0x18, 0xbd, 0xdd, 0x14, 0x7d, 0xbe, 0x57, 0xbe, 0x0c, 0xbe,
  0x1c, 0x0f, 0xeb, 0x3d, 0x59, 0xd7, 0x0a, 0xbf, 0xfe, 0xdf, 0xff, 0xff,
  0x10, 0x00, 0x00, 0x00, 0x09, 0x00, 0x00, 0x00, 0x1c, 0x00, 0x00, 0x00,
  0x38, 0x00, 0x00, 0x00, 0x04, 0x00, 0x00, 0x00, 0x08, 0x00, 0x00, 0x00,
  0x04, 0x00, 0x00, 0x00, 0x03, 0x00, 0x00, 0x00, 0x01, 0x00, 0x00, 0x00,
  0x18, 0x00, 0x00, 0x00, 0x73, 0x65, 0x71, 0x75, 0x65, 0x6e, 0x74, 0x69,
  0x61, 0x6c, 0x2f, 0x63, 0x6f, 0x6e, 0x76, 0x32, 0x64, 0x2f, 0x43, 0x6f,
  0x6e, 0x76, 0x32, 0x44, 0x00, 0x00, 0x00, 0x00, 0x74, 0xdf, 0xff, 0xff,
  0x7e, 0xe0, 0xff, 0xff, 0x04, 0x00, 0x00, 0x00, 0xc0, 0x00, 0x00, 0x00,
  0xf8, 0xf0, 0x6a, 0xbe, 0xb8, 0x5a, 0x26, 0xbe, 0x99, 0x83, 0xd6, 0xbd,
  0x1f, 0x0e, 0x8a, 0x3e, 0x9d, 0xd9, 0x00, 0xbd, 0x98, 0x0b, 0x7e, 0x3d,
  0xc1, 0x1f, 0x5d, 0xbd, 0x0e, 0x4f, 0x68, 0xbd, 0xb2, 0xfa, 0xde, 0x3d,
  0x09, 0x3a, 0xd9, 0x3d, 0x8e, 0xda, 0xd3, 0x3d, 0xa6, 0x4d, 0x66, 0x3d,
  0xa2, 0xf3, 0x53, 0x3f, 0xeb, 0x9a, 0x60, 0x3e, 0x89, 0x49, 0x14, 0xbc,
  0x5c, 0x48, 0xb2, 0xbd, 0xe3, 0x82, 0xf2, 0xbd, 0xde, 0x13, 0x6e, 0x3e,
  0xec, 0xd3, 0xce, 0x3e, 0x79, 0xd9, 0xa1, 0x3e, 0xb9, 0xa6, 0xc0, 0x3c,
  0xf6, 0x0c, 0x15, 0x3d, 0xdf, 0x86, 0x04, 0xbe, 0x01, 0x41, 0x25, 0x3d,
  0xc9, 0x8d, 0x45, 0xbe, 0xe7, 0x60, 0x8e, 0xbf, 0xf8, 0x7c, 0x0a, 0x3e,
  0xa3, 0xe4, 0x9b, 0xbc, 0x11, 0x9b, 0xd2, 0xbf, 0xfa, 0x50, 0x27, 0xbe,
  0x28, 0x1b, 0x3e, 0xbf, 0x05, 0x10, 0x8f, 0x3e, 0x58, 0xbc, 0x17, 0xbe,
  0xd3, 0x19, 0xf5, 0x3e, 0x1f, 0x6f, 0x3f, 0xbd, 0x4f, 0xab, 0x90, 0x3e,
  0xe0, 0x9a, 0xa3, 0xba, 0x88, 0xca, 0x39, 0xbe, 0x4d, 0x69, 0xf2, 0xbd,
  0xe8, 0x82, 0x16, 0xbd, 0xe7, 0x01, 0xcd, 0x3e, 0x0b, 0xa4, 0x43, 0x3f,
  0x66, 0x7c, 0x81, 0x3e, 0x4e, 0x5e, 0x74, 0x3b, 0x63, 0x4d, 0x59, 0xbf,
  0xac, 0x09, 0x1d, 0xbf, 0x56, 0xdb, 0xb3, 0xbe, 0xa5, 0x7e, 0x8e, 0xbd,
  0x16, 0xe1, 0xff, 0xff, 0x10, 0x00, 0x00, 0x00, 0x08, 0x00, 0x00, 0x00,
  0x14, 0x00, 0x00, 0x00, 0x30, 0x00, 0x00, 0x00, 0x02, 0x00, 0x00, 0x00,
  0x03, 0x00, 0x00, 0x00, 0x10, 0x00, 0x00, 0x00, 0x19, 0x00, 0x00, 0x00,
  0x73, 0x65, 0x71, 0x75, 0x65, 0x6e, 0x74, 0x69, 0x61, 0x6c, 0x2f, 0x64,
  0x65, 0x6e, 0x73, 0x65, 0x5f, 0x31, 0x2f, 0x4d, 0x61, 0x74, 0x4d, 0x75,
  0x6c, 0x00, 0x00, 0x00, 0x84, 0xe0, 0xff, 0xff, 0x8e, 0xe1, 0xff, 0xff,
  0x04, 0x00, 0x00, 0x00, 0x00, 0x1c, 0x00, 0x00, 0xaa, 0x71, 0xba, 0x3e,
  0x61, 0xc2, 0x62, 0xbd, 0xdc, 0xf4, 0x83, 0xbd, 0x59, 0xea, 0x4d, 0x3d,
  0xf8, 0x9f, 0xa5, 0x3d, 0xfd, 0xd9, 0xc9, 0x3d, 0x55, 0x79, 0xc2, 0x3a,
  0x74, 0x2c, 0xb0, 0xbb, 0x79, 0x0c, 0x4d, 0x3a, 0xd4, 0x63, 0x16, 0xbc,
  0xd1, 0xd6, 0x85, 0x3e, 0x36, 0x93, 0x9b, 0xbd, 0xcc, 0x41, 0xae, 0x3e,
  0x6a, 0x06, 0x7e, 0xbe, 0x77, 0x5a, 0xa6, 0x3d, 0xba, 0x96, 0x6c, 0x3e,
  0xcd, 0x51, 0x01, 0x3d, 0x95, 0x12, 0x0c, 0xbd, 0x37, 0xda, 0xbf, 0xbe,
  0x49, 0xa5, 0x02, 0x3e, 0x50, 0xca, 0x4f, 0xbe, 0xa7, 0xf2, 0x50, 0x3d,
  0x4a, 0x23, 0x31, 0xbd, 0x1d, 0xe5, 0x82, 0xbe, 0x39, 0x9f, 0x3a, 0xbe,
  0x8c, 0x9c, 0x9e, 0x3d, 0x39, 0x3a, 0x8a, 0x3d, 0x98, 0x63, 0x35, 0xbe,
  0x24, 0x7a, 0xac, 0xbd, 0x3b, 0x39, 0xab, 0xbd, 0xad, 0x94, 0xef, 0x3d,
  0x5d, 0xbe, 0x54, 0x3e, 0x56, 0x1a, 0x72, 0x3e, 0x52, 0x76, 0x0b, 0x3e,
  0x3d, 0x98, 0x5d, 0xbe, 0xf7, 0xba, 0x9d, 0x3d, 0x36, 0x19, 0x07, 0xbe,
  0x2c, 0xe5, 0x0f, 0x3e, 0x53, 0x20, 0x4f, 0x3d, 0x1e, 0x18, 0x46, 0xbb,
  0xad, 0x35, 0x3b, 0x3c, 0x98, 0x2d, 0x3d, 0x3e, 0xa6, 0xb2, 0xdd, 0x3d,
  0xc7, 0x8c, 0xb9, 0xbb, 0xff, 0xc9, 0x63, 0xbd, 0xa3, 0x18, 0x13, 0xbf,
  0x8c, 0x7c, 0xa5, 0x3e, 0xe5, 0xc4, 0x50, 0x3d, 0xce, 0x26, 0xc9, 0x3e,
  0xb4, 0x01, 0x35, 0x3e, 0x1c, 0x8a, 0x46, 0x3e, 0x79, 0x24, 0x56, 0x3d,
  0xe2, 0xa9, 0x84, 0x3e, 0x32, 0x7f, 0x47, 0x3d, 0xa4, 0x81, 0x2d, 0x3e,
  0xed, 0x43, 0x11, 0x3d, 0x68, 0x8d, 0xd1, 0xbe, 0x35, 0xe1, 0xb8, 0x3d,
  0x20, 0x34, 0xa0, 0x3d, 0x70, 0xa1, 0x78, 0xbe, 0x51, 0x90, 0x49, 0xbe,
  0x77, 0x43, 0xc9, 0xbe, 0xb8, 0x39, 0x94, 0x3b, 0x8a, 0xae, 0xb2, 0xbc,
  0x48, 0x8c, 0xf6, 0x3e, 0xb2, 0x15, 0x86, 0xbd, 0x93, 0x62, 0x77, 0x3e,
  0xc9, 0x9e, 0x23, 0x3d, 0xf1, 0xbd, 0x3b, 0x3e, 0x6d, 0x5b, 0x51, 0xbd,
  0xc4, 0x3e, 0x94, 0x3d, 0x32, 0x2b, 0x8f, 0x3d, 0xbe, 0x54, 0x87, 0xbe,
  0x7b, 0xc8, 0x2b, 0xbe, 0x4f, 0x87, 0x2b, 0x3d, 0x64, 0x46, 0x02, 0x3e,
  0xa4, 0x51, 0xbb, 0x3d, 0x86, 0xea, 0x65, 0xbe, 0x4e, 0x84, 0xc9, 0xbd,
  0x95, 0xd4, 0x43, 0xbe, 0xc9, 0x9e, 0xc5, 0x3d, 0xc2, 0x67, 0x27, 0xbe,
  0xa6, 0xba, 0xa9, 0xbd, 0x37, 0xd2, 0x56, 0xbe, 0x1d, 0x95, 0x62, 0x3d,
  0x7a, 0xa3, 0xa5, 0xbd, 0x9d, 0xa0, 0x23, 0xbe, 0x26, 0x08, 0x6d, 0xbc,
  0xa2, 0xa5, 0xc9, 0xbd, 0x0d, 0x6f, 0x83, 0xbe, 0xb4, 0x98, 0x39, 0xbe,
  0x98, 0x04, 0x6d, 0xbe, 0x77, 0x49, 0xc8, 0xbe, 0xc1, 0x78, 0x22, 0x3d,
  0x33, 0x7c, 0x81, 0xbe, 0x06, 0x9e, 0x96, 0xbe, 0xaa, 0x17, 0x1e, 0x3e,
  0xb1, 0x16, 0x89, 0xbe, 0x41, 0x7c, 0xe5, 0xbd, 0x53, 0x2d, 0x85, 0xbe,
  0x1d, 0x3a, 0xbc, 0xbe, 0x24, 0x5e, 0x4a, 0xbe, 0x96, 0xf6, 0x8a, 0xbe,
  0xc7, 0x65, 0xc1, 0x3e, 0xa4, 0x81, 0xf7, 0xbd, 0xcb, 0x20, 0x2c, 0xbd,
  0x0a, 0x49, 0x95, 0xbe, 0xd6, 0x97, 0x68, 0xbd, 0x0f, 0x79, 0x2b, 0xbe,
  0xe7, 0xa3, 0x8d, 0x3d, 0x22, 0xd6, 0x95, 0xbe, 0x29, 0x75, 0xa5, 0xbe,
  0x4d, 0x39, 0xd3, 0xbd, 0x5e, 0xf7, 0x9e, 0xbd, 0x77, 0x13, 0xa2, 0x3d,
  0xdc, 0x76, 0xb6, 0xbe, 0x99, 0x05, 0xe7, 0xbc, 0x7a, 0x10, 0xb8, 0xbc,
  0xd7, 0x86, 0xc8, 0xbe, 0xa0, 0xe3, 0x27, 0x3d, 0xa1, 0xfb, 0x6c, 0xbe,
  0x78, 0x21, 0x04, 0xbe, 0x59, 0x06, 0xb5, 0x3c, 0xf4, 0x26, 0x9f, 0xbe,
  0x74, 0x12, 0xb3, 0xbe, 0x83, 0xa6, 0xa7, 0xbe, 0x13, 0x2b, 0x17, 0xbd,
  0x5c, 0x55, 0xed, 0xbd, 0x94, 0xa4, 0xbd, 0x3d, 0x7f, 0xcd, 0xac, 0xbd,
  0xb1, 0x1e, 0xb0, 0x3d, 0xfc, 0x79, 0x9d, 0xbe, 0x14, 0xb5, 0xfa, 0x3d,
  0x0f, 0xa1, 0x3f, 0x3d, 0x7a, 0xbf, 0xb6, 0xbd, 0x97, 0xcd, 0x12, 0x3e,
  0xe1, 0x77, 0xf2, 0xbd, 0xd4, 0x8f, 0x2e, 0xba, 0x82, 0x02, 0x7d, 0x3d,
  0x03, 0xcf, 0x6e, 0xbc, 0x37, 0x21, 0xd5, 0xbd, 0x3e, 0x7c, 0xa1, 0xbe,
  0xdf, 0xc7, 0x1c, 0x3e, 0xd1, 0x43, 0x10, 0x3e, 0xe2, 0xc8, 0x0b, 0x3b,
  0xc4, 0xbc, 0x83, 0xbe, 0x80, 0xd5, 0xb6, 0x3d, 0x82, 0x94, 0x9e, 0xbe,
  0xf6, 0xa4, 0x80, 0x3e, 0x05, 0x05, 0xf5, 0x3d, 0xff, 0x06, 0xbd, 0xbe,
  0xa0, 0x30, 0x38, 0x3b, 0x6c, 0xcc, 0xa0, 0xbd, 0x22, 0xfb, 0x1c, 0xbe,
  0x3d, 0xcc, 0x26, 0x3d, 0x72, 0x4c, 0x3d, 0xbe, 0x76, 0x18, 0x94, 0xbe,
  0x25, 0x01, 0x2d, 0xbe, 0x17, 0x1a, 0x8c, 0xbd, 0x23, 0x19, 0x71, 0x3e,
  0x09, 0xd1, 0x48, 0xbe, 0x34, 0xde, 0x0f, 0xbd, 0x25, 0xe3, 0x4d, 0xbe,
  0xc2, 0x8e, 0x16, 0xbe, 0xd6, 0xfb, 0x4f, 0x3e, 0x6b, 0xea, 0x05, 0x3e,
  0x22, 0x0d, 0x9e, 0xbe, 0x3c, 0x4f, 0x0f, 0x3d, 0x7f, 0xf8, 0x93, 0xbe,
  0x11, 0x93, 0x2a, 0x3e, 0x26, 0x74, 0x42, 0xbe, 0x86, 0xb4, 0x81, 0xbe,
  0x9a, 0x73, 0x91, 0xbe, 0x64, 0x73, 0x34, 0xbe, 0xa6, 0x17, 0xc2, 0x3d,
  0xc7, 0xa3, 0x89, 0xbd, 0x4a, 0xe5, 0x88, 0xbd, 0x69, 0x9a, 0x5a, 0xbe,
  0x9d, 0xce, 0xca, 0xbc, 0xb2, 0x93, 0x68, 0xbe, 0x60, 0x27, 0x08, 0x3e,
  0xab, 0x3b, 0x7f, 0x3d, 0x45, 0xc2, 0x1b, 0xbe, 0x03, 0x2f, 0x22, 0xbd,
  0xc8, 0x57, 0xa9, 0xbe, 0x43, 0x74, 0xfe, 0xbd, 0x8d, 0xb3, 0x65, 0xbe,
  0x7e, 0xdf, 0x73, 0xbe, 0x70, 0x71, 0xa4, 0xbe, 0xe0, 0xba, 0x78, 0xbd,
  0x37, 0xf3, 0x61, 0xbe, 0xcf, 0x46, 0xa2, 0xbc, 0xb5, 0x8f, 0x09, 0x3d,
  0xe4, 0xc4, 0x8f, 0xbd, 0x82, 0xb7, 0x89, 0x3d, 0xdd, 0x92, 0xba, 0xbe,
  0x42, 0x6a, 0x16, 0x3d, 0x12, 0x49, 0x0e, 0x3e, 0x61, 0x00, 0x80, 0xbe,
  0x39, 0x41, 0xd3, 0x3b, 0x1d, 0x28, 0xa1, 0xbe, 0x52, 0x6b, 0x6c, 0x3d,
  0x77, 0x98, 0x9e, 0x3d, 0x44, 0xab, 0x42, 0xbd, 0xc6, 0xbc, 0xdc, 0xbe,
  0xa4, 0x8c, 0xe4, 0xbd, 0x09, 0x88, 0x0e, 0xbe, 0x4a, 0x6a, 0x1a, 0x3e,
  0x35, 0x40, 0x6b, 0x3d, 0x6d, 0x7a, 0x65, 0xbe, 0x38, 0x2f, 0x81, 0x3d,
  0x47, 0xd8, 0x44, 0xbe, 0x48, 0x9e, 0x02, 0x3d, 0xae, 0x21, 0xc2, 0x3d,
  0x84, 0x12, 0x04, 0xbe, 0x76, 0x3e, 0x46, 0x3e, 0xe1, 0xf5, 0x2d, 0xbe,
  0xa1, 0xe9, 0xbb, 0xbd, 0xea, 0x8d, 0xbc, 0x3d, 0xe8, 0x6e, 0xf2, 0xbd,
  0xae, 0x42, 0xc8, 0xbd, 0x81, 0xbb, 0xbe, 0xbe, 0xdf, 0x04, 0xf3, 0xbd,
  0x65, 0x31, 0x44, 0xbd, 0x2b, 0xeb, 0xb3, 0x3d, 0x4b, 0xa7, 0x11, 0x3e,
  0x79, 0x0f, 0xe5, 0xbd, 0xdb, 0x69, 0x5e, 0xbe, 0x1b, 0xaf, 0x9e, 0x3d,
  0xa1, 0xbe, 0x76, 0xbb, 0x8c, 0x8f, 0x45, 0x3e, 0x8d, 0x2f, 0x40, 0xbd,
  0xe5, 0x77, 0x63, 0xbd, 0xe9, 0xbd, 0xbf, 0xbe, 0x8f, 0xbb, 0xe1, 0x3d,
  0x88, 0x8c, 0xd1, 0xbe, 0xdc, 0x4d, 0x96, 0xbe, 0x7b, 0xec, 0x33, 0xbe,
  0xf6, 0x2f, 0xec, 0xbd, 0xa8, 0x1f, 0x70, 0xbe, 0xf4, 0xf7, 0x2a, 0x3c,
  0x89, 0xe5, 0x4c, 0x3e, 0x17, 0xc3, 0xac, 0x3d, 0x3f, 0x4a, 0x0b, 0x3e,
  0x35, 0x5b, 0x40, 0xbe, 0xd7, 0x72, 0x2a, 0x3b, 0x35, 0x1a, 0xa0, 0x3e,
  0xa3, 0x80, 0x3a, 0xbe, 0x5a, 0x69, 0x61, 0x3c, 0xe6, 0x1c, 0x80, 0xbe,
  0x54, 0x9d, 0x0d, 0x3b, 0x96, 0x50, 0x60, 0xbd, 0xce, 0xbe, 0xd0, 0xbd,
  0x37, 0x3a, 0x89, 0xbe, 0x7f, 0xec, 0xa8, 0x3d, 0x00, 0x66, 0x35, 0x3e,
  0xbd, 0x0d, 0x60, 0x3e, 0x9d, 0xd0, 0x49, 0x3e, 0x8e, 0xf7, 0x9a, 0x3d,
  0xae, 0x89, 0x58, 0x3e, 0xe0, 0x9e, 0x1e, 0xbe, 0x19, 0xe8, 0x02, 0xbe,
  0xdf, 0x44, 0xc3, 0xbd, 0x1e, 0x74, 0x20, 0xbe, 0x05, 0x68, 0x2b, 0xbe,
  0x30, 0xaa, 0x25, 0x3e, 0x8a, 0x09, 0x39, 0xbd, 0x2e, 0x1b, 0x1b, 0x3c,
  0x1e, 0x85, 0xf3, 0x3d, 0xa5, 0x52, 0x45, 0xbe, 0x12, 0x8e, 0x90, 0xbd,
  0x6e, 0xde, 0x2c, 0x3e, 0xf0, 0xc4, 0xa4, 0x3e, 0x6a, 0x4f, 0xba, 0x3d,
  0x95, 0x8c, 0xd8, 0x3c, 0xa3, 0x5c, 0x23, 0x3d, 0x19, 0x03, 0xe9, 0x3d,
  0xcb, 0xe5, 0x29, 0xbe, 0x61, 0x36, 0x32, 0xbd, 0x55, 0x11, 0x08, 0x3e,
  0xc8, 0x64, 0x1e, 0xbe, 0xd2, 0xdb, 0xaf, 0x3b, 0x1d, 0xbb, 0x17, 0xbe,
  0xfd, 0xf7, 0x89, 0x3d, 0xe7, 0xb6, 0xec, 0xbd, 0x80, 0x63, 0xd0, 0xbd,
  0x8b, 0xd4, 0x7e, 0x3e, 0xe2, 0x79, 0xd1, 0x3c, 0x45, 0x96, 0x4e, 0xbd,
  0x25, 0x38, 0x72, 0xbe, 0x51, 0xdb, 0x07, 0xbe, 0xac, 0x7b, 0x09, 0xbe,
  0xbc, 0xeb, 0x63, 0x3c, 0x09, 0x4e, 0x9d, 0xbe, 0xc9, 0xc4, 0x90, 0x3d,
  0xbd, 0x64, 0x91, 0xbc, 0xef, 0x50, 0x9d, 0x3d, 0x65, 0xfc, 0x6c, 0xbe,
  0x8d, 0x29, 0xf1, 0x3d, 0x60, 0xf5, 0xd5, 0x3c, 0x9d, 0xaa, 0xad, 0x3d,
  0x5e, 0x29, 0x7f, 0xbe, 0xce, 0x12, 0xa6, 0xbd, 0x3a, 0xdd, 0x21, 0x3c,
  0xbc, 0x8a, 0x2a, 0x3e, 0xff, 0x95, 0xe6, 0xbd, 0xa7, 0x3a, 0x29, 0x3e,
  0xab, 0xf8, 0x28, 0xbe, 0x15, 0x29, 0x86, 0xbd, 0x14, 0x27, 0x61, 0xbe,
  0x4b, 0x77, 0xc9, 0xbd, 0xf8, 0x6f, 0x84, 0x3e, 0xc9, 0x1c, 0xfe, 0xbd,
  0xea, 0x59, 0x35, 0x3e, 0x4f, 0x70, 0x69, 0xbd, 0x3b, 0xe1, 0x0a, 0x3e,
  0xc8, 0x93, 0x26, 0x3e, 0x81, 0x53, 0xe2, 0x3d, 0xe9, 0x11, 0x04, 0x3e,
  0x0d, 0x4d, 0x75, 0xbe, 0xf0, 0x39, 0xcf, 0xbd, 0xbb, 0x66, 0x93, 0xbe,
  0xe9, 0xc4, 0xad, 0xb9, 0x0f, 0x0a, 0x08, 0xbd, 0xbe, 0xd2, 0xb2, 0xbd,
  0x1b, 0x98, 0x78, 0xbe, 0x5c, 0x81, 0x70, 0xbe, 0xf9, 0xe7, 0x16, 0xbe,
  0xd0, 0x42, 0xb6, 0x3d, 0x6f, 0xc1, 0xb2, 0xbd, 0x1d, 0x48, 0x05, 0xbd,
  0xc6, 0xbc, 0xce, 0x3d, 0xb8, 0x98, 0x0d, 0x3e, 0xc8, 0x1b, 0x04, 0x3d,
  0x90, 0x67, 0xf9, 0xbd, 0x35, 0x72, 0xfa, 0xbd, 0x5e, 0x5d, 0x70, 0x3d,
  0xc7, 0x5f, 0x0a, 0x3e, 0x8e, 0xef, 0x15, 0xbf, 0xc1, 0xa9, 0x1c, 0x3c,
  0xb4, 0x86, 0xe1, 0xbe, 0xa2, 0x38, 0x1c, 0x3e, 0x18, 0x1c, 0x4b, 0x3e,
  0xf6, 0x6e, 0xc7, 0xbe, 0x9d, 0xbf, 0x46, 0x3d, 0x45, 0xc9, 0x8b, 0xbd,
  0x6e, 0x6d, 0x48, 0x3e, 0x58, 0x0f, 0x20, 0xbf, 0x39, 0x00, 0xd8, 0x3d,
  0x16, 0x69, 0xb5, 0xbe, 0x85, 0xa8, 0x18, 0x3e, 0xc4, 0x62, 0xac, 0x3d,
  0xe7, 0x6f, 0x22, 0xbe, 0x9b, 0x5c, 0x3e, 0x3e, 0x15, 0x94, 0xa3, 0xbe,
  0x8f, 0xcb, 0x94, 0x3d, 0xfd, 0x60, 0x0d, 0xbf, 0x51, 0x5f, 0xdc, 0x3d,
  0x76, 0xa0, 0xd9, 0x3d, 0xb8, 0x9e, 0xa7, 0xbe, 0xd0, 0xf5, 0x1a, 0x3d,
  0xbe, 0xcb, 0x7c, 0xbd, 0x3b, 0x4d, 0x5f, 0x3e, 0xb6, 0x76, 0xb2, 0x3c,
  0x91, 0x87, 0x35, 0xbe, 0x92, 0x58, 0xc2, 0xbe, 0x82, 0xf2, 0xb7, 0x3c,
  0xb9, 0x82, 0x9f, 0x3e, 0x1c, 0x92, 0x46, 0x3f, 0xda, 0x88, 0x95, 0x3e,
  0xe9, 0xc6, 0x21, 0xbe, 0xdb, 0x84, 0x42, 0x3e, 0x47, 0xcc, 0x39, 0xbe,
  0xec, 0xd4, 0xd5, 0x3d, 0x3d, 0x27, 0xa9, 0x3e, 0x0f, 0xce, 0xb2, 0xbe,
  0x31, 0xa1, 0x10, 0xbe, 0x50, 0x20, 0x44, 0xbe, 0xed, 0xb9, 0xab, 0x3d,
  0x0e, 0x4a, 0x18, 0x3e, 0x13, 0x8b, 0x9f, 0xbe, 0x48, 0x76, 0xaa, 0xbe,
  0x95, 0x49, 0xe4, 0x3d, 0x7f, 0x9d, 0x44, 0x3e, 0x04, 0xff, 0xce, 0x3e,
  0x2f, 0x05, 0xd1, 0x3c, 0xea, 0xf0, 0x31, 0x3e, 0x6c, 0x07, 0x8c, 0x3d,
  0x58, 0xcb, 0xdf, 0x3d, 0xc4, 0xed, 0xe3, 0x3d, 0x0f, 0x8e, 0x1e, 0x3e,
  0x92, 0x0a, 0x7d, 0xbe, 0xf0, 0x8d, 0x4b, 0xbe, 0x53, 0xda, 0x03, 0x3e,
  0x62, 0xb6, 0xd3, 0xbc, 0x8c, 0xab, 0x81, 0x3e, 0xd0, 0xf7, 0x59, 0x3d,
  0x01, 0xdb, 0x7f, 0xbe, 0x12, 0xc4, 0xdb, 0xbc, 0x6c, 0xdb, 0xb0, 0xbc,
  0x1e, 0x35, 0x45, 0x3e, 0x32, 0x68, 0xeb, 0xbc, 0xa7, 0xba, 0xbd, 0x3e,
  0xd8, 0xae, 0x26, 0x3c, 0xcf, 0xe6, 0xf0, 0xbd, 0x21, 0x28, 0x01, 0x3b,
  0x41, 0xbb, 0x19, 0x3c, 0xa6, 0x23, 0x50, 0xbe, 0x78, 0x20, 0x7f, 0xbe,
  0x3e, 0x60, 0x78, 0xbd, 0x4a, 0x13, 0x5a, 0xbd, 0xba, 0x8c, 0xe9, 0x3e,
  0xb3, 0x26, 0x26, 0x3e, 0x36, 0xa6, 0x09, 0xbd, 0x6c, 0x59, 0xc8, 0xbd,
  0x19, 0xe4, 0x28, 0xbe, 0xfd, 0x68, 0x8a, 0x3e, 0xd8, 0xc7, 0x43, 0xbd,
  0x9d, 0xda, 0x3b, 0x3e, 0x8d, 0x9f, 0x15, 0xbe, 0x72, 0x55, 0x24, 0x3d,
  0xaf, 0x9d, 0x0b, 0xbe, 0xdd, 0x32, 0x2a, 0xbd, 0xa6, 0x3a, 0xff, 0xbd,
  0xf4, 0x70, 0xeb, 0xbd, 0xf0, 0x2b, 0xdb, 0xbe, 0x08, 0x73, 0x86, 0xbe,
  0x02, 0xa5, 0xb3, 0x3e, 0x90, 0x96, 0x18, 0xbb, 0xae, 0x07, 0x93, 0x3e,
  0x75, 0x4b, 0x36, 0xbe, 0xd0, 0x92, 0x94, 0xbe, 0xdc, 0x5d, 0x5e, 0xbe,
  0x2f, 0x7d, 0x88, 0xbe, 0xf0, 0xba, 0xb4, 0x3d, 0x4d, 0xcc, 0x62, 0xbe,
  0x75, 0x9b, 0xe0, 0xbe, 0x05, 0xc3, 0x8c, 0xbe, 0x67, 0x42, 0x9d, 0xbe,
  0xf9, 0x8b, 0xae, 0x3d, 0x51, 0xb4, 0x90, 0x3d, 0xe7, 0x5e, 0x28, 0xbe,
  0x14, 0x04, 0xc3, 0xbe, 0x27, 0x4c, 0x7c, 0x3e, 0x0b, 0xe9, 0x49, 0x3b,
  0xea, 0x50, 0xbe, 0x3e, 0xba, 0xbd, 0x9f, 0xbe, 0x36, 0xb7, 0x98, 0xbe,
  0x65, 0x09, 0xac, 0x3e, 0xf5, 0x9b, 0x72, 0xbc, 0x28, 0xc4, 0x86, 0xbe,
  0x12, 0x77, 0xbe, 0x3c, 0xb5, 0x86, 0x69, 0xbe, 0xe5, 0xde, 0x1b, 0x3d,
  0x6a, 0x3b, 0x00, 0x3e, 0x42, 0xe8, 0xd9, 0xbe, 0x41, 0xb3, 0x64, 0xbe,
  0x18, 0x09, 0xa3, 0xbe, 0x52, 0x6b, 0x1c, 0x3d, 0x3b, 0xae, 0x21, 0xbe,
  0xba, 0x03, 0x81, 0x3e, 0x5f, 0x0c, 0x26, 0xbe, 0x16, 0x55, 0x16, 0x3e,
  0x7b, 0x3d, 0xf7, 0x3d, 0xef, 0x81, 0xb0, 0xbd, 0xbd, 0x63, 0x1a, 0x3e,
  0xbb, 0x56, 0x67, 0x3d, 0x55, 0x87, 0xf1, 0x3d, 0x25, 0xdf, 0x5e, 0xbe,
  0x4e, 0x81, 0xa0, 0x3d, 0xf7, 0x7d, 0x92, 0x3e, 0x5a, 0x32, 0x1e, 0xbe,
  0x13, 0x5e, 0x30, 0xbe, 0xb7, 0x5f, 0x6b, 0x3c, 0x83, 0x8d, 0x55, 0x3d,
  0x75, 0x4c, 0xbb, 0x3c, 0x6c, 0xcd, 0xb2, 0x3a, 0x4a, 0xc8, 0x01, 0xbd,
  0x90, 0x71, 0x2a, 0x3e, 0xb6, 0xb9, 0x1f, 0x3e, 0xa4, 0x13, 0xf0, 0x3e,
  0x89, 0xf7, 0xb5, 0x3d, 0x26, 0x01, 0x04, 0xbe, 0x2f, 0x1a, 0xc3, 0x3d,
  0xae, 0xcb, 0xed, 0xbd, 0x58, 0xe7, 0xec, 0x3d, 0xa0, 0xd2, 0x62, 0x3d,
  0x61, 0x2f, 0xc8, 0xbc, 0x2c, 0xd8, 0x90, 0xbe, 0x15, 0x1d, 0x8d, 0xbe,
  0x95, 0x69, 0x84, 0x3d, 0x7c, 0xd1, 0xb3, 0x3c, 0x0d, 0x17, 0xbd, 0xbd,
  0xad, 0xa7, 0x42, 0xbe, 0x57, 0x64, 0xbe, 0x3b, 0x47, 0x26, 0x20, 0x3e,
  0x18, 0x8c, 0x0a, 0x3e, 0x56, 0x09, 0xf7, 0x3d, 0x2c, 0xe9, 0xa8, 0x3d,
  0x68, 0x78, 0x84, 0x3e, 0xb8, 0xe9, 0x54, 0x3d, 0xc0, 0x2a, 0x74, 0x3d,
  0xd8, 0x34, 0x36, 0x3e, 0x28, 0xf6, 0x01, 0xbe, 0x84, 0x0c, 0x75, 0xbe,
  0xb7, 0x87, 0x7e, 0x3e, 0x7d, 0xf5, 0xd6, 0x3d, 0x0b, 0xf5, 0x81, 0x3e,
  0x9b, 0x48, 0x7c, 0xbe, 0x13, 0xd0, 0x7c, 0xbe, 0x2b, 0x4e, 0x0f, 0x3e,
  0xb1, 0x87, 0xd8, 0xbd, 0x54, 0x47, 0x91, 0x3e, 0xbc, 0x4a, 0x82, 0x3d,
  0x94, 0xce, 0xb7, 0x3e, 0x03, 0x90, 0x1d, 0xbd, 0x64, 0x2d, 0x18, 0xbe,
  0x45, 0x00, 0xce, 0x3c, 0xb7, 0x19, 0x35, 0x3e, 0xe3, 0x1f, 0x14, 0xbe,
  0xbb, 0x7d, 0x40, 0xbe, 0x9d, 0xd7, 0x04, 0xbe, 0x54, 0x40, 0xdd, 0x3c,
  0x32, 0x6f, 0xa3, 0x3e, 0xf3, 0xca, 0x35, 0xbd, 0x8a, 0x2b, 0x89, 0xbd,
  0x7b, 0xae, 0xc8, 0xbd, 0x77, 0x65, 0x5c, 0xbe, 0xf7, 0xfd, 0xc5, 0x3d,
  0x61, 0x27, 0x35, 0xbe, 0xe8, 0x26, 0x00, 0x3e, 0x56, 0xf4, 0xf7, 0xbd,
  0x7d, 0xc7, 0xbd, 0x3c, 0x70, 0xd1, 0x32, 0xbe, 0x1e, 0xa2, 0xca, 0xbd,
  0xe9, 0x68, 0xcb, 0xbd, 0x66, 0x2b, 0xb3, 0xbe, 0x44, 0x6d, 0xe0, 0xbd,
  0x46, 0xfd, 0x0e, 0xbe, 0x13, 0xf0, 0x9b, 0x3e, 0x7b, 0x90, 0x77, 0xbe,
  0x06, 0x18, 0x00, 0xbc, 0x2e, 0xf1, 0x74, 0xbe, 0x7b, 0x9b, 0x5e, 0xbe,
  0x73, 0xe8, 0x02, 0xbe, 0x60, 0x3b, 0x93, 0xbe, 0x61, 0x35, 0x27, 0xbc,
  0x68, 0xfb, 0x46, 0xbe, 0xa1, 0xe4, 0xa7, 0xbe, 0x9d, 0xc1, 0x89, 0xbe,
  0x3e, 0x72, 0x8d, 0xbe, 0x0a, 0x1d, 0xb9, 0xbd, 0x5b, 0x0c, 0x40, 0xbe,
  0x0f, 0x09, 0x7e, 0xbe, 0xe4, 0x9b, 0x2d, 0xbd, 0x9e, 0x1e, 0x02, 0x3e,
  0x28, 0xb1, 0x22, 0xbe, 0x4a, 0x3e, 0xf1, 0x3d, 0xc4, 0x22, 0xa9, 0xbe,
  0xc6, 0x0e, 0x9d, 0xbe, 0xb6, 0x9e, 0x96, 0x3e, 0x4d, 0x66, 0xb8, 0x3d,
  0xae, 0x2f, 0x98, 0xbe, 0x00, 0x7e, 0xbf, 0x3c, 0x6c, 0x39, 0x38, 0xbe,
  0x09, 0x95, 0xc4, 0xbd, 0x47, 0xc7, 0xb8, 0x3d, 0x91, 0xa1, 0x5c, 0xbd,
  0x63, 0x50, 0x8b, 0xbe, 0x37, 0xf3, 0x1d, 0xba, 0xe1, 0x7e, 0x9d, 0xbe,
  0xb2, 0x65, 0x10, 0x3d, 0x9d, 0xab, 0x96, 0x3d, 0x72, 0x64, 0xe5, 0xbe,
  0xdc, 0x6c, 0x21, 0xbc, 0xd1, 0x06, 0x04, 0xbe, 0x76, 0xd7, 0x82, 0x3e,
  0xa5, 0x7c, 0xf6, 0x3d, 0x9f, 0x9f, 0x69, 0xbe, 0x90, 0x67, 0x30, 0xbe,
  0x86, 0x7f, 0x1f, 0xbe, 0xe1, 0xf5, 0x49, 0xbe, 0xe4, 0x11, 0xfe, 0x3d,
  0x39, 0xc2, 0x4c, 0xbe, 0x90, 0x78, 0x63, 0x3e, 0x39, 0x08, 0x58, 0x3d,
  0x33, 0xcd, 0x84, 0x3d, 0x5b, 0x35, 0x01, 0x3e, 0xcb, 0xed, 0x33, 0x3e,
  0x69, 0x6f, 0xa8, 0x3d, 0x60, 0xfa, 0x23, 0xbd, 0xea, 0x22, 0xb9, 0xbd,
  0xf1, 0x99, 0x2d, 0x3e, 0x97, 0x7a, 0x7c, 0x3e, 0x0f, 0xc7, 0xed, 0xbd,
  0x1a, 0x1e, 0x40, 0x3e, 0xa1, 0x96, 0x80, 0xbd, 0x10, 0x43, 0xdb, 0xbd,
  0xf0, 0xc8, 0x36, 0x3c, 0xae, 0xe9, 0x65, 0xbe, 0x06, 0x30, 0x80, 0xbe,
  0x20, 0xdd, 0xf5, 0xbd, 0x97, 0xf9, 0xb6, 0x3d, 0x26, 0x12, 0x3a, 0x3e,
  0x2e, 0xe9, 0x85, 0xbe, 0x83, 0x3e, 0xcb, 0xbd, 0x61, 0x9a, 0x34, 0x3e,
  0x7e, 0x6f, 0x86, 0xbe, 0x87, 0xac, 0xce, 0x3d, 0x15, 0x86, 0x98, 0x3d,
  0xcb, 0x32, 0x57, 0x3d, 0x7d, 0xb8, 0x80, 0x3b, 0x6f, 0xc0, 0x4d, 0x3e,
  0x58, 0x1b, 0xbf, 0x3d, 0xfa, 0x8b, 0xce, 0xbd, 0xeb, 0x46, 0x0e, 0x3e,
  0xd9, 0x79, 0x83, 0xbe, 0x59, 0xc5, 0xe4, 0xbd, 0x1f, 0xdb, 0xdd, 0xbd,
  0x58, 0x5f, 0x82, 0x3e, 0x37, 0x85, 0x1a, 0xbe, 0xbb, 0x05, 0x6a, 0x3e,
  0xc4, 0x23, 0x6c, 0x3d, 0xec, 0x26, 0x0d, 0xbe, 0xde, 0x6f, 0x9d, 0x3e,
  0xb9, 0x2f, 0x3d, 0xbd, 0x77, 0x40, 0x30, 0x3e, 0x07, 0x06, 0xf8, 0xbb,
  0xdb, 0x31, 0x01, 0xbe, 0xeb, 0x7e, 0xfc, 0xbd, 0xc1, 0xf1, 0x5b, 0xbe,
  0x28, 0xcb, 0x88, 0x3d, 0x0e, 0x02, 0xd0, 0xbe, 0xdd, 0x87, 0x1f, 0xbe,
  0xb5, 0xd3, 0xb4, 0xbc, 0xc7, 0x8b, 0x61, 0x3d, 0x95, 0xe8, 0x18, 0xbe,
  0x7a, 0x92, 0x81, 0xbd, 0xd9, 0x44, 0xfb, 0xbc, 0x24, 0xc7, 0x0c, 0xbe,
  0xbb, 0x32, 0x26, 0x3e, 0x2b, 0xdb, 0xa5, 0xbd, 0x95, 0x8c, 0x59, 0x3d,
  0x40, 0x3a, 0x56, 0xbd, 0xa7, 0x3c, 0x96, 0x3d, 0xe3, 0x81, 0x14, 0xbe,
  0xa8, 0x11, 0x8e, 0xbd, 0x84, 0xfd, 0xc5, 0xbd, 0x6b, 0x69, 0x81, 0xbe,
  0xba, 0xd1, 0xc1, 0xbe, 0x4a, 0xc1, 0x44, 0xbe, 0x14, 0x8e, 0x82, 0x3e,
  0x5c, 0xa9, 0x00, 0xbe, 0x2a, 0xab, 0x9f, 0x3d, 0x02, 0x76, 0x45, 0xbe,
  0x46, 0xd2, 0x4b, 0xbe, 0x62, 0x76, 0xd3, 0xbc, 0x91, 0x6f, 0x59, 0xbe,
  0x9e, 0x1c, 0x78, 0xbe, 0x14, 0xdf, 0x62, 0xbe, 0x21, 0xff, 0xc9, 0xbe,
  0xbe, 0x77, 0xb9, 0xbe, 0x9e, 0xbb, 0x16, 0xbe, 0x19, 0x66, 0xee, 0xbd,
  0xf4, 0x76, 0x2f, 0xbe, 0xd2, 0x12, 0x46, 0x3d, 0x2a, 0x6b, 0x9b, 0xbe,
  0xfd, 0xb3, 0x05, 0x3e, 0xa1, 0xc5, 0xdd, 0x3b, 0x3f, 0x94, 0xba, 0xbd,
  0xb3, 0x86, 0x40, 0xbe, 0x0d, 0x76, 0xe9, 0xbe, 0x19, 0x9e, 0xdf, 0x3d,
  0x10, 0x97, 0x65, 0xbe, 0x29, 0xca, 0xa0, 0xbd, 0x4f, 0x12, 0x76, 0xbe,
  0xc7, 0xf9, 0xa3, 0x3d, 0x02, 0xd0, 0x97, 0xbe, 0x08, 0x8a, 0x71, 0xbe,
  0xf9, 0x4c, 0x0c, 0x3d, 0xad, 0xff, 0xd6, 0xbd, 0xbc, 0xea, 0x70, 0x3e,
  0xee, 0xdf, 0x62, 0xbe, 0x64, 0xdd, 0xa2, 0x3e, 0x5b, 0x51, 0xc4, 0xbe,
  0x8b, 0xd0, 0xca, 0x3d, 0x1d, 0x6d, 0x68, 0xbe, 0x47, 0x22, 0x72, 0xbe,
  0xc5, 0xc4, 0x99, 0x3e, 0xb7, 0xc8, 0x8d, 0xbe, 0xfa, 0x3f, 0x97, 0x3d,
  0x66, 0xa5, 0x8e, 0xbc, 0xa9, 0x59, 0x00, 0x3e, 0x01, 0xcc, 0xc3, 0xbe,
  0x1c, 0x14, 0x5f, 0xbe, 0x16, 0xf5, 0x5b, 0xbd, 0x36, 0x30, 0xc4, 0x3d,
  0xbe, 0x82, 0xff, 0x3e, 0x1d, 0xe8, 0x55, 0xbe, 0x4b, 0x9f, 0x05, 0x3c,
  0x34, 0x49, 0x0a, 0x3e, 0x64, 0xee, 0x81, 0x3e, 0x15, 0x23, 0x43, 0xbe,
  0x65, 0xf5, 0xd4, 0xbd, 0xea, 0x21, 0xa9, 0x3e, 0x4c, 0xb4, 0xf3, 0xbc,
  0x7b, 0x42, 0x2a, 0x3d, 0x38, 0x47, 0x51, 0xbe, 0x49, 0x9c, 0xca, 0x3c,
  0x69, 0xf1, 0x10, 0xbd, 0xe1, 0x6f, 0xbf, 0xbd, 0x6d, 0x3a, 0xb7, 0x3d,
  0x85, 0x47, 0x95, 0xbc, 0xca, 0x6a, 0x92, 0x3e, 0x44, 0x1d, 0xce, 0x3d,
  0x44, 0x98, 0x9e, 0x3d, 0xbf, 0xf7, 0xad, 0xbd, 0xb8, 0x96, 0x08, 0x3e,
  0x1d, 0xbb, 0xe9, 0xbd, 0x25, 0x07, 0xec, 0xbd, 0x7f, 0x3c, 0xa3, 0xbd,
  0x8c, 0x4b, 0xc2, 0x3d, 0x81, 0xf7, 0x5f, 0xbd, 0xe7, 0x1e, 0x65, 0x3d,
  0x2b, 0x9b, 0x11, 0x3d, 0x45, 0xc0, 0xd7, 0xbd, 0xeb, 0x0f, 0x0c, 0xbe,
  0xbf, 0x86, 0xf1, 0xbd, 0x8e, 0x3e, 0xbb, 0x3d, 0xd3, 0x11, 0xc5, 0x3e,
  0xbf, 0x8b, 0x02, 0xbe, 0x0a, 0x9b, 0xa4, 0x3d, 0x09, 0xf0, 0xe4, 0x3d,
  0x31, 0xcc, 0x4a, 0xbe, 0x09, 0x4b, 0x22, 0x3e, 0x80, 0x01, 0x34, 0x3e,
  0xa9, 0xd2, 0x83, 0xbc, 0xc1, 0x88, 0x27, 0xbc, 0x68, 0x53, 0x63, 0xbe,
  0xe2, 0x65, 0x0b, 0xbd, 0x5c, 0x72, 0x06, 0xbe, 0x7d, 0x1a, 0x0a, 0xbe,
  0x4b, 0xb0, 0x0e, 0x3e, 0xc9, 0x2e, 0x2d, 0xbd, 0xe0, 0x61, 0x67, 0x3e,
  0x6b, 0x1d, 0x82, 0x3e, 0x45, 0xac, 0x6e, 0x3e, 0x77, 0xad, 0x35, 0x3d,
  0x00, 0x4e, 0xb0, 0x3d, 0xed, 0xa9, 0x0f, 0xbe, 0x85, 0xbd, 0x32, 0x3e,
  0x5d, 0x5e, 0x88, 0x3d, 0x75, 0xfd, 0xba, 0x3e, 0x7b, 0xf9, 0x5f, 0x3e,
  0x25, 0xe2, 0xa8, 0xbd, 0x56, 0x5d, 0x3b, 0x3e, 0x64, 0xf0, 0x06, 0xbe,
  0x22, 0xd2, 0x69, 0x3d, 0x12, 0x44, 0x53, 0x3e, 0xe3, 0x12, 0x2b, 0xbe,
  0x68, 0x9a, 0xd0, 0x3e, 0x35, 0x16, 0x2a, 0x3f, 0xfd, 0x2c, 0xae, 0x3d,
  0x91, 0xcb, 0x3c, 0x3e, 0x31, 0x95, 0x32, 0x3e, 0x26, 0x60, 0x1b, 0x3e,
  0x5c, 0xb8, 0x01, 0x3e, 0xef, 0x41, 0xbc, 0xbc, 0x01, 0x98, 0x06, 0x3e,
  0xc1, 0x74, 0xa4, 0x3e, 0x74, 0x81, 0x2d, 0xbe, 0x72, 0x40, 0x91, 0x3e,
  0xd2, 0x85, 0x05, 0xbe, 0x0e, 0x2a, 0x07, 0x3e, 0xe8, 0xee, 0xd8, 0x3d,
  0x2e, 0x3e, 0x26, 0xbe, 0xb6, 0xd6, 0x77, 0x3e, 0xbb, 0x50, 0xba, 0x3d,
  0xc6, 0xe0, 0x82, 0x3c, 0xa4, 0x1c, 0x25, 0xbe, 0x37, 0xec, 0xde, 0xb8,
  0x54, 0xf9, 0x1a, 0xbe, 0xd8, 0xd8, 0x38, 0x3e, 0xac, 0xda, 0xd2, 0x3d,
  0xd2, 0xb1, 0xeb, 0x3e, 0x26, 0xf4, 0xb3, 0x3e, 0x16, 0x97, 0x25, 0xbe,
  0x17, 0x36, 0x5e, 0x3e, 0x6a, 0x39, 0x06, 0xbe, 0x15, 0x4e, 0x2b, 0x3e,
  0x9f, 0x6f, 0xbc, 0x3d, 0xdd, 0xf3, 0x0a, 0xbe, 0x1f, 0x33, 0x4b, 0xbc,
  0xc9, 0x51, 0x33, 0xbe, 0x65, 0x70, 0xdf, 0x3d, 0x0c, 0x02, 0x26, 0xbe,
  0xc9, 0x94, 0x1a, 0x3e, 0x67, 0x82, 0xc4, 0xbd, 0xdf, 0x79, 0xd0, 0xbd,
  0xda, 0xeb, 0x35, 0x3c, 0x73, 0xd0, 0x6f, 0x3e, 0x54, 0x0e, 0x12, 0x3d,
  0x64, 0xf7, 0xa3, 0xbe, 0x58, 0x20, 0x73, 0x3d, 0xbf, 0xad, 0xa5, 0xbc,
  0xb7, 0x5b, 0x53, 0x3e, 0x84, 0xfc, 0x8d, 0x3c, 0xd4, 0xc7, 0x8a, 0xbe,
  0x6e, 0xd1, 0xa0, 0xbc, 0x87, 0x28, 0x14, 0x3e, 0x3b, 0x92, 0x02, 0x3e,
  0x17, 0x7b, 0x0d, 0xbe, 0x3d, 0x79, 0x33, 0x3e, 0x9d, 0xcc, 0x7d, 0xbd,
  0x0d, 0xcf, 0x0a, 0x3e, 0xeb, 0xf4, 0xc7, 0xbb, 0xeb, 0x6d, 0x8a, 0x3d,
  0xfe, 0xcc, 0x4f, 0x3e, 0xaa, 0xc7, 0xef, 0x3c, 0x26, 0x4d, 0x9b, 0x3d,
  0xfd, 0x01, 0x3d, 0x3e, 0x9a, 0x9c, 0x53, 0xbd, 0x6e, 0x49, 0x51, 0x3e,
  0xfc, 0xaa, 0x0c, 0xbd, 0x4a, 0x42, 0x66, 0xbe, 0xdd, 0xf9, 0xa0, 0xbc,
  0x3e, 0xe9, 0x25, 0xbe, 0x19, 0x05, 0xb1, 0x3e, 0x4b, 0x9f, 0x20, 0x3e,
  0xf4, 0x65, 0x83, 0x3d, 0xe6, 0x1f, 0x33, 0x3e, 0x3f, 0x1d, 0x5b, 0xbb,
  0x3e, 0xec, 0xfa, 0x3e, 0x30, 0x7b, 0x9f, 0xbc, 0xd5, 0x6d, 0x57, 0xbd,
  0x8b, 0x8f, 0xd2, 0x3d, 0xa6, 0x29, 0x7b, 0x3d, 0x39, 0xa5, 0x0a, 0x3d,
  0x43, 0x32, 0x1a, 0x3e, 0xad, 0xf3, 0x47, 0xbd, 0xab, 0x0a, 0xfd, 0xbd,
  0x40, 0x25, 0xc0, 0xbd, 0x64, 0xc2, 0x50, 0xbe, 0x58, 0x0e, 0x6d, 0xbc,
  0xcb, 0xd7, 0xa4, 0xbe, 0xa0, 0x00, 0xf1, 0x3d, 0xea, 0x8d, 0x03, 0x3e,
  0xe4, 0xcc, 0xdd, 0xbd, 0x1a, 0x3c, 0x19, 0x3e, 0x8c, 0xdb, 0x14, 0xbe,
  0xb8, 0xd9, 0x10, 0x3e, 0x29, 0xce, 0x3d, 0xbe, 0xfe, 0xcd, 0x68, 0x3e,
  0x1a, 0x96, 0xa9, 0xbd, 0x78, 0x52, 0x97, 0xbd, 0xb2, 0x69, 0xfe, 0x3d,
  0x2c, 0x20, 0xe5, 0xbd, 0xea, 0x85, 0xdd, 0xbd, 0x99, 0x0d, 0xfc, 0x3c,
  0xb8, 0x36, 0xba, 0x3d, 0x2d, 0x83, 0x7f, 0xbe, 0x5c, 0x22, 0xbd, 0x3d,
  0xc5, 0xc0, 0x4a, 0xbb, 0x7c, 0x12, 0xc5, 0xba, 0xdb, 0x64, 0x7c, 0x3d,
  0xa8, 0x53, 0xaa, 0xbe, 0xc6, 0xf8, 0x2c, 0xbc, 0xc3, 0x4c, 0x32, 0xbe,
  0x19, 0x73, 0x0d, 0xbe, 0xd9, 0x07, 0x93, 0xbd, 0x43, 0xfb, 0x50, 0xbe,
  0x80, 0x19, 0x7d, 0xbd, 0x6b, 0x4d, 0x12, 0x3e, 0x31, 0x36, 0x93, 0xbd,
  0xd5, 0xd4, 0xd0, 0xbd, 0x31, 0x78, 0xb8, 0x3e, 0x07, 0x79, 0x2d, 0xbe,
  0x50, 0xda, 0xa2, 0x3d, 0xe4, 0xdb, 0x0b, 0xbe, 0xda, 0xb3, 0xbd, 0xbe,
  0x3d, 0x56, 0x1f, 0xbe, 0x4f, 0x1f, 0xe2, 0xbe, 0xec, 0x51, 0x04, 0x3e,
  0x8b, 0x2e, 0x9f, 0xbe, 0xca, 0x9a, 0xc2, 0xbe, 0xca, 0x2e, 0x48, 0xbe,
  0x5b, 0x4a, 0xec, 0xbe, 0x73, 0x53, 0x40, 0x3e, 0x16, 0x7a, 0x27, 0xbd,
  0xdb, 0x02, 0xa6, 0xbd, 0xa4, 0xa9, 0x99, 0xbe, 0x3f, 0xc6, 0x24, 0x3e,
  0xae, 0x6d, 0xad, 0xbd, 0xc3, 0x20, 0xf8, 0xbd, 0x5b, 0xf6, 0xd2, 0xbe,
  0x50, 0x82, 0xa0, 0xbe, 0xa4, 0xd2, 0x8d, 0xbd, 0xa0, 0x51, 0xd6, 0x3b,
  0xde, 0xb4, 0xc8, 0xbb, 0x52, 0x23, 0x1b, 0xbe, 0x5d, 0xd5, 0x39, 0x3e,
  0x85, 0xe1, 0xad, 0x3e, 0xf0, 0x88, 0x8b, 0xbd, 0x1d, 0x16, 0x8c, 0x3e,
  0x1a, 0xfa, 0xe0, 0xbd, 0xaf, 0x34, 0xc4, 0x3d, 0x42, 0x1f, 0x4e, 0xbd,
  0xc8, 0x2a, 0x0b, 0x3e, 0x7c, 0x1c, 0x0b, 0xbe, 0xf4, 0x86, 0xc5, 0xbe,
  0xf1, 0xab, 0xa4, 0x3d, 0x12, 0x35, 0x70, 0xbd, 0xf2, 0x23, 0x28, 0xbe,
  0x08, 0x23, 0x07, 0xbe, 0x0e, 0x00, 0xcf, 0xbd, 0x18, 0x9a, 0x91, 0xbe,
  0x04, 0x2d, 0x1e, 0x3e, 0xa6, 0x09, 0x89, 0xbd, 0x19, 0xd0, 0x85, 0xbe,
  0x6c, 0xe8, 0xb7, 0x3d, 0xb5, 0x21, 0xc2, 0xbe, 0xf5, 0x48, 0x68, 0x3e,
  0xac, 0x6c, 0x31, 0x3c, 0x3c, 0x46, 0x8e, 0xbe, 0xd0, 0xc7, 0xf3, 0xbe,
  0xd0, 0xba, 0x15, 0xbf, 0x35, 0x14, 0x95, 0xbe, 0x28, 0x22, 0x7d, 0x3d,
  0xcc, 0x0a, 0xda, 0x3c, 0xac, 0x90, 0xd2, 0xbc, 0x44, 0x03, 0x59, 0x3d,
  0x34, 0xcc, 0xcd, 0xbe, 0xf7, 0x2b, 0x33, 0x3e, 0x14, 0x67, 0xb1, 0xbc,
  0x63, 0x64, 0x09, 0xbd, 0x9c, 0x8b, 0xd8, 0xbd, 0xea, 0x2f, 0xaf, 0xbe,
  0x55, 0xe1, 0xf9, 0x3d, 0xf8, 0x71, 0x46, 0xbe, 0x9d, 0x2d, 0xee, 0xbe,
  0xea, 0x2a, 0x3e, 0xbe, 0x07, 0x06, 0xf2, 0xbe, 0xcd, 0x0f, 0xad, 0xbe,
  0x37, 0x6a, 0x64, 0xbd, 0xd7, 0x61, 0x3f, 0xbe, 0xc8, 0x60, 0x8f, 0x3d,
  0x9d, 0xc7, 0x17, 0x3e, 0x75, 0x3f, 0xaa, 0xbe, 0xc7, 0xc3, 0xec, 0x3c,
  0xcb, 0xf1, 0x8e, 0x3d, 0x1a, 0xbd, 0x82, 0xbe, 0x44, 0xaa, 0x3e, 0xbe,
  0xb3, 0xa3, 0xa0, 0xbd, 0x63, 0x71, 0xf0, 0x3d, 0x42, 0xcf, 0xd2, 0xbd,
  0x33, 0x67, 0x1c, 0xbf, 0x7c, 0x7e, 0xc8, 0xbe, 0x19, 0x81, 0xfe, 0xbe,
  0x16, 0xc8, 0xa3, 0xbe, 0xfb, 0x5d, 0x5e, 0x3e, 0x51, 0x14, 0x6a, 0xbd,
  0x26, 0x66, 0xd8, 0xbd, 0xb0, 0xe0, 0x30, 0x3e, 0xc8, 0xdc, 0x8f, 0xbe,
  0x01, 0x45, 0x26, 0xbe, 0x9a, 0x3a, 0x93, 0x3c, 0x6f, 0xf3, 0xa5, 0xbd,
  0xdf, 0x53, 0x36, 0x3e, 0x96, 0x1f, 0x9e, 0xbe, 0x2b, 0x33, 0x5c, 0x3e,
  0xfd, 0xd4, 0x30, 0x3e, 0x23, 0x56, 0xf3, 0xbe, 0x8e, 0xe0, 0x03, 0xbf,
  0xd8, 0x11, 0xaf, 0xbe, 0xf3, 0x61, 0x06, 0xbe, 0x47, 0x73, 0xc4, 0x3d,
  0x0c, 0xdf, 0x8d, 0xbe, 0xbf, 0x6f, 0xfa, 0xbd, 0x07, 0x49, 0x02, 0x3e,
  0x05, 0x2d, 0x81, 0xbe, 0x0e, 0xc3, 0x56, 0x3e, 0x77, 0xba, 0x81, 0x3e,
  0xc8, 0x1b, 0x41, 0xbe, 0xb7, 0x78, 0x3d, 0x3e, 0xcf, 0x69, 0xd7, 0xbe,
  0x80, 0x3e, 0xba, 0xbc, 0xb8, 0x78, 0x53, 0x3e, 0x20, 0x93, 0x3b, 0xbe,
  0x83, 0xb1, 0xe9, 0xbe, 0x79, 0x44, 0x3a, 0xbf, 0xa9, 0x4d, 0xc4, 0x3d,
  0xa5, 0xfe, 0x88, 0xbc, 0xb0, 0x37, 0x19, 0xbe, 0xfe, 0x4c, 0x12, 0xbd,
  0x9b, 0x40, 0x9a, 0x3e, 0xb6, 0x35, 0x62, 0xbe, 0xd3, 0xf7, 0xd5, 0x3c,
  0xd7, 0x99, 0x2e, 0x3e, 0x45, 0xea, 0x0c, 0xbe, 0x4e, 0xe6, 0x8e, 0x3e,
  0xe8, 0x24, 0x97, 0xbe, 0xd9, 0xa2, 0x94, 0xbd, 0x80, 0xaa, 0x0f, 0x3d,
  0x67, 0x0b, 0x03, 0xbf, 0xb9, 0x3d, 0x81, 0xbe, 0x0e, 0x39, 0xd8, 0xbe,
  0x15, 0x63, 0x75, 0xbe, 0x67, 0x01, 0x42, 0x3d, 0xab, 0x34, 0x97, 0xbe,
  0xc1, 0x38, 0x0b, 0xbf, 0xbc, 0x10, 0x21, 0xbf, 0xb5, 0xff, 0xf9, 0xbe,
  0x01, 0x6f, 0x37, 0xbf, 0x2f, 0x11, 0x0a, 0xbe, 0x67, 0x38, 0x01, 0xbf,
  0x6a, 0x66, 0x09, 0xbf, 0x8a, 0x59, 0x6c, 0xbe, 0x71, 0x87, 0x08, 0xbe,
  0x94, 0xca, 0x54, 0xbf, 0xbc, 0x6d, 0x48, 0x3e, 0xc3, 0xd7, 0x09, 0xbe,
  0x89, 0x3a, 0xae, 0xbd, 0x70, 0x01, 0xa0, 0xbe, 0xac, 0x06, 0x57, 0xbf,
  0x4a, 0x7d, 0x44, 0xbe, 0x63, 0xd6, 0xba, 0xbe, 0xf1, 0xc4, 0x2b, 0xbe,
  0x73, 0x46, 0xb7, 0xbe, 0x40, 0x6e, 0x3e, 0xbe, 0x4f, 0xf1, 0x6c, 0xbe,
  0x46, 0x68, 0xc1, 0xbe, 0x70, 0x28, 0xf8, 0xbd, 0x38, 0x17, 0x63, 0x3e,
  0x0b, 0xdf, 0x6f, 0xbd, 0xd3, 0xad, 0x22, 0xbb, 0x85, 0x41, 0xe1, 0xbc,
  0xd9, 0x63, 0x03, 0xbe, 0x17, 0x63, 0x80, 0x3e, 0x9b, 0x45, 0x82, 0xbe,
  0xa0, 0xb4, 0x72, 0xbe, 0x02, 0x70, 0x95, 0xbd, 0xd3, 0xbc, 0x18, 0xbd,
  0x42, 0x33, 0x44, 0xbe, 0xfa, 0x69, 0xf8, 0xbe, 0x67, 0x7f, 0x5c, 0xbe,
  0x02, 0x5a, 0x01, 0xbf, 0x2a, 0x82, 0xa5, 0xbe, 0x93, 0xc9, 0x07, 0xbe,
  0x8d, 0x16, 0x67, 0x3e, 0x5d, 0xbe, 0xd2, 0xbd, 0x39, 0xb8, 0x5b, 0xbe,
  0x51, 0xa5, 0xce, 0x3b, 0x91, 0x6b, 0x87, 0x3e, 0x06, 0xcf, 0x6f, 0x3d,
  0x41, 0x07, 0x55, 0xbe, 0x16, 0x7a, 0xac, 0xbe, 0x08, 0x78, 0xae, 0xbe,
  0xd1, 0x04, 0xe2, 0xbc, 0x53, 0xd4, 0xb3, 0xbe, 0xf6, 0xdc, 0x04, 0xbf,
  0xc1, 0x77, 0xb1, 0xbe, 0x5f, 0x35, 0xf5, 0xbd, 0x12, 0x6a, 0xe0, 0xbe,
  0x17, 0x10, 0xab, 0xbe, 0x17, 0xff, 0x2f, 0x3e, 0x71, 0xd8, 0x46, 0xbd,
  0x16, 0x95, 0x1f, 0xbd, 0x25, 0x88, 0xfb, 0x3d, 0x6a, 0x5b, 0x0c, 0x3c,
  0xaf, 0xd9, 0x12, 0xbe, 0xbf, 0xc7, 0x2b, 0xbe, 0xd8, 0xe4, 0xeb, 0xbe,
  0xd4, 0xd8, 0xa8, 0xb9, 0x0e, 0x95, 0x1e, 0xbf, 0x8d, 0xde, 0xf9, 0xbd,
  0x96, 0x09, 0x43, 0xbf, 0x7f, 0xde, 0xa1, 0xbe, 0x43, 0xdc, 0xf6, 0xbe,
  0xd3, 0x68, 0x07, 0xbf, 0xfa, 0xb7, 0x95, 0xbe, 0xa6, 0x9a, 0x32, 0x3e,
  0xd5, 0x10, 0x4e, 0xbd, 0x47, 0x0f, 0x8a, 0xbe, 0x17, 0x61, 0xc8, 0x3d,
  0xd9, 0x08, 0x7f, 0x3e, 0xca, 0x7e, 0x11, 0x3e, 0x14, 0xb1, 0x0c, 0x3e,
  0x03, 0xd5, 0x86, 0xbe, 0x93, 0x25, 0xf8, 0xbe, 0x80, 0x55, 0x42, 0xbf,
  0x97, 0x40, 0xc9, 0xbd, 0x69, 0xf5, 0x0c, 0xbf, 0xab, 0xdc, 0x09, 0xbe,
  0xad, 0xcd, 0x6d, 0xbe, 0xc4, 0xf6, 0xf7, 0xbe, 0x83, 0x41, 0xab, 0xbc,
  0x8a, 0xc0, 0x74, 0x3e, 0xd2, 0xfe, 0xbd, 0xbd, 0x0a, 0x6b, 0x56, 0xbe,
  0x41, 0xe0, 0x22, 0x3d, 0xc7, 0xc5, 0x26, 0xbd, 0x28, 0x79, 0xa1, 0x3d,
  0xe2, 0x9b, 0xad, 0xbe, 0x42, 0xf0, 0x99, 0xbe, 0x26, 0x71, 0x3a, 0xbe,
  0xff, 0x3a, 0xbe, 0xbe, 0x79, 0xc4, 0xdd, 0xbe, 0x46, 0x8c, 0xd6, 0xbe,
  0xe9, 0xa5, 0x46, 0xbe, 0xf6, 0x73, 0xb0, 0xbe, 0xd7, 0xf1, 0xe8, 0xbe,
  0xc5, 0x66, 0x83, 0x3c, 0x25, 0xec, 0xcc, 0x3d, 0x11, 0x80, 0xbc, 0xbe,
  0x11, 0xd7, 0xe1, 0xbe, 0xc1, 0x0b, 0xdd, 0xbd, 0xe9, 0x8c, 0xcb, 0x3d,
  0xfa, 0xb7, 0xf3, 0x3c, 0x0a, 0xd2, 0xa1, 0xbe, 0x48, 0xe0, 0xc4, 0xbe,
  0x53, 0xec, 0xb5, 0xbe, 0xf3, 0x9f, 0xdb, 0x3b, 0x1b, 0x91, 0x8d, 0x3e,
  0xc4, 0x85, 0x6b, 0x3b, 0xed, 0x2a, 0x9c, 0x3e, 0x95, 0xa9, 0x51, 0xba,
  0x22, 0x12, 0x9f, 0xbd, 0x65, 0xa9, 0x9e, 0x3e, 0xd0, 0x68, 0xa4, 0xbc,
  0x51, 0x9b, 0xa7, 0x3e, 0xc3, 0xd6, 0xa2, 0x3d, 0x91, 0xa1, 0xf0, 0xbc,
  0x42, 0x30, 0x82, 0x3d, 0xbc, 0x21, 0x2b, 0xbf, 0x56, 0x28, 0x2a, 0xbe,
  0xb9, 0x5e, 0x82, 0x3d, 0x5b, 0x36, 0x14, 0xbd, 0x3a, 0x00, 0xd4, 0xbc,
  0x29, 0x83, 0xcd, 0x3d, 0x3f, 0xf7, 0xed, 0xbe, 0xea, 0x92, 0x0d, 0x3d,
  0x56, 0xf1, 0x5e, 0x3e, 0xc0, 0xe5, 0x7a, 0xbe, 0xbe, 0x96, 0x80, 0x3e,
  0x7c, 0x73, 0x9f, 0xbe, 0xd6, 0xf5, 0xa4, 0x3e, 0xc8, 0xc8, 0x18, 0xbd,
  0x47, 0x36, 0x76, 0xbf, 0x1c, 0x0c, 0x62, 0xbf, 0x05, 0xb2, 0x9f, 0xbf,
  0xc7, 0xeb, 0x38, 0xbe, 0xcb, 0xb0, 0x1b, 0xbe, 0x24, 0xc2, 0xc2, 0xbe,
  0x59, 0x8b, 0x87, 0xbe, 0xae, 0xc6, 0xaa, 0x3d, 0x4f, 0xa8, 0x81, 0xbe,
  0xec, 0x10, 0x46, 0x3e, 0xc5, 0x46, 0x87, 0xbc, 0xc7, 0x87, 0xb6, 0xbd,
  0xb7, 0xfc, 0xf5, 0xbd, 0x11, 0x84, 0x6a, 0xbe, 0xb2, 0xca, 0x98, 0x3e,
  0xc5, 0xe4, 0xbd, 0x3d, 0x24, 0x30, 0x92, 0xbf, 0xa7, 0x8a, 0x6c, 0xbf,
  0x64, 0x93, 0x87, 0xbf, 0xae, 0xa0, 0x7b, 0xbe, 0x65, 0x2f, 0x6b, 0x3e,
  0xf9, 0x24, 0xf7, 0xbe, 0xef, 0xc5, 0x35, 0x3d, 0x51, 0x42, 0x26, 0x3e,
  0x51, 0x3b, 0x5c, 0xbe, 0x5f, 0xd0, 0xee, 0x3d, 0x42, 0x55, 0xd3, 0x3d,
  0x0d, 0xcc, 0x72, 0xbe, 0x68, 0x1c, 0x89, 0xbe, 0x55, 0x30, 0xa9, 0xbe,
  0x46, 0xd0, 0xa0, 0xbd, 0x4a, 0x24, 0xaf, 0x3d, 0xb8, 0xa9, 0x84, 0xbf,
  0xdb, 0xaa, 0x06, 0xbf, 0xd3, 0x26, 0x9d, 0xbf, 0x42, 0x2b, 0x3b, 0xbe,
  0x81, 0x8f, 0x44, 0xbe, 0xd5, 0xb9, 0xef, 0xbe, 0x17, 0x88, 0xbd, 0x3c,
  0x54, 0xf1, 0x5d, 0x3d, 0xde, 0xc6, 0x5a, 0xbe, 0xd4, 0xc8, 0x2d, 0x3e,
  0xe8, 0x58, 0x17, 0x3d, 0xf7, 0x36, 0xa3, 0xbd, 0x66, 0x07, 0x6b, 0x3e,
  0x98, 0x33, 0x3a, 0xbe, 0xdf, 0xa8, 0x04, 0x3d, 0x9f, 0x0f, 0x3f, 0xbd,
  0x1b, 0x26, 0x13, 0xbf, 0x1e, 0x3b, 0xe4, 0xbe, 0x73, 0xbb, 0x84, 0xbf,
  0x66, 0xf1, 0x8a, 0xbe, 0x43, 0x36, 0x4f, 0xbe, 0x18, 0x1e, 0xd4, 0xbe,
  0x95, 0xf9, 0x22, 0xbe, 0x3a, 0x0e, 0xd5, 0x3d, 0x0d, 0x1a, 0xc4, 0xbe,
  0x54, 0x3d, 0x58, 0x3e, 0x49, 0x9e, 0x11, 0x3e, 0xeb, 0xd7, 0x39, 0x3d,
  0x3e, 0xcc, 0x21, 0xbd, 0x8d, 0x93, 0xbd, 0xbe, 0x05, 0x93, 0x0b, 0x3e,
  0xa4, 0x50, 0x0d, 0x3c, 0x02, 0x3a, 0x74, 0xbf, 0xa6, 0x00, 0x35, 0xbf,
  0x88, 0x0a, 0x56, 0xbf, 0x5d, 0x0e, 0xb9, 0xbd, 0x40, 0x5c, 0x72, 0xbc,
  0x5d, 0xc6, 0x5f, 0x3e, 0x08, 0x65, 0xe0, 0xbd, 0x92, 0xbf, 0xf4, 0x3e,
  0xfb, 0xb5, 0x76, 0xbe, 0x43, 0xb4, 0xfc, 0xbd, 0xd1, 0x2e, 0xb2, 0x3d,
  0x0b, 0xf9, 0xb3, 0xbd, 0x25, 0x96, 0xa9, 0x3e, 0x38, 0xbf, 0xb1, 0xbe,
  0x67, 0xeb, 0x55, 0x3e, 0xd7, 0x3d, 0x89, 0x3d, 0x61, 0xb9, 0x95, 0xbe,
  0xa2, 0xce, 0x01, 0xbf, 0x10, 0xab, 0xee, 0xbe, 0xb2, 0xf0, 0xe0, 0xbd,
  0x98, 0x3b, 0xf1, 0x3d, 0x53, 0xf0, 0x02, 0x3d, 0x28, 0x57, 0x98, 0xbe,
  0x76, 0x10, 0x23, 0x3e, 0x29, 0xbd, 0x6e, 0xbd, 0x1d, 0xeb, 0xb7, 0xbd,
  0x93, 0xc5, 0x3e, 0xbe, 0x94, 0x32, 0x0c, 0xbe, 0xc7, 0xd9, 0xc2, 0xbc,
  0xc2, 0x6b, 0x2d, 0x3d, 0x88, 0xa8, 0x09, 0x3d, 0xca, 0x8b, 0xa5, 0xbe,
  0x72, 0x0f, 0x2c, 0x3e, 0x10, 0x7c, 0xab, 0xbe, 0x4b, 0x74, 0xf0, 0x3e,
  0x48, 0x23, 0x65, 0xbe, 0x89, 0x1d, 0x8c, 0xbe, 0xf7, 0x7f, 0x9f, 0xbd,
  0xed, 0x20, 0x04, 0xbe, 0x44, 0x0c, 0xa4, 0xbb, 0x1e, 0xf8, 0x1d, 0xbe,
  0x83, 0x8d, 0x94, 0x3d, 0x38, 0xf0, 0x1a, 0xbe, 0xe1, 0xe5, 0x6a, 0xbd,
  0xa9, 0xa6, 0x23, 0xbd, 0x09, 0xaa, 0xb4, 0x3d, 0xb3, 0x55, 0x8c, 0x3d,
  0x2e, 0xe4, 0x93, 0xbe, 0x9a, 0xef, 0x33, 0x3e, 0x4c, 0xab, 0x09, 0x3e,
  0x7d, 0x38, 0xba, 0x3e, 0x60, 0x52, 0xd9, 0xbd, 0xd5, 0xcb, 0xc5, 0xbd,
  0x5e, 0x6e, 0xc2, 0x3e, 0xb9, 0xb0, 0x0c, 0xbe, 0xf9, 0xf4, 0x3d, 0xbd,
  0x8f, 0x2d, 0x3b, 0xbe, 0x93, 0x64, 0x06, 0x3e, 0x3c, 0xac, 0x34, 0xbe,
  0x44, 0x34, 0x13, 0xbe, 0xbd, 0xbb, 0x59, 0x3d, 0xa8, 0x10, 0x98, 0x3d,
  0x24, 0x1d, 0x5f, 0x3e, 0xcc, 0x8b, 0xf3, 0xbd, 0x9b, 0x2d, 0xa5, 0x3e,
  0xec, 0x4e, 0x7b, 0x3e, 0xb3, 0x03, 0x5e, 0x3e, 0xa6, 0x3a, 0x3f, 0xbe,
  0x76, 0x69, 0xf2, 0xbd, 0x3b, 0xba, 0x23, 0xbe, 0x85, 0xea, 0xd2, 0xbd,
  0x82, 0x19, 0x72, 0xbd, 0x9d, 0x70, 0xb4, 0xbc, 0x74, 0x8b, 0xfb, 0xbd,
  0x60, 0x53, 0xd2, 0xbd, 0xb1, 0xaa, 0x87, 0xbd, 0x91, 0xf6, 0x23, 0xbe,
  0xfb, 0xd0, 0x15, 0xbd, 0x31, 0x24, 0x0e, 0x3e, 0x38, 0xde, 0x1e, 0x3c,
  0x82, 0xdd, 0x9f, 0x3d, 0xd4, 0x4f, 0x9c, 0x3e, 0x69, 0xf8, 0x1c, 0x3e,
  0xa7, 0x71, 0xb4, 0xbc, 0xa3, 0x58, 0x00, 0x3d, 0xc9, 0x40, 0x59, 0x3e,
  0x9f, 0xce, 0xb0, 0x3c, 0x89, 0xc6, 0x04, 0xbe, 0xdf, 0xca, 0xde, 0xbd,
  0x08, 0xd7, 0xc7, 0xbd, 0x36, 0x40, 0xd3, 0xbc, 0x15, 0xaa, 0x51, 0xbd,
  0x9b, 0xba, 0x39, 0xbe, 0xf6, 0xfa, 0x8e, 0x3e, 0x7b, 0xcb, 0x52, 0x3e,
  0xa4, 0x6e, 0x0b, 0xbd, 0x8d, 0xd4, 0x9c, 0x3e, 0xf8, 0x20, 0x3e, 0xbc,
  0x64, 0xc0, 0x26, 0x3c, 0x57, 0x6d, 0x05, 0x3d, 0xc6, 0x8a, 0x94, 0x3d,
  0xa0, 0x70, 0x28, 0xbb, 0x0c, 0xd8, 0xa9, 0x3e, 0x52, 0xf9, 0xd1, 0xbe,
  0xea, 0x6b, 0xb4, 0x3d, 0x34, 0x72, 0xb9, 0xbe, 0x88, 0x1f, 0x12, 0x3e,
  0x55, 0x09, 0x2f, 0x3e, 0xd6, 0x43, 0x0a, 0xbe, 0xb9, 0x2e, 0x75, 0x3e,
  0xdf, 0xc2, 0x0b, 0x3f, 0x57, 0xa8, 0x5f, 0x3d, 0x54, 0xa6, 0x02, 0xbd,
  0x2c, 0x84, 0x89, 0x3e, 0x5e, 0x6b, 0x5d, 0xbd, 0x06, 0x6c, 0x4e, 0x3e,
  0x7e, 0x10, 0x4e, 0x3e, 0x50, 0xf1, 0x2d, 0x3e, 0xbf, 0x30, 0xe7, 0x3e,
  0x8a, 0xe9, 0x42, 0xbe, 0xc6, 0x3a, 0x81, 0x3e, 0x9a, 0x45, 0x4e, 0x3d,
  0x3e, 0x70, 0x62, 0x3d, 0x13, 0xf4, 0xbd, 0x3e, 0xd1, 0xe3, 0xd4, 0xbe,
  0xc1, 0x52, 0x36, 0x3d, 0x76, 0x03, 0xb5, 0x3d, 0xdf, 0x65, 0x94, 0xbd,
  0xbe, 0x9b, 0x3d, 0xbe, 0x5b, 0xdf, 0x09, 0x3e, 0x79, 0x95, 0xa8, 0xbc,
  0xcb, 0x63, 0x8c, 0x3e, 0x27, 0x89, 0xcb, 0x3d, 0x04, 0xa7, 0x9d, 0xbe,
  0x62, 0x27, 0x03, 0xbf, 0x03, 0x40, 0x77, 0xbd, 0x61, 0x7a, 0x98, 0x3c,
  0x7f, 0x87, 0xb2, 0xbc, 0xcc, 0xbc, 0x5c, 0x3d, 0x1d, 0x7c, 0x7e, 0x3d,
  0xc6, 0x1f, 0x10, 0xbb, 0x03, 0x46, 0x9d, 0xbd, 0xd0, 0xba, 0x28, 0xbe,
  0x8b, 0x7c, 0x94, 0xbe, 0x92, 0x3b, 0x8b, 0x3e, 0xa4, 0xb8, 0x69, 0x3e,
  0xa4, 0x43, 0x75, 0xbe, 0xc4, 0x0d, 0x6f, 0xbe, 0x00, 0x50, 0x7e, 0xbe,
  0x80, 0xe5, 0x81, 0xbd, 0xbe, 0x99, 0x08, 0xbe, 0x36, 0xca, 0xe7, 0xbd,
  0x70, 0x61, 0xfb, 0xbc, 0xfe, 0xb2, 0x22, 0xbe, 0xc2, 0xa6, 0x73, 0xbe,
  0xdc, 0x50, 0x1e, 0xbe, 0x8a, 0xd1, 0xdf, 0xbb, 0x97, 0xce, 0xab, 0xbe,
  0x6b, 0x9a, 0x07, 0xbe, 0xc2, 0xb1, 0xb7, 0xbd, 0xaf, 0xa0, 0x11, 0x3d,
  0xa0, 0xb7, 0x3c, 0x3e, 0x37, 0x23, 0xd4, 0xbe, 0x0b, 0xe3, 0x09, 0xbe,
  0x00, 0x4f, 0xea, 0xbd, 0x7b, 0x05, 0x8a, 0xb9, 0xfb, 0x10, 0xb5, 0xbe,
  0x99, 0xfb, 0xaa, 0xbd, 0x5d, 0x79, 0x2b, 0xbe, 0x7a, 0x44, 0xf4, 0x3c,
  0xfb, 0x52, 0x24, 0xbc, 0x76, 0xbf, 0x72, 0xbd, 0xa6, 0xd2, 0x18, 0xbe,
  0x34, 0x7a, 0x9a, 0xbe, 0x6a, 0xab, 0xc0, 0xbe, 0x13, 0xeb, 0x38, 0xbe,
  0xca, 0x2e, 0x10, 0xbe, 0xc4, 0x9f, 0x90, 0x3e, 0x89, 0x94, 0xcc, 0xbe,
  0x0e, 0x76, 0xc9, 0x3a, 0xbf, 0x54, 0x00, 0xbe, 0xe1, 0x1d, 0xa2, 0x3d,
  0x9a, 0x3f, 0xa3, 0xbe, 0xe9, 0xfe, 0x06, 0x3d, 0x68, 0x99, 0x1d, 0xbe,
  0x1d, 0xb1, 0x11, 0x3e, 0x23, 0x3e, 0x1a, 0x3d, 0xe2, 0x10, 0xac, 0xbd,
  0x85, 0xd7, 0xc2, 0x3b, 0x74, 0xde, 0xc1, 0xbd, 0xaf, 0xbc, 0x50, 0xbd,
  0xb0, 0xc9, 0xca, 0x3b, 0x1f, 0x63, 0xf1, 0xbd, 0xe9, 0xe1, 0x50, 0x3e,
  0x1a, 0x33, 0x04, 0xbf, 0xd9, 0x10, 0x16, 0xbe, 0xb4, 0x34, 0x36, 0xbd,
  0x34, 0x49, 0x3b, 0xbe, 0x82, 0xf0, 0x28, 0xbe, 0xa1, 0xf8, 0xed, 0xbb,
  0x96, 0x87, 0xc5, 0x3d, 0x2c, 0x14, 0x2c, 0x3e, 0x74, 0x63, 0xc5, 0x3c,
  0xb2, 0x68, 0xdf, 0x3d, 0x68, 0xa6, 0x7c, 0x3d, 0x9a, 0x58, 0x1c, 0xbe,
  0x5a, 0xb5, 0x97, 0x3e, 0x90, 0xd4, 0x45, 0xbd, 0x16, 0xca, 0x61, 0xbe,
  0x02, 0x66, 0xe9, 0x3d, 0xcb, 0x27, 0x23, 0xbf, 0x48, 0xac, 0x90, 0xbe,
  0xfb, 0x1f, 0x3f, 0xbd, 0xe5, 0x37, 0x5a, 0x3d, 0x79, 0x73, 0x3d, 0x3e,
  0xd6, 0x33, 0x94, 0xbc, 0xfd, 0xaa, 0x82, 0xbd, 0x13, 0x12, 0xe0, 0xbd,
  0x45, 0xa1, 0x7b, 0xbc, 0x91, 0x2f, 0xbe, 0xbd, 0x6f, 0xc6, 0xb2, 0xbd,
  0x7f, 0xdd, 0xee, 0xbe, 0x65, 0xe6, 0x16, 0x3e, 0x15, 0x51, 0x33, 0x3d,
  0xc6, 0xa7, 0xb3, 0xbe, 0x10, 0x64, 0xf7, 0x3d, 0xc9, 0x18, 0xe0, 0xbe,
  0xce, 0xe1, 0x54, 0x3e, 0xec, 0x14, 0xf6, 0xbd, 0x88, 0x30, 0xf2, 0xbc,
  0xa6, 0xdf, 0x0f, 0x3e, 0x98, 0x72, 0xc7, 0x3c, 0x42, 0x4a, 0x44, 0x3e,
  0x30, 0xe4, 0xb4, 0xbd, 0xfd, 0xc6, 0x13, 0xbe, 0xaa, 0x31, 0xa0, 0xbe,
  0x1e, 0x05, 0xa0, 0xbd, 0x47, 0xb3, 0x2f, 0xbd, 0xcd, 0x67, 0xe6, 0xbd,
  0x46, 0x48, 0x50, 0xbd, 0xf7, 0x11, 0x54, 0xbd, 0xbe, 0xbc, 0x97, 0x3e,
  0xb7, 0x0e, 0x50, 0xbe, 0xf7, 0xbf, 0x29, 0x3e, 0x7a, 0x77, 0x01, 0xbe,
  0x57, 0xde, 0x8d, 0x3d, 0x92, 0x19, 0x5d, 0xbe, 0xbd, 0x82, 0x65, 0xbe,
  0xcf, 0x34, 0x88, 0xbd, 0xdf, 0x80, 0x5d, 0xbe, 0x6b, 0x8d, 0x38, 0x3e,
  0x28, 0x46, 0x0e, 0x3e, 0xf0, 0x7f, 0x05, 0xbe, 0x9b, 0x68, 0x8d, 0xbe,
  0xa0, 0x6d, 0xbd, 0xbe, 0x0b, 0xa4, 0xc1, 0x3c, 0xfc, 0x52, 0x84, 0xbb,
  0x14, 0x02, 0x27, 0x3e, 0x2f, 0x2b, 0xa0, 0xbc, 0xc6, 0xdc, 0x7c, 0xbe,
  0xd0, 0x8d, 0x37, 0xbe, 0x95, 0x1f, 0x34, 0xbe, 0x44, 0x8b, 0x75, 0xbe,
  0x00, 0xd5, 0xe7, 0x3d, 0x23, 0x8a, 0xe0, 0xbd, 0x5f, 0x2c, 0x75, 0xbd,
  0x92, 0x4b, 0x27, 0xbe, 0xc5, 0xc8, 0x23, 0xbd, 0xdb, 0x07, 0xd2, 0x3d,
  0x9f, 0xac, 0x95, 0xbe, 0x97, 0xc5, 0xb0, 0xbd, 0x22, 0xe4, 0x0a, 0xbe,
  0xba, 0x41, 0x9b, 0xbc, 0xd4, 0x97, 0x28, 0x3e, 0x56, 0xee, 0x93, 0xbe,
  0x6d, 0x70, 0xf6, 0xbd, 0xf0, 0x24, 0x4e, 0xbe, 0x0f, 0x7c, 0x1a, 0x3e,
  0xf5, 0x4a, 0x05, 0xbe, 0x17, 0xdb, 0xf5, 0xbc, 0xef, 0xe3, 0xce, 0xbb,
  0x60, 0x41, 0x35, 0xbd, 0x27, 0xdb, 0xbe, 0x3d, 0x15, 0x05, 0x3f, 0x3e,
  0x7d, 0xab, 0xc7, 0xbd, 0x09, 0xf6, 0x55, 0xbe, 0x79, 0x8b, 0xf3, 0xbd,
  0x05, 0x1b, 0x81, 0xbe, 0x00, 0xc1, 0x85, 0x3d, 0x21, 0xd4, 0xa7, 0x3e,
  0xe5, 0x6c, 0xe2, 0xbd, 0x55, 0x9e, 0xdc, 0xbc, 0x93, 0x32, 0x2c, 0xbe,
  0x06, 0x19, 0xaf, 0x3d, 0xbb, 0xcb, 0x23, 0xbe, 0x6e, 0x2a, 0x19, 0x3e,
  0x14, 0x58, 0x3b, 0x3d, 0xe8, 0x61, 0xa7, 0xbd, 0x43, 0x44, 0xc3, 0xbd,
  0x07, 0x34, 0xc9, 0x3d, 0x8c, 0x85, 0xff, 0x3d, 0xdc, 0x82, 0xee, 0xbd,
  0xaf, 0xe2, 0xa0, 0xbe, 0xf4, 0x6c, 0x05, 0x3d, 0x24, 0xef, 0x98, 0x3d,
  0xb8, 0xc5, 0x79, 0x3e, 0x90, 0x71, 0x98, 0xbe, 0xd6, 0x16, 0xcf, 0xbd,
  0xb1, 0x32, 0x43, 0xbd, 0x14, 0x02, 0xd1, 0x3d, 0x9e, 0x0d, 0x07, 0xbc,
  0x7d, 0x11, 0x22, 0x3e, 0x0a, 0xaa, 0x37, 0x3d, 0x42, 0xaf, 0xd2, 0xbd,
  0x6f, 0x6f, 0x0c, 0x3e, 0x45, 0xdc, 0xf1, 0xbd, 0x9b, 0xb1, 0xa7, 0x3c,
  0x02, 0x74, 0x94, 0xbd, 0xda, 0x17, 0xbf, 0xbc, 0x06, 0x43, 0x6d, 0xbe,
  0x78, 0xe9, 0x24, 0xbe, 0x0f, 0x58, 0x2f, 0x3e, 0x31, 0xf4, 0x94, 0xbe,
  0xc9, 0x4b, 0xbe, 0xbb, 0x52, 0xdf, 0xd5, 0x3c, 0xa7, 0xf4, 0x0f, 0x3e,
  0x7f, 0x7c, 0xae, 0xbe, 0x9e, 0x65, 0x5e, 0xbe, 0xfa, 0xd7, 0xa5, 0xbc,
  0x6c, 0x82, 0x2a, 0x3e, 0x10, 0x4f, 0x99, 0x3d, 0xaf, 0xe4, 0x06, 0xbe,
  0x72, 0x51, 0x22, 0xbe, 0xd0, 0x52, 0x39, 0xbd, 0x76, 0x0d, 0x15, 0xbe,
  0x7c, 0x7d, 0x77, 0x3d, 0x30, 0x5b, 0xb9, 0x3d, 0xcd, 0x96, 0x03, 0x3e,
  0x37, 0xce, 0x97, 0xbd, 0xd7, 0xc9, 0x2d, 0xbc, 0x0d, 0xdc, 0x0a, 0x3e,
  0x8c, 0x1a, 0x02, 0x3e, 0x09, 0xd0, 0x45, 0xbe, 0xb4, 0xdd, 0x09, 0xbe,
  0x4c, 0xdd, 0xad, 0xbc, 0x38, 0x7c, 0x24, 0xbe, 0xeb, 0xc5, 0x6a, 0xbe,
  0x69, 0xc5, 0xa1, 0x3d, 0x0e, 0x6b, 0x5a, 0x3d, 0x2c, 0x4a, 0x89, 0xbe,
  0x74, 0x5f, 0xc2, 0xbd, 0x89, 0x46, 0x71, 0xbe, 0xf8, 0x46, 0xa5, 0xbd,
  0x41, 0xcf, 0x57, 0xbd, 0x3d, 0xb6, 0xc3, 0x3d, 0xe1, 0x65, 0x0f, 0xbe,
  0x44, 0x83, 0x71, 0x3d, 0x45, 0x7b, 0x3f, 0x3e, 0x2d, 0x46, 0x60, 0xbe,
  0x48, 0x22, 0x10, 0x3c, 0xeb, 0x61, 0x88, 0xbe, 0xdf, 0xc6, 0xe6, 0xbc,
  0xcf, 0x15, 0x7f, 0xbd, 0x67, 0x04, 0x97, 0xbd, 0xcb, 0x3c, 0x69, 0xbc,
  0xa1, 0x1f, 0xb4, 0xbd, 0x01, 0xc1, 0x9f, 0x3d, 0x72, 0xf3, 0xa6, 0xbd,
  0xaf, 0xc3, 0x8e, 0xbd, 0xb9, 0xf4, 0xd0, 0xbd, 0xf4, 0x4f, 0x8f, 0x3d,
  0x45, 0xd6, 0x71, 0xbe, 0x3c, 0x4f, 0x08, 0xbe, 0x02, 0x0f, 0xb7, 0x3d,
  0x6f, 0x7b, 0x7d, 0x3d, 0xd6, 0xd6, 0x63, 0x3d, 0x43, 0x8b, 0x3b, 0xbe,
  0x86, 0x84, 0x05, 0xbe, 0x2a, 0x37, 0x82, 0xbe, 0xa7, 0x34, 0xda, 0x3c,
  0x17, 0x7f, 0x42, 0xbd, 0x22, 0xa4, 0x1e, 0x3e, 0x86, 0xdc, 0x4e, 0x3e,
  0x89, 0x9f, 0xd1, 0xbd, 0x4a, 0xba, 0x2a, 0x3e, 0x39, 0x41, 0xfa, 0xbb,
  0xd8, 0x8b, 0x9c, 0xbd, 0x61, 0x29, 0x20, 0xbd, 0xc9, 0xca, 0x40, 0xbe,
  0x51, 0x47, 0x5e, 0x3e, 0x63, 0x38, 0xd8, 0xbd, 0x91, 0xf4, 0x08, 0x3e,
  0x46, 0xa8, 0xa9, 0xbd, 0x8b, 0x39, 0xaf, 0x3d, 0xf1, 0xb0, 0x1a, 0xbe,
  0xdb, 0xe3, 0x9a, 0xbe, 0xb3, 0x08, 0xda, 0xbd, 0xed, 0x6d, 0xbc, 0xbd,
  0x67, 0x74, 0x74, 0xbd, 0xd7, 0xab, 0x53, 0xbd, 0xc9, 0x2c, 0x93, 0x3e,
  0x3c, 0x5a, 0x04, 0xbc, 0x43, 0x22, 0xe1, 0x3d, 0xce, 0x83, 0x38, 0xbe,
  0xeb, 0x48, 0xb8, 0xbd, 0x71, 0x8c, 0x23, 0x3e, 0xca, 0xf5, 0xcc, 0xbc,
  0x0f, 0x86, 0xff, 0xbd, 0xec, 0x46, 0x2b, 0xbe, 0x0c, 0x58, 0x9f, 0x3d,
  0x13, 0x30, 0x71, 0xbd, 0x1e, 0xda, 0xbd, 0x3b, 0x9d, 0x80, 0x31, 0x3e,
  0x3a, 0x7e, 0x91, 0x3e, 0x9a, 0x78, 0xac, 0x3e, 0x83, 0x79, 0x88, 0xbe,
  0xb1, 0x6f, 0xb5, 0x3b, 0xf2, 0x87, 0xde, 0x3d, 0x36, 0x27, 0x92, 0x3d,
  0x79, 0xf3, 0x8b, 0x3d, 0x01, 0xd1, 0x4a, 0xbb, 0x9d, 0xfc, 0x2f, 0x3e,
  0xb4, 0x69, 0xf1, 0xbd, 0x8b, 0x08, 0x73, 0xbc, 0x7c, 0x1d, 0x16, 0xbd,
  0x54, 0x14, 0xf2, 0x3c, 0x4b, 0x39, 0x68, 0xbe, 0xc9, 0x64, 0x4c, 0xbe,
  0x30, 0xc3, 0x5a, 0x3d, 0x16, 0x50, 0xf5, 0x3d, 0x9a, 0x3e, 0x93, 0x3d,
  0xf2, 0x90, 0xc6, 0xbd, 0x16, 0xf8, 0x53, 0xbe, 0x0c, 0x32, 0x25, 0xbe,
  0x0b, 0x92, 0x11, 0xbd, 0x25, 0x40, 0x1a, 0x3e, 0xc8, 0x63, 0x20, 0xbe,
  0xa3, 0x68, 0xfc, 0x3d, 0x6e, 0xf7, 0xb3, 0x3e, 0xc1, 0x01, 0x11, 0xbe,
  0x89, 0x53, 0xb0, 0x3b, 0xf4, 0xc7, 0xda, 0xbd, 0x76, 0xe5, 0x7a, 0xbd,
  0x14, 0xc9, 0x6b, 0x3e, 0xce, 0xd3, 0xb8, 0xbd, 0x42, 0x38, 0x06, 0x3e,
  0xa2, 0x55, 0xb8, 0x3e, 0x53, 0x64, 0x76, 0xbc, 0x1a, 0xe5, 0x35, 0xbe,
  0x0e, 0x0d, 0x9a, 0xbd, 0xd5, 0x29, 0xaa, 0xbd, 0x28, 0xbd, 0x7d, 0x3e,
  0xbe, 0x9d, 0x59, 0xbd, 0x07, 0x7d, 0xfa, 0x3e, 0x31, 0xa0, 0x19, 0x3e,
  0x23, 0xc0, 0x14, 0xbe, 0x5d, 0x46, 0x73, 0x3e, 0x4a, 0x1e, 0x24, 0x3e,
  0x57, 0x89, 0x46, 0xbd, 0xaa, 0x76, 0x16, 0x3e, 0x2d, 0xa6, 0xcd, 0x3c,
  0xf1, 0xc6, 0xc8, 0x3c, 0x08, 0x78, 0xe5, 0x3e, 0xb0, 0xc6, 0x8f, 0xbd,
  0x71, 0xbb, 0xde, 0xbe, 0x2e, 0x43, 0x50, 0xbe, 0xef, 0x9a, 0x5d, 0x3c,
  0xfd, 0xc9, 0x4e, 0x3d, 0x05, 0x1a, 0xd9, 0x3d, 0x2f, 0x1e, 0x7d, 0x3e,
  0x97, 0xac, 0x08, 0xbe, 0x5b, 0x21, 0x3d, 0x3c, 0x0a, 0x61, 0x46, 0x3e,
  0xea, 0x51, 0x30, 0xbe, 0x75, 0x3a, 0x1c, 0x3e, 0xbc, 0x4d, 0x4d, 0x3e,
  0x57, 0x19, 0xe1, 0xbd, 0xcf, 0x5e, 0x17, 0xbe, 0xc3, 0xca, 0xe3, 0xbd,
  0x3e, 0xc5, 0xae, 0x3c, 0x57, 0x17, 0xb4, 0xbd, 0xa1, 0xb6, 0x14, 0x3e,
  0x73, 0x9c, 0x03, 0xbe, 0xfd, 0xc6, 0x4c, 0x3d, 0x3a, 0x68, 0xaa, 0xbc,
  0x09, 0x4c, 0x9b, 0x3e, 0x2a, 0x44, 0x38, 0x3e, 0x4b, 0x95, 0xac, 0xbd,
  0x74, 0x2f, 0x0e, 0xbd, 0xa6, 0xb6, 0x71, 0x3d, 0xa8, 0x11, 0xb8, 0x3c,
  0xa0, 0xdb, 0x8a, 0x3e, 0x86, 0x30, 0xe9, 0x3d, 0xb1, 0x6d, 0xba, 0x3e,
  0x7c, 0x5c, 0x14, 0x3e, 0x77, 0x4b, 0x2a, 0x3d, 0x09, 0x1c, 0xb4, 0xbd,
  0x42, 0x1d, 0x14, 0x3e, 0x09, 0x56, 0xe8, 0x3d, 0x10, 0x6a, 0x1e, 0xbe,
  0x79, 0x52, 0xb1, 0xbd, 0xd0, 0x8a, 0x59, 0x3d, 0x5c, 0x63, 0x22, 0x3e,
  0x93, 0x2a, 0xeb, 0x3c, 0x42, 0xd9, 0xe6, 0x3d, 0x8a, 0xc7, 0x96, 0xbc,
  0xe9, 0xd6, 0x44, 0xbe, 0xb6, 0x7b, 0x29, 0x3e, 0xfb, 0x2d, 0xe7, 0x3d,
  0x63, 0xd2, 0x8b, 0xbc, 0xe3, 0xa5, 0xa3, 0x3e, 0x24, 0x38, 0x9d, 0x3e,
  0x40, 0xdf, 0x6d, 0x3d, 0x7f, 0xbe, 0xea, 0xbc, 0xf6, 0x77, 0xa9, 0xbd,
  0xac, 0x5d, 0x1b, 0x3e, 0x0f, 0x1e, 0x14, 0xbe, 0xee, 0x63, 0xff, 0x3e,
  0x1f, 0xe9, 0xf3, 0xba, 0xe5, 0x2d, 0x61, 0xbe, 0x65, 0x76, 0x83, 0x3d,
  0x86, 0xea, 0x51, 0xbd, 0x7b, 0x8e, 0x65, 0xbd, 0x7a, 0x0a, 0x27, 0xbe,
  0x7a, 0x40, 0x02, 0xbe, 0xd3, 0xaa, 0x01, 0x39, 0x68, 0x19, 0xf9, 0xbd,
  0x15, 0xef, 0xc7, 0xbd, 0x80, 0xf9, 0x80, 0xbe, 0x9e, 0x6e, 0x23, 0x3e,
  0xf6, 0x71, 0x8c, 0xbd, 0xca, 0xeb, 0xb4, 0xbd, 0x6f, 0xea, 0x3f, 0xbe,
  0x75, 0x9f, 0xb8, 0x3e, 0x14, 0x5e, 0x15, 0xbc, 0x0d, 0xca, 0x12, 0x3e,
  0xdc, 0xd3, 0x9e, 0xbe, 0x6b, 0x16, 0x8b, 0xbd, 0x63, 0x07, 0xdd, 0xbc,
  0xd9, 0xdd, 0x23, 0x3e, 0x39, 0x8a, 0xb0, 0x3d, 0x9f, 0xd6, 0x67, 0xbc,
  0xfd, 0xe9, 0x18, 0xbe, 0x8e, 0x49, 0xc6, 0xbd, 0x86, 0x58, 0x60, 0x3c,
  0x1d, 0x45, 0x48, 0xbd, 0xb1, 0xc5, 0x8e, 0x3d, 0x7d, 0xe3, 0x22, 0x3d,
  0x32, 0x4d, 0x04, 0xbd, 0xb5, 0xe4, 0x0b, 0x3d, 0x29, 0x41, 0xff, 0xbd,
  0xb2, 0x32, 0x92, 0x3d, 0x50, 0x88, 0xb2, 0xbe, 0x8e, 0xf8, 0x6c, 0x3e,
  0xa5, 0xf4, 0x87, 0xbd, 0x0a, 0xb5, 0xaa, 0xbe, 0xbc, 0x76, 0xdf, 0xbd,
  0x80, 0x46, 0xae, 0xbc, 0xc1, 0x4c, 0xdb, 0x3d, 0x5f, 0xfb, 0xb7, 0xbe,
  0x0a, 0x51, 0x0d, 0x3e, 0xc0, 0x9e, 0xbc, 0x3d, 0x9f, 0xdb, 0xd6, 0xbd,
  0x8f, 0x99, 0xae, 0xbd, 0x63, 0xd4, 0xb5, 0x3c, 0x11, 0x44, 0x87, 0xbe,
  0x2b, 0x21, 0x37, 0xbe, 0x09, 0x80, 0xd6, 0xbd, 0x95, 0xfc, 0xb8, 0xbe,
  0x7c, 0x20, 0xb3, 0xbe, 0x8f, 0x87, 0xd8, 0xbe, 0x26, 0xc0, 0x28, 0xbd,
  0x07, 0x46, 0x92, 0xbd, 0xc3, 0x5e, 0xbe, 0x3d, 0x5a, 0xf5, 0x3f, 0x3c,
  0x51, 0xac, 0xa3, 0xbe, 0xe9, 0x46, 0xc6, 0x3e, 0xd1, 0xe7, 0x40, 0xbe,
  0xd6, 0x84, 0x04, 0xbe, 0xc5, 0xd3, 0x8f, 0xbe, 0xd3, 0xf5, 0xbc, 0xbe,
  0x66, 0xfd, 0xff, 0xff, 0x10, 0x00, 0x00, 0x00, 0x07, 0x00, 0x00, 0x00,
  0x14, 0x00, 0x00, 0x00, 0x2c, 0x00, 0x00, 0x00, 0x02, 0x00, 0x00, 0x00,
  0x10, 0x00, 0x00, 0x00, 0x70, 0x00, 0x00, 0x00, 0x17, 0x00, 0x00, 0x00,
  0x73, 0x65, 0x71, 0x75, 0x65, 0x6e, 0x74, 0x69, 0x61, 0x6c, 0x2f, 0x64,
  0x65, 0x6e, 0x73, 0x65, 0x2f, 0x4d, 0x61, 0x74, 0x4d, 0x75, 0x6c, 0x00,
  0xd0, 0xfc, 0xff, 0xff, 0xda, 0xfd, 0xff, 0xff, 0x04, 0x00, 0x00, 0x00,
  0x08, 0x00, 0x00, 0x00, 0xff, 0xff, 0xff, 0xff, 0x70, 0x00, 0x00, 0x00,
  0x00, 0x00, 0x0e, 0x00, 0x18, 0x00, 0x08, 0x00, 0x07, 0x00, 0x0c, 0x00,
  0x10, 0x00, 0x14, 0x00, 0x0e, 0x00, 0x00, 0x00, 0x00, 0x00, 0x00, 0x02,
  0x10, 0x00, 0x00, 0x00, 0x06, 0x00, 0x00, 0x00, 0x10, 0x00, 0x00, 0x00,
  0x2c, 0x00, 0x00, 0x00, 0x01, 0x00, 0x00, 0x00, 0x02, 0x00, 0x00, 0x00,
  0x18, 0x00, 0x00, 0x00, 0x73, 0x65, 0x71, 0x75, 0x65, 0x6e, 0x74, 0x69,
  0x61, 0x6c, 0x2f, 0x66, 0x6c, 0x61, 0x74, 0x74, 0x65, 0x6e, 0x2f, 0x43,
  0x6f, 0x6e, 0x73, 0x74, 0x00, 0x00, 0x00, 0x00, 0x38, 0xfd, 0xff, 0xff,
  0x42, 0xfe, 0xff, 0xff, 0x04, 0x00, 0x00, 0x00, 0x0c, 0x00, 0x00, 0x00,
  0xac, 0x68, 0xa8, 0x3f, 0xf0, 0x7b, 0xd3, 0xbf, 0xb5, 0x81, 0x59, 0xbf,
  0x26, 0xfe, 0xff, 0xff, 0x10, 0x00, 0x00, 0x00, 0x05, 0x00, 0x00, 0x00,
  0x10, 0x00, 0x00, 0x00, 0x44, 0x00, 0x00, 0x00, 0x01, 0x00, 0x00, 0x00,
  0x03, 0x00, 0x00, 0x00, 0x32, 0x00, 0x00, 0x00, 0x73, 0x65, 0x71, 0x75,
  0x65, 0x6e, 0x74, 0x69, 0x61, 0x6c, 0x2f, 0x64, 0x65, 0x6e, 0x73, 0x65,
  0x5f, 0x31, 0x2f, 0x42, 0x69, 0x61, 0x73, 0x41, 0x64, 0x64, 0x2f, 0x52,
  0x65, 0x61, 0x64, 0x56, 0x61, 0x72, 0x69, 0x61, 0x62, 0x6c, 0x65, 0x4f,
  0x70, 0x2f, 0x72, 0x65, 0x73, 0x6f, 0x75, 0x72, 0x63, 0x65, 0x00, 0x00,
  0xa8, 0xfd, 0xff, 0xff, 0xb2, 0xfe, 0xff, 0xff, 0x04, 0x00, 0x00, 0x00,
  0x40, 0x00, 0x00, 0x00, 0xd1, 0x17, 0x12, 0xbf, 0xd3, 0x5a, 0xde, 0xbe,
  0xc3, 0x0d, 0xa0, 0xbe, 0x6a, 0x20, 0x83, 0x3e, 0xdd, 0x3d, 0xaf, 0x3d,
  0xbb, 0xd6, 0xce, 0xbd, 0x8a, 0xfa, 0x70, 0xbe, 0x60, 0xd4, 0x2f, 0xbe,
  0xe2, 0xce, 0x1c, 0xbf, 0xc2, 0xd5, 0x97, 0x3f, 0x91, 0x5e, 0x84, 0xbf,
  0x57, 0x4a, 0x8e, 0x3f, 0x2c, 0x06, 0xaf, 0x3f, 0xa0, 0x95, 0x0a, 0x3f,
  0xa7, 0x1f, 0x9f, 0xbe, 0x3e, 0x65, 0x50, 0xbe, 0xca, 0xfe, 0xff, 0xff,
  0x10, 0x00, 0x00, 0x00, 0x04, 0x00, 0x00, 0x00, 0x10, 0x00, 0x00, 0x00,
  0x44, 0x00, 0x00, 0x00, 0x01, 0x00, 0x00, 0x00, 0x10, 0x00, 0x00, 0x00,
  0x30, 0x00, 0x00, 0x00, 0x73, 0x65, 0x71, 0x75, 0x65, 0x6e, 0x74, 0x69,
  0x61, 0x6c, 0x2f, 0x64, 0x65, 0x6e, 0x73, 0x65, 0x2f, 0x42, 0x69, 0x61,
  0x73, 0x41, 0x64, 0x64, 0x2f, 0x52, 0x65, 0x61, 0x64, 0x56, 0x61, 0x72,
  0x69, 0x61, 0x62, 0x6c, 0x65, 0x4f, 0x70, 0x2f, 0x72, 0x65, 0x73, 0x6f,
  0x75, 0x72, 0x63, 0x65, 0x00, 0x00, 0x00, 0x00, 0x4c, 0xfe, 0xff, 0xff,
  0x56, 0xff, 0xff, 0xff, 0x04, 0x00, 0x00, 0x00, 0x40, 0x00, 0x00, 0x00,
  0x53, 0x87, 0x4b, 0xbd, 0x66, 0x02, 0xca, 0xbe, 0x16, 0xf1, 0x16, 0xbf,
  0x1f, 0xc6, 0xd7, 0x3d, 0xd6, 0x10, 0x8e, 0xbf, 0xa0, 0x1c, 0x12, 0xbd,
  0xdf, 0x24, 0xcb, 0x3d, 0xaa, 0xfd, 0x84, 0xbf, 0x6e, 0x17, 0x84, 0x3f,
  0xfb, 0xf4, 0x37, 0xbf, 0x31, 0x8e, 0xa5, 0xbf, 0x98, 0x3a, 0x7c, 0x3f,
  0x69, 0x4b, 0xa1, 0x3f, 0xe4, 0x79, 0x8b, 0x3f, 0x8e, 0x2c, 0x0e, 0x3e,
  0x2c, 0xe3, 0xb2, 0xbd, 0x6e, 0xff, 0xff, 0xff, 0x10, 0x00, 0x00, 0x00,
  0x03, 0x00, 0x00, 0x00, 0x10, 0x00, 0x00, 0x00, 0x48, 0x00, 0x00, 0x00,
  0x01, 0x00, 0x00, 0x00, 0x10, 0x00, 0x00, 0x00, 0x33, 0x00, 0x00, 0x00,
  0x73, 0x65, 0x71, 0x75, 0x65, 0x6e, 0x74, 0x69, 0x61, 0x6c, 0x2f, 0x63,
  0x6f, 0x6e, 0x76, 0x32, 0x64, 0x5f, 0x31, 0x2f, 0x42, 0x69, 0x61, 0x73,
  0x41, 0x64, 0x64, 0x2f, 0x52, 0x65, 0x61, 0x64, 0x56, 0x61, 0x72, 0x69,
  0x61, 0x62, 0x6c, 0x65, 0x4f, 0x70, 0x2f, 0x72, 0x65, 0x73, 0x6f, 0x75,
  0x72, 0x63, 0x65, 0x00, 0x04, 0x00, 0x06, 0x00, 0x04, 0x00, 0x00, 0x00,
  0x00, 0x00, 0x06, 0x00, 0x08, 0x00, 0x04, 0x00, 0x06, 0x00, 0x00, 0x00,
  0x04, 0x00, 0x00, 0x00, 0x20, 0x00, 0x00, 0x00, 0x51, 0x37, 0x0c, 0x3d,
  0xd1, 0xc2, 0x08, 0x3d, 0x62, 0xb3, 0xa4, 0x3d, 0x42, 0x3a, 0x42, 0xbe,
  0xf6, 0x33, 0x5f, 0xbd, 0x2e, 0x79, 0xb2, 0xbf, 0x78, 0x94, 0x98, 0x3f,
  0xab, 0x13, 0x34, 0xbd, 0x00, 0x00, 0x0e, 0x00, 0x14, 0x00, 0x04, 0x00,
  0x00, 0x00, 0x08, 0x00, 0x0c, 0x00, 0x10, 0x00, 0x0e, 0x00, 0x00, 0x00,
  0x10, 0x00, 0x00, 0x00, 0x02, 0x00, 0x00, 0x00, 0x10, 0x00, 0x00, 0x00,
  0x44, 0x00, 0x00, 0x00, 0x01, 0x00, 0x00, 0x00, 0x08, 0x00, 0x00, 0x00,
  0x31, 0x00, 0x00, 0x00, 0x73, 0x65, 0x71, 0x75, 0x65, 0x6e, 0x74, 0x69,
  0x61, 0x6c, 0x2f, 0x63, 0x6f, 0x6e, 0x76, 0x32, 0x64, 0x2f, 0x42, 0x69,
  0x61, 0x73, 0x41, 0x64, 0x64, 0x2f, 0x52, 0x65, 0x61, 0x64, 0x56, 0x61,
  0x72, 0x69, 0x61, 0x62, 0x6c, 0x65, 0x4f, 0x70, 0x2f, 0x72, 0x65, 0x73,
  0x6f, 0x75, 0x72, 0x63, 0x65, 0x00, 0x00, 0x00, 0x90, 0xff, 0xff, 0xff,
  0x14, 0x00, 0x18, 0x00, 0x04, 0x00, 0x00, 0x00, 0x08, 0x00, 0x0c, 0x00,
  0x10, 0x00, 0x00, 0x00, 0x00, 0x00, 0x14, 0x00, 0x14, 0x00, 0x00, 0x00,
  0x14, 0x00, 0x00, 0x00, 0x01, 0x00, 0x00, 0x00, 0x20, 0x00, 0x00, 0x00,
  0x44, 0x00, 0x00, 0x00, 0x2c, 0x00, 0x00, 0x00, 0x04, 0x00, 0x00, 0x00,
  0x01, 0x00, 0x00, 0x00, 0x40, 0x00, 0x00, 0x00, 0x03, 0x00, 0x00, 0x00,
  0x01, 0x00, 0x00, 0x00, 0x0c, 0x00, 0x00, 0x00, 0x63, 0x6f, 0x6e, 0x76,
  0x32, 0x64, 0x5f, 0x69, 0x6e, 0x70, 0x75, 0x74, 0x00, 0x00, 0x00, 0x00,
  0x04, 0x00, 0x00, 0x00, 0xff, 0xff, 0xff, 0xff, 0x40, 0x00, 0x00, 0x00,
  0x03, 0x00, 0x00, 0x00, 0x01, 0x00, 0x00, 0x00, 0xfc, 0xff, 0xff, 0xff,
  0x04, 0x00, 0x04, 0x00, 0x04, 0x00, 0x00, 0x00




};


unsigned int model_tflite_len = 13052;// Fill the int in `src/model.cc` here
