#include "magic_wand_model_data.h"


// We need to keep the data array aligned on some architectures.

#ifdef __has_attribute

#define HAVE_ATTRIBUTE(x) __has_attribute(x)

#else

#define HAVE_ATTRIBUTE(x) 0

#endif

#if HAVE_ATTRIBUTE(aligned) || (defined(__GNUC__) && !defined(__clang__))

#define DATA_ALIGN_ATTRIBUTE __attribute__((aligned(4)))

#else

#define DATA_ALIGN_ATTRIBUTE

#endif


const unsigned char g_magic_wand_model_data[] DATA_ALIGN_ATTRIBUTE = {

  // Paste the data of the char array in `src/model.cc` here
    0x1c, 0x00, 0x00, 0x00, 0x54, 0x46, 0x4c, 0x33, 0x14, 0x00, 0x20, 0x00,
  0x04, 0x00, 0x08, 0x00, 0x0c, 0x00, 0x10, 0x00, 0x14, 0x00, 0x00, 0x00,
  0x18, 0x00, 0x1c, 0x00, 0x14, 0x00, 0x00, 0x00, 0x03, 0x00, 0x00, 0x00,
  0x18, 0x00, 0x00, 0x00, 0x2c, 0x00, 0x00, 0x00, 0xd8, 0x00, 0x00, 0x00,
  0x2c, 0x00, 0x00, 0x00, 0x80, 0x00, 0x00, 0x00, 0x78, 0x00, 0x00, 0x00,
  0x05, 0x00, 0x00, 0x00, 0x28, 0x07, 0x00, 0x00, 0x44, 0x06, 0x00, 0x00,
  0xbc, 0x03, 0x00, 0x00, 0xf8, 0x02, 0x00, 0x00, 0xac, 0x01, 0x00, 0x00,
  0x01, 0x00, 0x00, 0x00, 0xd0, 0x00, 0x00, 0x00, 0x14, 0x00, 0x00, 0x00,
  0x98, 0x32, 0x00, 0x00, 0x94, 0x32, 0x00, 0x00, 0x8c, 0x31, 0x00, 0x00,
  0xd8, 0x30, 0x00, 0x00, 0x30, 0x30, 0x00, 0x00, 0xbc, 0x2f, 0x00, 0x00,
  0x50, 0x2f, 0x00, 0x00, 0x00, 0x13, 0x00, 0x00, 0xec, 0x11, 0x00, 0x00,
  0x10, 0x10, 0x00, 0x00, 0xb4, 0x07, 0x00, 0x00, 0x6c, 0x32, 0x00, 0x00,
  0x68, 0x32, 0x00, 0x00, 0x64, 0x32, 0x00, 0x00, 0x60, 0x32, 0x00, 0x00,
  0x5c, 0x32, 0x00, 0x00, 0x58, 0x32, 0x00, 0x00, 0x54, 0x32, 0x00, 0x00,
  0x50, 0x32, 0x00, 0x00, 0x3c, 0x00, 0x00, 0x00, 0x00, 0x00, 0x00, 0x00,
  0x01, 0x00, 0x00, 0x00, 0x0c, 0x00, 0x00, 0x00, 0x08, 0x00, 0x0c, 0x00,
  0x04, 0x00, 0x08, 0x00, 0x08, 0x00, 0x00, 0x00, 0x08, 0x00, 0x00, 0x00,
  0x13, 0x00, 0x00, 0x00, 0x13, 0x00, 0x00, 0x00, 0x6d, 0x69, 0x6e, 0x5f,
  0x72, 0x75, 0x6e, 0x74, 0x69, 0x6d, 0x65, 0x5f, 0x76, 0x65, 0x72, 0x73,
  0x69, 0x6f, 0x6e, 0x00, 0xfa, 0xce, 0xff, 0xff, 0x04, 0x00, 0x00, 0x00,
  0x10, 0x00, 0x00, 0x00, 0x31, 0x2e, 0x35, 0x2e, 0x30, 0x00, 0x00, 0x00,
  0x00, 0x00, 0x00, 0x00, 0x00, 0x00, 0x00, 0x00, 0x0f, 0x00, 0x00, 0x00,
  0x4d, 0x4c, 0x49, 0x52, 0x20, 0x43, 0x6f, 0x6e, 0x76, 0x65, 0x72, 0x74,
  0x65, 0x64, 0x2e, 0x00, 0x00, 0x00, 0x0e, 0x00, 0x18, 0x00, 0x04, 0x00,
  0x08, 0x00, 0x0c, 0x00, 0x10, 0x00, 0x14, 0x00, 0x0e, 0x00, 0x00, 0x00,
  0x14, 0x00, 0x00, 0x00, 0x5c, 0x00, 0x00, 0x00, 0x60, 0x00, 0x00, 0x00,
  0x64, 0x00, 0x00, 0x00, 0x84, 0x00, 0x00, 0x00, 0x12, 0x00, 0x00, 0x00,
  0x58, 0x31, 0x00, 0x00, 0xe8, 0x30, 0x00, 0x00, 0x44, 0x30, 0x00, 0x00,
  0x9c, 0x2f, 0x00, 0x00, 0xf4, 0x2e, 0x00, 0x00, 0x94, 0x2e, 0x00, 0x00,
  0x2c, 0x2e, 0x00, 0x00, 0xd8, 0x11, 0x00, 0x00, 0xbc, 0x10, 0x00, 0x00,
  0xe0, 0x0e, 0x00, 0x00, 0x0c, 0x06, 0x00, 0x00, 0x28, 0x05, 0x00, 0x00,
  0xe8, 0x03, 0x00, 0x00, 0x3c, 0x03, 0x00, 0x00, 0x98, 0x02, 0x00, 0x00,
  0xd4, 0x01, 0x00, 0x00, 0x10, 0x01, 0x00, 0x00, 0x84, 0x00, 0x00, 0x00,
  0x01, 0x00, 0x00, 0x00, 0x00, 0x00, 0x00, 0x00, 0x01, 0x00, 0x00, 0x00,
  0x11, 0x00, 0x00, 0x00, 0x08, 0x00, 0x00, 0x00, 0x74, 0x05, 0x00, 0x00,
  0x94, 0x04, 0x00, 0x00, 0x78, 0x03, 0x00, 0x00, 0xbc, 0x02, 0x00, 0x00,
  0x30, 0x02, 0x00, 0x00, 0x50, 0x01, 0x00, 0x00, 0xa8, 0x00, 0x00, 0x00,
  0x10, 0x00, 0x00, 0x00, 0x04, 0x00, 0x00, 0x00, 0x6d, 0x61, 0x69, 0x6e,
  0x00, 0x00, 0x00, 0x00, 0x7a, 0xff, 0xff, 0xff, 0x00, 0x00, 0x00, 0x09,
  0x04, 0x00, 0x00, 0x00, 0x1c, 0x00, 0x00, 0x00, 0x10, 0x00, 0x00, 0x00,
  0x04, 0x00, 0x00, 0x00, 0xf6, 0xcf, 0xff, 0xff, 0x00, 0x00, 0x80, 0x3f,
  0x01, 0x00, 0x00, 0x00, 0x11, 0x00, 0x00, 0x00, 0x01, 0x00, 0x00, 0x00,
  0x10, 0x00, 0x00, 0x00, 0xa0, 0xfa, 0xff, 0xff, 0x19, 0x00, 0x00, 0x00,
  0x00, 0x00, 0x00, 0x19, 0x01, 0x00, 0x00, 0x00, 0x84, 0xcf, 0xff, 0xff,
  0x14, 0x00, 0x00, 0x00, 0x12, 0x00, 0x00, 0x00, 0x18, 0x00, 0x00, 0x00,
  0x30, 0x00, 0x00, 0x00, 0x20, 0x00, 0x00, 0x00, 0x02, 0x00, 0x00, 0x00,
  0x01, 0x00, 0x00, 0x00, 0x03, 0x00, 0x00, 0x00, 0x08, 0x00, 0x00, 0x00,
  0x49, 0x64, 0x65, 0x6e, 0x74, 0x69, 0x74, 0x79, 0x00, 0x00, 0x00, 0x00,
  0x02, 0x00, 0x00, 0x00, 0xff, 0xff, 0xff, 0xff, 0x03, 0x00, 0x00, 0x00,
  0x68, 0xd0, 0xff, 0xff, 0x00, 0x00, 0x0e, 0x00, 0x18, 0x00, 0x08, 0x00,
  0x0c, 0x00, 0x10, 0x00, 0x07, 0x00, 0x14, 0x00, 0x0e, 0x00, 0x00, 0x00,
  0x00, 0x00, 0x00, 0x08, 0x03, 0x00, 0x00, 0x00, 0x18, 0x00, 0x00, 0x00,
  0x0c, 0x00, 0x00, 0x00, 0x04, 0x00, 0x00, 0x00, 0x84, 0xcf, 0xff, 0xff,
  0x01, 0x00, 0x00, 0x00, 0x10, 0x00, 0x00, 0x00, 0x03, 0x00, 0x00, 0x00,
  0x0f, 0x00, 0x00, 0x00, 0x07, 0x00, 0x00, 0x00, 0x04, 0x00, 0x00, 0x00,
  0x0c, 0xd0, 0xff, 0xff, 0x14, 0x00, 0x00, 0x00, 0x11, 0x00, 0x00, 0x00,
  0x18, 0x00, 0x00, 0x00, 0x5c, 0x00, 0x00, 0x00, 0x4c, 0x00, 0x00, 0x00,
  0x02, 0x00, 0x00, 0x00, 0x01, 0x00, 0x00, 0x00, 0x03, 0x00, 0x00, 0x00,
  0x34, 0x00, 0x00, 0x00, 0x73, 0x65, 0x71, 0x75, 0x65, 0x6e, 0x74, 0x69,
  0x61, 0x6c, 0x2f, 0x64, 0x65, 0x6e, 0x73, 0x65, 0x5f, 0x31, 0x2f, 0x4d,
  0x61, 0x74, 0x4d, 0x75, 0x6c, 0x3b, 0x73, 0x65, 0x71, 0x75, 0x65, 0x6e,
  0x74, 0x69, 0x61, 0x6c, 0x2f, 0x64, 0x65, 0x6e, 0x73, 0x65, 0x5f, 0x31,
  0x2f, 0x42, 0x69, 0x61, 0x73, 0x41, 0x64, 0x64, 0x00, 0x00, 0x00, 0x00,
  0x02, 0x00, 0x00, 0x00, 0xff, 0xff, 0xff, 0xff, 0x03, 0x00, 0x00, 0x00,
  0x0c, 0xd0, 0xff, 0xff, 0xda, 0xfc, 0xff, 0xff, 0x00, 0x00, 0x00, 0x08,
  0x03, 0x00, 0x00, 0x00, 0x24, 0x00, 0x00, 0x00, 0x18, 0x00, 0x00, 0x00,
  0x0c, 0x00, 0x00, 0x00, 0x00, 0x00, 0x06, 0x00, 0x08, 0x00, 0x07, 0x00,
  0x06, 0x00, 0x00, 0x00, 0x00, 0x00, 0x00, 0x01, 0x01, 0x00, 0x00, 0x00,
  0x0f, 0x00, 0x00, 0x00, 0x03, 0x00, 0x00, 0x00, 0x0e, 0x00, 0x00, 0x00,
  0x06, 0x00, 0x00, 0x00, 0x03, 0x00, 0x00, 0x00, 0xe8, 0xfb, 0xff, 0xff,
  0x09, 0x00, 0x00, 0x00, 0x00, 0x00, 0x00, 0x09, 0x01, 0x00, 0x00, 0x00,
  0xcc, 0xd0, 0xff, 0xff, 0x14, 0x00, 0x00, 0x00, 0x10, 0x00, 0x00, 0x00,
  0x18, 0x00, 0x00, 0x00, 0x6c, 0x00, 0x00, 0x00, 0x5c, 0x00, 0x00, 0x00,
  0x02, 0x00, 0x00, 0x00, 0x01, 0x00, 0x00, 0x00, 0x10, 0x00, 0x00, 0x00,
  0x46, 0x00, 0x00, 0x00, 0x73, 0x65, 0x71, 0x75, 0x65, 0x6e, 0x74, 0x69,
  0x61, 0x6c, 0x2f, 0x64, 0x65, 0x6e, 0x73, 0x65, 0x2f, 0x4d, 0x61, 0x74,
  0x4d, 0x75, 0x6c, 0x3b, 0x73, 0x65, 0x71, 0x75, 0x65, 0x6e, 0x74, 0x69,
  0x61, 0x6c, 0x2f, 0x64, 0x65, 0x6e, 0x73, 0x65, 0x2f, 0x52, 0x65, 0x6c,
  0x75, 0x3b, 0x73, 0x65, 0x71, 0x75, 0x65, 0x6e, 0x74, 0x69, 0x61, 0x6c,
  0x2f, 0x64, 0x65, 0x6e, 0x73, 0x65, 0x2f, 0x42, 0x69, 0x61, 0x73, 0x41,
  0x64, 0x64, 0x00, 0x00, 0x02, 0x00, 0x00, 0x00, 0xff, 0xff, 0xff, 0xff,
  0x10, 0x00, 0x00, 0x00, 0xec, 0xd1, 0xff, 0xff, 0x00, 0x00, 0x0a, 0x00,
  0x10, 0x00, 0x04, 0x00, 0x08, 0x00, 0x0c, 0x00, 0x0a, 0x00, 0x00, 0x00,
  0x02, 0x00, 0x00, 0x00, 0x10, 0x00, 0x00, 0x00, 0x04, 0x00, 0x00, 0x00,
  0x01, 0x00, 0x00, 0x00, 0x0e, 0x00, 0x00, 0x00, 0x02, 0x00, 0x00, 0x00,
  0x0d, 0x00, 0x00, 0x00, 0x05, 0x00, 0x00, 0x00, 0xa8, 0xfc, 0xff, 0xff,
  0x16, 0x00, 0x00, 0x00, 0x00, 0x00, 0x00, 0x16, 0x01, 0x00, 0x00, 0x00,
  0x8c, 0xd1, 0xff, 0xff, 0x14, 0x00, 0x00, 0x00, 0x0f, 0x00, 0x00, 0x00,
  0x18, 0x00, 0x00, 0x00, 0x40, 0x00, 0x00, 0x00, 0x30, 0x00, 0x00, 0x00,
  0x02, 0x00, 0x00, 0x00, 0x01, 0x00, 0x00, 0x00, 0x70, 0x00, 0x00, 0x00,
  0x1a, 0x00, 0x00, 0x00, 0x73, 0x65, 0x71, 0x75, 0x65, 0x6e, 0x74, 0x69,
  0x61, 0x6c, 0x2f, 0x66, 0x6c, 0x61, 0x74, 0x74, 0x65, 0x6e, 0x2f, 0x52,
  0x65, 0x73, 0x68, 0x61, 0x70, 0x65, 0x00, 0x00, 0x02, 0x00, 0x00, 0x00,
  0xff, 0xff, 0xff, 0xff, 0x70, 0x00, 0x00, 0x00, 0x70, 0xd1, 0xff, 0xff,
  0x3e, 0xfe, 0xff, 0xff, 0x00, 0x00, 0x00, 0x05, 0x01, 0x00, 0x00, 0x00,
  0x38, 0x00, 0x00, 0x00, 0x2c, 0x00, 0x00, 0x00, 0x14, 0x00, 0x00, 0x00,
  0x00, 0x00, 0x0e, 0x00, 0x14, 0x00, 0x00, 0x00, 0x10, 0x00, 0x0c, 0x00,
  0x08, 0x00, 0x04, 0x00, 0x0e, 0x00, 0x00, 0x00, 0x03, 0x00, 0x00, 0x00,
  0x01, 0x00, 0x00, 0x00, 0x03, 0x00, 0x00, 0x00, 0x01, 0x00, 0x00, 0x00,
  0x01, 0x00, 0x00, 0x00, 0x0d, 0x00, 0x00, 0x00, 0x01, 0x00, 0x00, 0x00,
  0x0c, 0x00, 0x00, 0x00, 0x2c, 0xd2, 0xff, 0xff, 0x14, 0x00, 0x00, 0x00,
  0x0e, 0x00, 0x00, 0x00, 0x20, 0x00, 0x00, 0x00, 0x58, 0x00, 0x00, 0x00,
  0x40, 0x00, 0x00, 0x00, 0x04, 0x00, 0x00, 0x00, 0x01, 0x00, 0x00, 0x00,
  0x07, 0x00, 0x00, 0x00, 0x01, 0x00, 0x00, 0x00, 0x10, 0x00, 0x00, 0x00,
  0x22, 0x00, 0x00, 0x00, 0x73, 0x65, 0x71, 0x75, 0x65, 0x6e, 0x74, 0x69,
  0x61, 0x6c, 0x2f, 0x6d, 0x61, 0x78, 0x5f, 0x70, 0x6f, 0x6f, 0x6c, 0x69,
  0x6e, 0x67, 0x32, 0x64, 0x5f, 0x31, 0x2f, 0x4d, 0x61, 0x78, 0x50, 0x6f,
  0x6f, 0x6c, 0x00, 0x00, 0x04, 0x00, 0x00, 0x00, 0xff, 0xff, 0xff, 0xff,
  0x07, 0x00, 0x00, 0x00, 0x01, 0x00, 0x00, 0x00, 0x10, 0x00, 0x00, 0x00,
  0x28, 0xd2, 0xff, 0xff, 0x1a, 0xfe, 0xff, 0xff, 0x00, 0x00, 0x00, 0x01,
  0x24, 0x00, 0x00, 0x00, 0x18, 0x00, 0x00, 0x00, 0x04, 0x00, 0x00, 0x00,
  0x0c, 0xfe, 0xff, 0xff, 0x01, 0x00, 0x00, 0x00, 0x01, 0x00, 0x00, 0x00,
  0x00, 0x00, 0x00, 0x01, 0x01, 0x00, 0x00, 0x00, 0x0c, 0x00, 0x00, 0x00,
  0x03, 0x00, 0x00, 0x00, 0x0b, 0x00, 0x00, 0x00, 0x09, 0x00, 0x00, 0x00,
  0x02, 0x00, 0x00, 0x00, 0xd4, 0xd2, 0xff, 0xff, 0x14, 0x00, 0x00, 0x00,
  0x0d, 0x00, 0x00, 0x00, 0x20, 0x00, 0x00, 0x00, 0xb8, 0x00, 0x00, 0x00,
  0xa0, 0x00, 0x00, 0x00, 0x04, 0x00, 0x00, 0x00, 0x01, 0x00, 0x00, 0x00,
  0x15, 0x00, 0x00, 0x00, 0x01, 0x00, 0x00, 0x00, 0x10, 0x00, 0x00, 0x00,
  0x83, 0x00, 0x00, 0x00, 0x73, 0x65, 0x71, 0x75, 0x65, 0x6e, 0x74, 0x69,
  0x61, 0x6c, 0x2f, 0x63, 0x6f, 0x6e, 0x76, 0x32, 0x64, 0x5f, 0x31, 0x2f,
  0x52, 0x65, 0x6c, 0x75, 0x3b, 0x73, 0x65, 0x71, 0x75, 0x65, 0x6e, 0x74,
  0x69, 0x61, 0x6c, 0x2f, 0x63, 0x6f, 0x6e, 0x76, 0x32, 0x64, 0x5f, 0x31,
  0x2f, 0x42, 0x69, 0x61, 0x73, 0x41, 0x64, 0x64, 0x3b, 0x73, 0x65, 0x71,
  0x75, 0x65, 0x6e, 0x74, 0x69, 0x61, 0x6c, 0x2f, 0x63, 0x6f, 0x6e, 0x76,
  0x32, 0x64, 0x5f, 0x31, 0x2f, 0x43, 0x6f, 0x6e, 0x76, 0x32, 0x44, 0x3b,
  0x73, 0x65, 0x71, 0x75, 0x65, 0x6e, 0x74, 0x69, 0x61, 0x6c, 0x2f, 0x63,
  0x6f, 0x6e, 0x76, 0x32, 0x64, 0x5f, 0x31, 0x2f, 0x42, 0x69, 0x61, 0x73,
  0x41, 0x64, 0x64, 0x2f, 0x52, 0x65, 0x61, 0x64, 0x56, 0x61, 0x72, 0x69,
  0x61, 0x62, 0x6c, 0x65, 0x4f, 0x70, 0x2f, 0x72, 0x65, 0x73, 0x6f, 0x75,
  0x72, 0x63, 0x65, 0x00, 0x04, 0x00, 0x00, 0x00, 0xff, 0xff, 0xff, 0xff,
  0x15, 0x00, 0x00, 0x00, 0x01, 0x00, 0x00, 0x00, 0x10, 0x00, 0x00, 0x00,
  0x40, 0xd4, 0xff, 0xff, 0x00, 0x00, 0x0e, 0x00, 0x1a, 0x00, 0x08, 0x00,
  0x0c, 0x00, 0x10, 0x00, 0x07, 0x00, 0x14, 0x00, 0x0e, 0x00, 0x00, 0x00,
  0x00, 0x00, 0x00, 0x05, 0x01, 0x00, 0x00, 0x00, 0x3c, 0x00, 0x00, 0x00,
  0x30, 0x00, 0x00, 0x00, 0x14, 0x00, 0x00, 0x00, 0x00, 0x00, 0x0e, 0x00,
  0x18, 0x00, 0x17, 0x00, 0x10, 0x00, 0x0c, 0x00, 0x08, 0x00, 0x04, 0x00,
  0x0e, 0x00, 0x00, 0x00, 0x03, 0x00, 0x00, 0x00, 0x03, 0x00, 0x00, 0x00,
  0x03, 0x00, 0x00, 0x00, 0x03, 0x00, 0x00, 0x00, 0x00, 0x00, 0x00, 0x01,
  0x01, 0x00, 0x00, 0x00, 0x0b, 0x00, 0x00, 0x00, 0x01, 0x00, 0x00, 0x00,
  0x0a, 0x00, 0x00, 0x00, 0x2c, 0xff, 0xff, 0xff, 0x11, 0x00, 0x00, 0x00,
  0x00, 0x00, 0x00, 0x11, 0x01, 0x00, 0x00, 0x00, 0x10, 0xd4, 0xff, 0xff,
  0x14, 0x00, 0x00, 0x00, 0x0c, 0x00, 0x00, 0x00, 0x20, 0x00, 0x00, 0x00,
  0x58, 0x00, 0x00, 0x00, 0x40, 0x00, 0x00, 0x00, 0x04, 0x00, 0x00, 0x00,
  0x01, 0x00, 0x00, 0x00, 0x15, 0x00, 0x00, 0x00, 0x01, 0x00, 0x00, 0x00,
  0x08, 0x00, 0x00, 0x00, 0x20, 0x00, 0x00, 0x00, 0x73, 0x65, 0x71, 0x75,
  0x65, 0x6e, 0x74, 0x69, 0x61, 0x6c, 0x2f, 0x6d, 0x61, 0x78, 0x5f, 0x70,
  0x6f, 0x6f, 0x6c, 0x69, 0x6e, 0x67, 0x32, 0x64, 0x2f, 0x4d, 0x61, 0x78,
  0x50, 0x6f, 0x6f, 0x6c, 0x00, 0x00, 0x00, 0x00, 0x04, 0x00, 0x00, 0x00,
  0xff, 0xff, 0xff, 0xff, 0x15, 0x00, 0x00, 0x00, 0x01, 0x00, 0x00, 0x00,
  0x08, 0x00, 0x00, 0x00, 0x1c, 0xd5, 0xff, 0xff, 0x00, 0x00, 0x0e, 0x00,
  0x14, 0x00, 0x00, 0x00, 0x08, 0x00, 0x0c, 0x00, 0x07, 0x00, 0x10, 0x00,
  0x0e, 0x00, 0x00, 0x00, 0x00, 0x00, 0x00, 0x01, 0x30, 0x00, 0x00, 0x00,
  0x24, 0x00, 0x00, 0x00, 0x10, 0x00, 0x00, 0x00, 0x0c, 0x00, 0x10, 0x00,
  0x00, 0x00, 0x04, 0x00, 0x08, 0x00, 0x0f, 0x00, 0x0c, 0x00, 0x00, 0x00,
  0x01, 0x00, 0x00, 0x00, 0x01, 0x00, 0x00, 0x00, 0x00, 0x00, 0x00, 0x01,
  0x01, 0x00, 0x00, 0x00, 0x0a, 0x00, 0x00, 0x00, 0x03, 0x00, 0x00, 0x00,
  0x00, 0x00, 0x00, 0x00, 0x08, 0x00, 0x00, 0x00, 0x01, 0x00, 0x00, 0x00,
  0x0c, 0x00, 0x10, 0x00, 0x0b, 0x00, 0x00, 0x00, 0x0c, 0x00, 0x04, 0x00,
  0x0c, 0x00, 0x00, 0x00, 0x03, 0x00, 0x00, 0x00, 0x00, 0x00, 0x00, 0x03,
  0x01, 0x00, 0x00, 0x00, 0xf0, 0xd4, 0xff, 0xff, 0x14, 0x00, 0x00, 0x00,
  0x0b, 0x00, 0x00, 0x00, 0x20, 0x00, 0x00, 0x00, 0xb0, 0x00, 0x00, 0x00,
  0x98, 0x00, 0x00, 0x00, 0x04, 0x00, 0x00, 0x00, 0x01, 0x00, 0x00, 0x00,
  0x40, 0x00, 0x00, 0x00, 0x03, 0x00, 0x00, 0x00, 0x08, 0x00, 0x00, 0x00,
  0x7b, 0x00, 0x00, 0x00, 0x73, 0x65, 0x71, 0x75, 0x65, 0x6e, 0x74, 0x69,
  0x61, 0x6c, 0x2f, 0x63, 0x6f, 0x6e, 0x76, 0x32, 0x64, 0x2f, 0x52, 0x65,
  0x6c, 0x75, 0x3b, 0x73, 0x65, 0x71, 0x75, 0x65, 0x6e, 0x74, 0x69, 0x61,
  0x6c, 0x2f, 0x63, 0x6f, 0x6e, 0x76, 0x32, 0x64, 0x2f, 0x42, 0x69, 0x61,
  0x73, 0x41, 0x64, 0x64, 0x3b, 0x73, 0x65, 0x71, 0x75, 0x65, 0x6e, 0x74,
  0x69, 0x61, 0x6c, 0x2f, 0x63, 0x6f, 0x6e, 0x76, 0x32, 0x64, 0x2f, 0x43,
  0x6f, 0x6e, 0x76, 0x32, 0x44, 0x3b, 0x73, 0x65, 0x71, 0x75, 0x65, 0x6e,
  0x74, 0x69, 0x61, 0x6c, 0x2f, 0x63, 0x6f, 0x6e, 0x76, 0x32, 0x64, 0x2f,
  0x42, 0x69, 0x61, 0x73, 0x41, 0x64, 0x64, 0x2f, 0x52, 0x65, 0x61, 0x64,
  0x56, 0x61, 0x72, 0x69, 0x61, 0x62, 0x6c, 0x65, 0x4f, 0x70, 0x2f, 0x72,
  0x65, 0x73, 0x6f, 0x75, 0x72, 0x63, 0x65, 0x00, 0x04, 0x00, 0x00, 0x00,
  0xff, 0xff, 0xff, 0xff, 0x40, 0x00, 0x00, 0x00, 0x03, 0x00, 0x00, 0x00,
  0x08, 0x00, 0x00, 0x00, 0x44, 0xd5, 0xff, 0xff, 0x4e, 0xd6, 0xff, 0xff,
  0x04, 0x00, 0x00, 0x00, 0x00, 0x08, 0x00, 0x00, 0x0b, 0x1e, 0xd8, 0xbc,
  0x7d, 0xea, 0x5e, 0xbe, 0xdf, 0x34, 0x10, 0x3e, 0x87, 0x9d, 0xaf, 0x3a,
  0x37, 0xcf, 0xb7, 0x3d, 0x3e, 0x6a, 0x35, 0xbe, 0x4e, 0x45, 0x0e, 0xbe,
  0xa0, 0x1d, 0xcb, 0x3e, 0x9f, 0x0f, 0x32, 0x3e, 0x19, 0x6c, 0xcc, 0xbe,
  0x10, 0x95, 0x47, 0x3e, 0x84, 0xc9, 0xac, 0xbd, 0x73, 0xed, 0x15, 0x3d,
  0x99, 0x06, 0x4b, 0xbe, 0x81, 0xe7, 0xa3, 0xbc, 0x73, 0xb0, 0x22, 0x3f,
  0x2b, 0x61, 0x59, 0xbe, 0xdf, 0xce, 0xc8, 0xbe, 0xa4, 0xe8, 0x32, 0x3e,
  0xcc, 0x7c, 0x4c, 0xbe, 0x86, 0x8d, 0xae, 0x3e, 0xd8, 0xfc, 0x57, 0xbe,
  0x7c, 0x21, 0x5d, 0xbd, 0xc9, 0x02, 0xb8, 0x3e, 0x24, 0xfd, 0x0c, 0xbe,
  0x72, 0x4b, 0x74, 0xbe, 0x45, 0xe6, 0x45, 0x3d, 0x44, 0xc3, 0x22, 0xbe,
  0x9c, 0x63, 0x53, 0xbc, 0x3c, 0x9e, 0x9c, 0xbc, 0x8a, 0xa3, 0xc3, 0xbd,
  0xa7, 0x12, 0x2b, 0x3f, 0xbe, 0x9d, 0xcf, 0x3c, 0x71, 0x4e, 0x63, 0xbd,
  0x70, 0x5b, 0x06, 0x3c, 0x8f, 0x64, 0x8b, 0xbd, 0x0a, 0xe1, 0x52, 0xbf,
  0x3d, 0xfe, 0x50, 0xbf, 0x37, 0x5e, 0xfa, 0x3d, 0x8c, 0x93, 0x98, 0xbe,
  0x86, 0x8f, 0x4a, 0xbe, 0xa4, 0xab, 0xa4, 0x3e, 0x5d, 0xec, 0x94, 0xbe,
  0x3f, 0x48, 0x30, 0x3e, 0x4b, 0x9b, 0xde, 0xbf, 0x2b, 0x53, 0x4c, 0xbf,
  0x3f, 0x9a, 0xdc, 0xbd, 0x2e, 0x8c, 0xa3, 0xbe, 0xb6, 0xf4, 0xee, 0xbd,
  0xc9, 0x3c, 0xd9, 0xbb, 0x01, 0xf8, 0x57, 0xbe, 0xed, 0x97, 0x7a, 0xbd,
  0x9f, 0x9c, 0xa2, 0xbf, 0x10, 0xf7, 0x01, 0xbf, 0xbb, 0x7f, 0x19, 0xbd,
  0xab, 0xc8, 0xd0, 0xbe, 0xff, 0xad, 0x2d, 0xbe, 0xf4, 0xc4, 0x44, 0x3b,
  0xf9, 0x6f, 0x64, 0xbe, 0x37, 0x1a, 0x65, 0xbd, 0xa0, 0x21, 0x36, 0xbf,
  0x32, 0x6c, 0x3c, 0xbf, 0x5f, 0x8b, 0xe3, 0xbd, 0x4f, 0x18, 0x95, 0xbe,
  0xb0, 0xa9, 0xfb, 0x3d, 0x71, 0x3c, 0x60, 0xbe, 0x82, 0x0b, 0x44, 0xbe,
  0xa1, 0xbc, 0x96, 0xbe, 0x14, 0x0b, 0xe1, 0xbd, 0x76, 0xc4, 0x4e, 0xbd,
  0xe0, 0x1a, 0x04, 0x3d, 0x1a, 0x77, 0xcf, 0xbd, 0xab, 0x75, 0x07, 0xbd,
  0x81, 0xfe, 0xa1, 0x3d, 0x2c, 0xdb, 0xfb, 0xbc, 0xbd, 0x41, 0x76, 0xbe,
  0x9f, 0x6c, 0xca, 0xbc, 0xba, 0x93, 0xdf, 0xbd, 0x2c, 0x6d, 0xd4, 0xbd,
  0x89, 0x37, 0xc1, 0x3d, 0xf5, 0xc2, 0x3b, 0xbe, 0x8b, 0x0c, 0xf6, 0xbd,
  0x89, 0x2b, 0x66, 0xbe, 0xa4, 0x57, 0x36, 0xbd, 0xbe, 0xe2, 0x81, 0xbe,
  0x25, 0x5b, 0x1a, 0xbe, 0x95, 0x5a, 0x8c, 0xbe, 0x1b, 0x96, 0x54, 0x3b,
  0xb0, 0xc3, 0xf4, 0xbd, 0xa0, 0x2a, 0x08, 0xbe, 0xcf, 0x51, 0xfb, 0x3d,
  0xc3, 0x0d, 0x32, 0xbd, 0x2f, 0x18, 0x65, 0xbe, 0x9b, 0x76, 0x3d, 0xbd,
  0x82, 0xde, 0x2a, 0x3d, 0x77, 0x55, 0x7b, 0x3d, 0xa3, 0xcf, 0x08, 0xbe,
  0xb6, 0x2b, 0x04, 0xbe, 0x0f, 0x8a, 0x2c, 0x3e, 0x5a, 0x21, 0x4b, 0x3d,
  0xe8, 0x8f, 0x82, 0xbe, 0xcd, 0x2f, 0x6b, 0xbf, 0x56, 0xce, 0x37, 0x3e,
  0x5a, 0x2e, 0x06, 0x3a, 0x36, 0x6b, 0x45, 0x3e, 0x93, 0xec, 0x21, 0xbe,
  0x63, 0x45, 0xb5, 0x3d, 0x24, 0xc5, 0x82, 0x3d, 0x34, 0x87, 0xaf, 0xbe,
  0x93, 0xeb, 0x18, 0xbf, 0x2a, 0x4c, 0x3f, 0x3d, 0x26, 0xe9, 0x81, 0x3d,
  0xab, 0x07, 0x09, 0x3e, 0x87, 0xc4, 0x88, 0xbd, 0x5d, 0xc3, 0x0d, 0x3e,
  0x31, 0x36, 0x19, 0xbd, 0xcf, 0x39, 0x50, 0xbe, 0x64, 0xfc, 0x3b, 0xbf,
  0xa3, 0x14, 0xf7, 0xbd, 0x96, 0xc2, 0xa8, 0x3e, 0x62, 0x92, 0x2f, 0x3d,
  0xde, 0x6a, 0xd2, 0xbd, 0x41, 0xd9, 0x3e, 0x3e, 0x6f, 0x82, 0x6d, 0xbd,
  0xc9, 0xf5, 0x92, 0xbe, 0x5b, 0x5c, 0x13, 0xbf, 0xb2, 0xc8, 0xce, 0x3d,
  0x3d, 0x04, 0x0a, 0x3b, 0xbc, 0x87, 0x30, 0x3d, 0xfa, 0x50, 0x31, 0xbe,
  0xd3, 0x18, 0xfd, 0xbd, 0x78, 0x41, 0xa1, 0xbd, 0x18, 0x44, 0x8a, 0xbd,
  0xc8, 0xda, 0xf7, 0xbd, 0xfa, 0x3d, 0x6c, 0xbe, 0xfb, 0x9a, 0x1f, 0x3e,
  0xeb, 0xf4, 0x68, 0xbd, 0x03, 0x47, 0x17, 0xbe, 0x48, 0xfb, 0x26, 0xbe,
  0xd1, 0x18, 0xa3, 0x3c, 0x2f, 0x1e, 0xe5, 0x3c, 0x48, 0xe6, 0xaa, 0x3d,
  0xf1, 0xfd, 0x02, 0xbd, 0xc7, 0x23, 0x06, 0x3d, 0x8a, 0x99, 0x57, 0x3c,
  0x90, 0xb3, 0x0d, 0x3d, 0x35, 0x82, 0x02, 0xbd, 0x8f, 0x38, 0x94, 0xbd,
  0x4c, 0xe9, 0x00, 0x3e, 0x23, 0x1a, 0x14, 0x3f, 0x9a, 0x24, 0x23, 0xbe,
  0x0a, 0x6f, 0x3c, 0x3f, 0x50, 0xaf, 0x80, 0xbe, 0x10, 0x30, 0xf1, 0xbd,
  0x62, 0x67, 0xa1, 0x3d, 0xde, 0x10, 0x7c, 0x3b, 0xbb, 0x88, 0x79, 0x3c,
  0xb7, 0x4c, 0x34, 0x3e, 0xe9, 0xf7, 0x38, 0xbe, 0xf8, 0xb7, 0x87, 0x3e,
  0x23, 0x5e, 0x8d, 0x3e, 0x7c, 0x4f, 0xf6, 0xbd, 0xab, 0x1f, 0x34, 0x3c,
  0x65, 0x97, 0x88, 0xbd, 0x31, 0x76, 0x97, 0xbd, 0x7a, 0x4c, 0x26, 0xbf,
  0x18, 0x77, 0x87, 0x3e, 0x3c, 0x57, 0x08, 0xbd, 0x85, 0xfe, 0xbb, 0xbd,
  0x18, 0xb7, 0x08, 0xbe, 0xb7, 0xa8, 0x3e, 0x3d, 0x00, 0x46, 0x64, 0x3e,
  0xf4, 0x7c, 0xc8, 0xbd, 0xcc, 0x38, 0x13, 0xbf, 0x1e, 0xe0, 0x9b, 0xbd,
  0xad, 0xa8, 0x3d, 0x3e, 0x0c, 0x2b, 0x6f, 0xbd, 0xdc, 0xe9, 0x82, 0x3d,
  0x48, 0x14, 0xf4, 0xbd, 0x03, 0x92, 0xc7, 0x3d, 0x1c, 0xce, 0x66, 0xbd,
  0x81, 0xa0, 0x03, 0xbf, 0x5b, 0x6d, 0x91, 0x3d, 0xc3, 0xe7, 0x20, 0x3e,
  0x21, 0xc3, 0x0d, 0xbe, 0x42, 0x4b, 0x73, 0x3d, 0xfd, 0x3f, 0x40, 0x3e,
  0xef, 0x50, 0x8e, 0xbd, 0xe2, 0xf6, 0x83, 0xbd, 0x46, 0x4e, 0x02, 0xbf,
  0x3c, 0x29, 0x3e, 0x3c, 0x43, 0xcb, 0x8d, 0x3e, 0x96, 0x70, 0x76, 0xbe,
  0x19, 0x61, 0xf5, 0xbd, 0x93, 0x6e, 0x6a, 0xbd, 0x0c, 0xa2, 0x3d, 0xbb,
  0xb2, 0x26, 0xef, 0x3b, 0x85, 0x46, 0x27, 0xbe, 0xae, 0x3c, 0xeb, 0xbc,
  0x1d, 0xe2, 0xb3, 0x3e, 0x08, 0xb7, 0xbf, 0xbd, 0x5f, 0x55, 0xa8, 0xbd,
  0xbf, 0x00, 0x07, 0xbd, 0x6e, 0x5f, 0x0d, 0xbc, 0xc4, 0x0c, 0x22, 0xbc,
  0x08, 0xca, 0x7a, 0xbd, 0x4c, 0x06, 0x01, 0xbd, 0x11, 0x5c, 0x35, 0x3f,
  0x5d, 0x74, 0xee, 0xbd, 0x37, 0xab, 0xf4, 0xbc, 0xce, 0xa0, 0x4a, 0xbe,
  0x1b, 0x4b, 0xc5, 0xbc, 0x7e, 0x15, 0xff, 0xbd, 0xf8, 0xe6, 0x24, 0x3f,
  0x98, 0xca, 0xb4, 0xbd, 0x3d, 0x16, 0xa7, 0x3e, 0x03, 0x17, 0x1f, 0xbe,
  0x88, 0xb6, 0xbd, 0xbb, 0x17, 0x3c, 0x82, 0xbe, 0xc1, 0x04, 0x15, 0x3c,
  0x1f, 0xdc, 0x92, 0x3e, 0xff, 0xca, 0x4d, 0xbe, 0xf3, 0xf6, 0x1e, 0xbd,
  0x5d, 0x9f, 0xdf, 0xbd, 0xe0, 0x06, 0x70, 0x3d, 0x01, 0x06, 0x7a, 0xbe,
  0x0f, 0x8c, 0x7f, 0xbe, 0xc0, 0xb3, 0x86, 0xbd, 0xa0, 0xf0, 0x4f, 0xbd,
  0x13, 0xff, 0x8e, 0xbd, 0x63, 0xdb, 0x45, 0xbe, 0xe6, 0x35, 0x34, 0x3d,
  0x52, 0x9f, 0x2c, 0xbe, 0x27, 0x18, 0x92, 0xbd, 0x64, 0x11, 0x0f, 0xbe,
  0x9e, 0x99, 0xdc, 0xbd, 0x7b, 0xf5, 0xd2, 0x3c, 0x65, 0xa9, 0xff, 0x3d,
  0xfb, 0x68, 0x7c, 0xbe, 0x15, 0x9e, 0x58, 0x3e, 0xdf, 0xf0, 0x80, 0x3c,
  0xdd, 0xb3, 0x6e, 0xbe, 0xfe, 0xf7, 0x1d, 0xbe, 0xaa, 0x4e, 0x22, 0xbe,
  0xb9, 0xa0, 0xc3, 0xbe, 0xd2, 0xa4, 0xaf, 0x3e, 0x96, 0x8d, 0x05, 0xbd,
  0x21, 0xa3, 0x26, 0xbe, 0x10, 0xc2, 0xd0, 0xbd, 0xa2, 0xb0, 0x9b, 0xbe,
  0x43, 0x64, 0xc7, 0xba, 0x5b, 0xd7, 0x8f, 0xbc, 0x72, 0x24, 0xf8, 0x3d,
  0xb7, 0x15, 0x5e, 0xbe, 0x6f, 0x6d, 0x9d, 0xbd, 0xaa, 0x1e, 0x8e, 0xbd,
  0x29, 0xd1, 0x74, 0xbe, 0x31, 0x73, 0x78, 0x3d, 0xb0, 0x35, 0xef, 0xbd,
  0x42, 0xdd, 0x87, 0xbe, 0xde, 0x12, 0xb1, 0xbd, 0x27, 0xe5, 0x4c, 0x3e,
  0xbd, 0x65, 0xdc, 0xbe, 0xa4, 0x62, 0xbd, 0x3e, 0x84, 0xc1, 0xe5, 0xbd,
  0xe1, 0x48, 0x08, 0xbe, 0x4b, 0x52, 0xea, 0x3b, 0xd0, 0x15, 0x5f, 0xbe,
  0xd2, 0x51, 0x57, 0x3e, 0x91, 0xcc, 0xc0, 0xbd, 0xd9, 0x5b, 0xbe, 0xbe,
  0x88, 0xdc, 0xd2, 0x3e, 0xe0, 0x69, 0x99, 0xbe, 0x05, 0x56, 0x5d, 0xbe,
  0xba, 0xee, 0x12, 0xbe, 0xac, 0x24, 0x6a, 0xbe, 0x2f, 0xc1, 0x82, 0x3e,
  0x7a, 0xbf, 0x62, 0x3d, 0xce, 0x10, 0xc6, 0xbe, 0xdc, 0xb5, 0x35, 0x3f,
  0x1c, 0x8a, 0xfe, 0x3c, 0x92, 0x9c, 0x11, 0xbe, 0x6d, 0xb2, 0x05, 0xbd,
  0x24, 0xee, 0xe0, 0xbd, 0x7b, 0xa6, 0x85, 0xbd, 0xa5, 0x09, 0x3c, 0xbe,
  0xfb, 0x50, 0x2a, 0x3c, 0xfe, 0x29, 0x67, 0xbe, 0xdd, 0x6a, 0xb0, 0xbd,
  0x5a, 0x9c, 0x70, 0xbc, 0x12, 0xc9, 0x6c, 0xbe, 0xed, 0x2a, 0xab, 0xbd,
  0x1c, 0x11, 0x80, 0x3e, 0x31, 0x5e, 0xa6, 0x3e, 0xf7, 0xca, 0xb1, 0xbd,
  0xca, 0x15, 0x3f, 0x3e, 0x84, 0x9d, 0x22, 0xbd, 0x51, 0x4a, 0xfe, 0xbd,
  0x27, 0xee, 0x7e, 0xbd, 0xc5, 0xd6, 0x02, 0xbe, 0x6f, 0xdc, 0xe4, 0x3d,
  0x26, 0xb4, 0x2d, 0x3d, 0xd4, 0x8b, 0xeb, 0xbd, 0x71, 0xc7, 0xfb, 0x3d,
  0xa7, 0x33, 0xf1, 0xbd, 0xfe, 0xd4, 0x14, 0xbe, 0x73, 0x2d, 0x0d, 0xbe,
  0x61, 0xa1, 0x09, 0xbe, 0xaf, 0xd0, 0xf8, 0x3d, 0x71, 0xa3, 0xa7, 0x3e,
  0x3e, 0xe0, 0x00, 0xbe, 0xa1, 0x00, 0x9d, 0xbc, 0x1d, 0x81, 0x31, 0xbe,
  0x1d, 0xf0, 0x68, 0xbd, 0x01, 0x82, 0x1d, 0x3d, 0x4e, 0x4b, 0xe7, 0xbd,
  0x3d, 0x14, 0xd3, 0x3d, 0x17, 0x0e, 0x33, 0xbe, 0xb0, 0xa6, 0x4c, 0xbe,
  0x14, 0x45, 0x8d, 0x3e, 0x89, 0x4e, 0x1d, 0x3d, 0x3d, 0x81, 0x26, 0xbe,
  0x9b, 0xd9, 0x4c, 0x3d, 0xab, 0xd5, 0x11, 0xbe, 0x74, 0xfb, 0xea, 0xbd,
  0x96, 0x97, 0x8f, 0x3d, 0x2d, 0x6a, 0x12, 0xbe, 0x7c, 0xc9, 0xe3, 0x3e,
  0x5d, 0x68, 0x21, 0x3a, 0xe6, 0xb5, 0xbd, 0x3b, 0xed, 0xaa, 0x29, 0x3d,
  0x01, 0xbf, 0xee, 0xbd, 0xeb, 0xd3, 0xe7, 0xbd, 0x09, 0xd7, 0x1d, 0xbd,
  0xf4, 0xfb, 0x57, 0xbd, 0x04, 0x2c, 0x4b, 0x3e, 0xf8, 0x4b, 0x66, 0xbd,
  0xd9, 0xdc, 0xbf, 0xbd, 0x1e, 0x7e, 0x01, 0xbe, 0x2e, 0xac, 0xbe, 0xbd,
  0x30, 0x97, 0xa6, 0x3e, 0x28, 0xf0, 0xfc, 0x3e, 0x4f, 0x03, 0x13, 0xbe,
  0x57, 0xb5, 0x4e, 0x3e, 0x1f, 0xb9, 0xe8, 0x3c, 0x1c, 0xa0, 0xc3, 0x3c,
  0x69, 0x6f, 0x78, 0x3c, 0xa8, 0xc1, 0x63, 0xbd, 0xe2, 0x63, 0xc5, 0xbd,
  0x8e, 0x02, 0x97, 0x3d, 0xe4, 0x17, 0x30, 0xbd, 0x18, 0x42, 0xf7, 0xbd,
  0x3e, 0xcc, 0xd3, 0xbd, 0xb5, 0xd4, 0x0c, 0xbe, 0x3f, 0xfb, 0xa7, 0xbe,
  0x0e, 0xe6, 0x3f, 0xbe, 0xf7, 0x76, 0x68, 0x3c, 0x63, 0x98, 0xe1, 0xbd,
  0x4b, 0x58, 0x01, 0xbf, 0x87, 0x51, 0xc5, 0x3e, 0xd5, 0xaf, 0x80, 0xbe,
  0x58, 0x25, 0x67, 0xbe, 0x32, 0x04, 0x0b, 0xbe, 0x0d, 0x10, 0x87, 0xbe,
  0x2d, 0x3e, 0x1b, 0x3c, 0x59, 0xfd, 0x18, 0xbe, 0x6a, 0x0c, 0x66, 0xbe,
  0x5f, 0x67, 0x57, 0x3d, 0xc9, 0x51, 0xdc, 0x3a, 0x44, 0xc4, 0xa5, 0xbe,
  0xce, 0x2c, 0x03, 0xbe, 0x01, 0xe3, 0x49, 0xbe, 0xa3, 0x05, 0xc9, 0x3c,
  0x8c, 0x4c, 0xc5, 0xbd, 0xf5, 0xba, 0x07, 0xbf, 0xb5, 0x63, 0xb9, 0x3e,
  0xff, 0xec, 0x5e, 0xbe, 0x77, 0x7a, 0x85, 0xbe, 0x6b, 0xca, 0x42, 0xbe,
  0xe9, 0x8b, 0x30, 0xbe, 0x23, 0x84, 0xda, 0xbd, 0x61, 0x89, 0x3d, 0x3e,
  0x15, 0x1f, 0xe8, 0xbe, 0xec, 0x5e, 0x0c, 0x3f, 0x9c, 0x85, 0x5b, 0xbe,
  0x33, 0x11, 0xa5, 0xbd, 0xc4, 0x52, 0xad, 0xbc, 0x6d, 0xdc, 0xdb, 0xbd,
  0xba, 0x1f, 0x19, 0xbe, 0x40, 0x55, 0x2a, 0xbe, 0xa2, 0x11, 0x8f, 0xbe,
  0xf4, 0x5f, 0x38, 0xbe, 0x53, 0x1c, 0x8e, 0xbe, 0x02, 0x9a, 0x9e, 0xbd,
  0x27, 0x4a, 0xec, 0xbe, 0xd0, 0x01, 0x96, 0xbc, 0x54, 0xb8, 0x50, 0xbe,
  0x88, 0x0e, 0xac, 0xbd, 0x5e, 0x13, 0xae, 0xbd, 0xa6, 0x08, 0x13, 0xbd,
  0x5c, 0x84, 0x4c, 0xbe, 0xa7, 0x0d, 0xba, 0xbd, 0xcb, 0x65, 0xa4, 0xbe,
  0x8b, 0x3e, 0xb5, 0xbd, 0x4a, 0xfe, 0xe4, 0xbd, 0x57, 0xa6, 0x9d, 0x3e,
  0x43, 0xe1, 0xa4, 0xbe, 0xc6, 0xe5, 0xc0, 0x3e, 0x3b, 0xe2, 0x0d, 0xbe,
  0xb6, 0x92, 0x51, 0x3c, 0xc8, 0xd1, 0xe1, 0xbe, 0x7d, 0x88, 0xcc, 0xbd,
  0x8d, 0x0d, 0x91, 0x3e, 0xfc, 0xc4, 0x32, 0x3e, 0xb7, 0xd1, 0xd3, 0xbd,
  0x11, 0xdb, 0xad, 0x3e, 0xef, 0xa7, 0x26, 0x3e, 0x06, 0x55, 0x83, 0x3e,
  0xa4, 0x9f, 0x3b, 0x3a, 0x9f, 0x88, 0x78, 0xbe, 0x35, 0xc3, 0xc0, 0x3d,
  0x14, 0xfa, 0xc3, 0x3d, 0x1e, 0xf0, 0x4d, 0xbd, 0xc6, 0xff, 0x59, 0x3e,
  0xbc, 0xa3, 0x01, 0x3e, 0x0f, 0xcf, 0x56, 0xbd, 0xc6, 0x79, 0xc8, 0x3e,
  0x3f, 0xeb, 0x54, 0xbe, 0xd1, 0xcb, 0xab, 0xbe, 0x39, 0xc3, 0xeb, 0x3e,
  0x62, 0xa9, 0x17, 0xbd, 0xa9, 0xd6, 0xba, 0x3e, 0xfc, 0x71, 0xda, 0x3d,
  0x37, 0x2d, 0x63, 0xbe, 0x96, 0xcf, 0x2a, 0x3d, 0xf8, 0x13, 0xcf, 0xbe,
  0xee, 0xa0, 0x5e, 0xbe, 0xf9, 0xc8, 0x95, 0x3e, 0x05, 0x27, 0x0f, 0x3e,
  0xb7, 0x9e, 0x7e, 0x3e, 0xc1, 0x10, 0x47, 0x3c, 0xd8, 0xc9, 0x19, 0xbe,
  0xeb, 0xd0, 0xcc, 0x3e, 0xdd, 0x35, 0xc3, 0xbe, 0xe5, 0x9e, 0x31, 0xbe,
  0x0d, 0xb3, 0x83, 0x3e, 0x67, 0x5f, 0x48, 0x3d, 0xff, 0x1f, 0x7b, 0x3d,
  0x43, 0xcf, 0x41, 0xbe, 0x54, 0xc4, 0x3c, 0xbe, 0x87, 0x13, 0x77, 0x3d,
  0x21, 0x6f, 0xc4, 0xbd, 0x56, 0xbd, 0x2f, 0xbd, 0x5c, 0x52, 0xa9, 0x3d,
  0xe4, 0xf7, 0x2f, 0xbe, 0x88, 0x48, 0xd5, 0x3e, 0x96, 0x3d, 0xfb, 0xbd,
  0x57, 0x1a, 0x4b, 0xbd, 0x56, 0xdd, 0x10, 0xbe, 0x06, 0x4d, 0x1d, 0xbd,
  0x66, 0xb6, 0x29, 0x3e, 0x3e, 0x1b, 0x8b, 0x3d, 0x36, 0xe1, 0x79, 0xbd,
  0xb9, 0x1a, 0x35, 0xbd, 0xa8, 0xe9, 0x68, 0x3d, 0x23, 0x2b, 0xdd, 0xbd,
  0xfb, 0x8f, 0xe5, 0xbd, 0x3d, 0x7d, 0xfa, 0xbc, 0x64, 0x05, 0x8a, 0x3d,
  0xf4, 0x02, 0x52, 0xbc, 0x9a, 0xf7, 0x94, 0xbd, 0xa4, 0x31, 0x69, 0x3d,
  0xab, 0x63, 0x95, 0x3d, 0xa0, 0xce, 0xc2, 0xbd, 0x9d, 0xfc, 0xef, 0xbd,
  0x6b, 0x5d, 0x87, 0x3c, 0x3f, 0xfd, 0xdc, 0x3e, 0x3f, 0xf5, 0x80, 0x3e,
  0xa6, 0xbf, 0x0c, 0xbe, 0x2b, 0xab, 0xe4, 0x3e, 0x38, 0xef, 0xcb, 0x3d,
  0x95, 0x51, 0x16, 0xbe, 0x99, 0x3a, 0x89, 0x3e, 0x25, 0xd4, 0x8a, 0x3d,
  0xcb, 0x56, 0x5b, 0xbe, 0x9e, 0x28, 0xb5, 0xbe, 0x53, 0x1a, 0x90, 0x3d,
  0x13, 0xd9, 0x23, 0x3d, 0x12, 0xec, 0x0f, 0xbe, 0x2b, 0xbe, 0x2b, 0xbe,
  0x17, 0xaa, 0x78, 0xbd, 0x52, 0xc6, 0x75, 0x3b, 0xf5, 0x72, 0x36, 0xbe,
  0xd7, 0x6d, 0xbe, 0xbe, 0x38, 0xba, 0x57, 0x3d, 0x01, 0xc4, 0x58, 0xbe,
  0x55, 0xc1, 0xac, 0x3d, 0x9e, 0xe2, 0x3f, 0x3d, 0xf8, 0x9c, 0xa4, 0xbd,
  0xd3, 0xd1, 0xce, 0xbb, 0xba, 0xc2, 0x20, 0xbe, 0x9e, 0x5f, 0xa4, 0xbe,
  0xfb, 0xdc, 0x89, 0xbc, 0x49, 0x43, 0x69, 0xbe, 0xea, 0x34, 0x17, 0x3e,
  0x08, 0x95, 0x8f, 0x3e, 0x6c, 0x27, 0xfb, 0xbd, 0x29, 0xf5, 0x0a, 0x3e,
  0xe4, 0xca, 0xc3, 0xbe, 0x1d, 0x4e, 0x7f, 0xbe, 0x19, 0xd1, 0x6f, 0x3c,
  0xfe, 0x50, 0x02, 0xbf, 0x26, 0xde, 0xff, 0xff, 0x10, 0x00, 0x00, 0x00,
  0x0a, 0x00, 0x00, 0x00, 0x1c, 0x00, 0x00, 0x00, 0x38, 0x00, 0x00, 0x00,
  0x04, 0x00, 0x00, 0x00, 0x10, 0x00, 0x00, 0x00, 0x04, 0x00, 0x00, 0x00,
  0x01, 0x00, 0x00, 0x00, 0x08, 0x00, 0x00, 0x00, 0x1a, 0x00, 0x00, 0x00,
  0x73, 0x65, 0x71, 0x75, 0x65, 0x6e, 0x74, 0x69, 0x61, 0x6c, 0x2f, 0x63,
  0x6f, 0x6e, 0x76, 0x32, 0x64, 0x5f, 0x31, 0x2f, 0x43, 0x6f, 0x6e, 0x76,
  0x32, 0x44, 0x00, 0x00, 0x9c, 0xdd, 0xff, 0xff, 0xa6, 0xde, 0xff, 0xff,
  0x04, 0x00, 0x00, 0x00, 0x80, 0x01, 0x00, 0x00, 0x58, 0x8e, 0x45, 0xbe,
  0xff, 0xce, 0xbf, 0x3d, 0x52, 0x65, 0xe4, 0xbe, 0xc9, 0xbb, 0xa6, 0x3d,
  0xe1, 0x8d, 0xa2, 0xbd, 0x55, 0xe4, 0x3c, 0xbe, 0xa3, 0xd8, 0x46, 0xbd,
  0x81, 0xd0, 0x24, 0x3b, 0xf0, 0x51, 0x1c, 0xbe, 0x09, 0x64, 0x4b, 0xbe,
  0x17, 0x31, 0x30, 0xbe, 0x3e, 0x16, 0xd3, 0xbe, 0x54, 0xad, 0xa6, 0x3d,
  0x10, 0xfc, 0x3f, 0xbd, 0xc7, 0x69, 0xab, 0xbe, 0x60, 0x9c, 0x7d, 0x3e,
  0x0d, 0x13, 0x89, 0xbe, 0x7c, 0x28, 0x15, 0xbe, 0x8c, 0x65, 0x3a, 0x3e,
  0x1a, 0x03, 0x40, 0xbe, 0xba, 0x5c, 0xbd, 0xbe, 0xee, 0xc4, 0xbc, 0xbd,
  0x6b, 0x84, 0x82, 0x3c, 0xb7, 0x3f, 0x05, 0xbe, 0x2c, 0x0c, 0x15, 0xbe,
  0x29, 0xfe, 0x2f, 0x3e, 0xb0, 0x11, 0x9d, 0xbe, 0x13, 0x9a, 0x11, 0x3e,
  0xea, 0x24, 0x45, 0x3e, 0x95, 0xc7, 0xc2, 0xbe, 0xd1, 0x71, 0x98, 0xbe,
  0x11, 0xa7, 0x90, 0x3d, 0x79, 0xec, 0x48, 0xbe, 0x40, 0xf9, 0x12, 0xbe,
  0x1c, 0xf2, 0xb8, 0x3c, 0x48, 0x40, 0x91, 0xbe, 0xda, 0x9a, 0x1d, 0xbc,
  0x13, 0xc9, 0xae, 0xbd, 0xc2, 0xf3, 0x85, 0xbc, 0xe0, 0xaa, 0xbd, 0x3d,
  0xbb, 0x00, 0x27, 0xbe, 0x83, 0x33, 0x4f, 0xbe, 0xc9, 0x5f, 0xe2, 0x3d,
  0xc0, 0x16, 0x8f, 0x3d, 0xc5, 0xbb, 0xe2, 0xbc, 0x52, 0xbe, 0xdd, 0x3d,
  0x5a, 0x48, 0x38, 0x3e, 0x47, 0xf3, 0x07, 0x3e, 0xf8, 0xa7, 0xbb, 0xbe,
  0x5e, 0x2b, 0xb1, 0xbd, 0x4c, 0xc0, 0x34, 0xbe, 0x54, 0xb9, 0x18, 0xbe,
  0xce, 0xe1, 0xf6, 0xbd, 0x3a, 0x75, 0x2e, 0xbe, 0xaa, 0xd7, 0xfe, 0xbe,
  0x3b, 0x70, 0x58, 0x3d, 0x82, 0x26, 0x69, 0x38, 0x2b, 0xb2, 0x18, 0xbf,
  0xeb, 0x35, 0x52, 0x3d, 0x76, 0x19, 0x79, 0x3b, 0xf9, 0xad, 0xb4, 0xbe,
  0xef, 0x59, 0xb1, 0xbb, 0x72, 0x32, 0x8e, 0xbc, 0x89, 0xe8, 0x93, 0xbe,
  0x89, 0x51, 0x3e, 0x3e, 0xb6, 0xf9, 0xce, 0xbe, 0xa5, 0x6f, 0x04, 0xbf,
  0xef, 0xd9, 0xe3, 0x3d, 0x54, 0xfc, 0x86, 0xbe, 0xef, 0x4f, 0x26, 0xbd,
  0x6e, 0x32, 0xe8, 0x3d, 0xc7, 0xc0, 0x8b, 0xbe, 0x6e, 0x3f, 0xf1, 0xbd,
  0xb5, 0xa7, 0x1d, 0xbe, 0x2e, 0x44, 0x0d, 0xbe, 0x3f, 0x3b, 0xda, 0xbd,
  0xe1, 0x02, 0x97, 0x3c, 0xc8, 0x1e, 0xed, 0x3c, 0x71, 0x27, 0x1e, 0x3d,
  0x73, 0xdc, 0x5e, 0x3e, 0x1a, 0x8c, 0x7c, 0xbe, 0x1e, 0xf2, 0x39, 0x3e,
  0xd8, 0x87, 0x95, 0x3e, 0x71, 0xe5, 0xb8, 0xbd, 0x6d, 0x3c, 0xd5, 0x3c,
  0xfc, 0x0e, 0x89, 0xbe, 0x3a, 0x79, 0x06, 0xbe, 0xf2, 0x80, 0x25, 0xbe,
  0xcd, 0xbc, 0x8a, 0xbe, 0x31, 0xdf, 0xbc, 0xbd, 0xe6, 0xdb, 0xa0, 0x3d,
  0xe6, 0x79, 0x92, 0xbd, 0x9d, 0x61, 0x30, 0xbe, 0x77, 0xcb, 0x96, 0xbd,
  0xdc, 0xde, 0xba, 0xbe, 0xaa, 0x1f, 0x9e, 0xbe, 0xfe, 0xdf, 0xff, 0xff,
  0x10, 0x00, 0x00, 0x00, 0x09, 0x00, 0x00, 0x00, 0x1c, 0x00, 0x00, 0x00,
  0x38, 0x00, 0x00, 0x00, 0x04, 0x00, 0x00, 0x00, 0x08, 0x00, 0x00, 0x00,
  0x04, 0x00, 0x00, 0x00, 0x03, 0x00, 0x00, 0x00, 0x01, 0x00, 0x00, 0x00,
  0x18, 0x00, 0x00, 0x00, 0x73, 0x65, 0x71, 0x75, 0x65, 0x6e, 0x74, 0x69,
  0x61, 0x6c, 0x2f, 0x63, 0x6f, 0x6e, 0x76, 0x32, 0x64, 0x2f, 0x43, 0x6f,
  0x6e, 0x76, 0x32, 0x44, 0x00, 0x00, 0x00, 0x00, 0x74, 0xdf, 0xff, 0xff,
  0x7e, 0xe0, 0xff, 0xff, 0x04, 0x00, 0x00, 0x00, 0xc0, 0x00, 0x00, 0x00,
  0x06, 0xe7, 0x34, 0xbc, 0x1c, 0x19, 0xf6, 0xbd, 0x03, 0x92, 0x28, 0xbe,
  0x20, 0x92, 0x22, 0x3c, 0x72, 0xb7, 0xab, 0x3c, 0x37, 0x37, 0x3f, 0x3e,
  0x51, 0xe4, 0x83, 0xbe, 0x3a, 0x3b, 0xaf, 0x3d, 0xb9, 0x52, 0xa4, 0xbe,
  0xbd, 0x13, 0x11, 0xbe, 0xdf, 0x64, 0x26, 0xbe, 0x6f, 0x69, 0x2b, 0x3b,
  0xa8, 0x0c, 0xa0, 0x3b, 0x88, 0x6b, 0x23, 0x3e, 0x57, 0xf6, 0x93, 0xbd,
  0xb0, 0xdd, 0x65, 0x3d, 0xba, 0x54, 0x56, 0xbd, 0x4a, 0x7f, 0x2d, 0xbd,
  0xff, 0xaa, 0xe9, 0xbd, 0xb4, 0xca, 0x0d, 0x3e, 0x16, 0xe8, 0x16, 0xbb,
  0xa9, 0x42, 0x8d, 0x3e, 0x0e, 0xd9, 0x84, 0xbd, 0x3a, 0x2c, 0x86, 0x3d,
  0xb0, 0x9f, 0x16, 0xbf, 0x19, 0xf8, 0x46, 0xbe, 0x13, 0x37, 0x82, 0xbd,
  0x58, 0x53, 0x1e, 0x3d, 0xc2, 0x4d, 0x45, 0xbd, 0x86, 0x75, 0x61, 0x3e,
  0x77, 0xf6, 0xbe, 0xbd, 0xbb, 0x2b, 0x83, 0xbd, 0x63, 0xab, 0xba, 0xbe,
  0xb0, 0x0e, 0x98, 0xbe, 0x27, 0x52, 0x09, 0xbf, 0x27, 0x72, 0xc7, 0x3e,
  0x7e, 0xfa, 0x90, 0xbe, 0x1c, 0x26, 0xe7, 0x3e, 0xcb, 0xa0, 0x52, 0xbd,
  0x57, 0xb4, 0x62, 0xbe, 0xf5, 0x95, 0xda, 0x3e, 0x50, 0xb5, 0x90, 0xbe,
  0xb2, 0xb9, 0x8e, 0x3d, 0xb8, 0xac, 0x0e, 0xbf, 0x51, 0x9e, 0x66, 0xbe,
  0x24, 0x9f, 0x88, 0xbe, 0xad, 0x32, 0x9a, 0xbd, 0xd8, 0xc8, 0x92, 0x3e,
  0x16, 0xe1, 0xff, 0xff, 0x10, 0x00, 0x00, 0x00, 0x08, 0x00, 0x00, 0x00,
  0x14, 0x00, 0x00, 0x00, 0x30, 0x00, 0x00, 0x00, 0x02, 0x00, 0x00, 0x00,
  0x03, 0x00, 0x00, 0x00, 0x10, 0x00, 0x00, 0x00, 0x19, 0x00, 0x00, 0x00,
  0x73, 0x65, 0x71, 0x75, 0x65, 0x6e, 0x74, 0x69, 0x61, 0x6c, 0x2f, 0x64,
  0x65, 0x6e, 0x73, 0x65, 0x5f, 0x31, 0x2f, 0x4d, 0x61, 0x74, 0x4d, 0x75,
  0x6c, 0x00, 0x00, 0x00, 0x84, 0xe0, 0xff, 0xff, 0x8e, 0xe1, 0xff, 0xff,
  0x04, 0x00, 0x00, 0x00, 0x00, 0x1c, 0x00, 0x00, 0x1e, 0x94, 0x2f, 0x3c,
  0xb1, 0x8a, 0x84, 0x3e, 0x59, 0xd3, 0xb2, 0xbd, 0x68, 0xea, 0x21, 0x3e,
  0xf6, 0x2b, 0x32, 0xbe, 0xad, 0xf0, 0xb0, 0xbc, 0x28, 0xdc, 0xc6, 0xbd,
  0x29, 0x5f, 0xd3, 0x3d, 0xb3, 0x31, 0xd1, 0x3d, 0x97, 0xd0, 0x6c, 0xbd,
  0x4e, 0xdc, 0xba, 0xbb, 0x4a, 0x0f, 0xb1, 0xbd, 0xa7, 0x1e, 0x5e, 0xbe,
  0xfc, 0x41, 0xbb, 0x3d, 0xaf, 0x29, 0x96, 0xbe, 0x70, 0xad, 0xa5, 0xbd,
  0x5f, 0x2d, 0xc6, 0xbd, 0x74, 0x80, 0x1c, 0xbd, 0xb1, 0x6b, 0xb7, 0x3c,
  0x57, 0xe7, 0x4e, 0x3d, 0x09, 0xe1, 0x04, 0xbe, 0x3f, 0xe4, 0x77, 0x3e,
  0x13, 0x54, 0xfc, 0xbd, 0x2d, 0xf1, 0xf5, 0x3d, 0x98, 0x4e, 0x07, 0x3d,
  0x08, 0xf1, 0x2b, 0xbe, 0xb9, 0xcf, 0xdd, 0xbd, 0x8f, 0xab, 0x62, 0xbe,
  0x44, 0xd6, 0x25, 0xbe, 0xf0, 0xd4, 0x4a, 0xbc, 0x7b, 0x4a, 0x24, 0xbe,
  0x9c, 0x49, 0x25, 0x3e, 0x0b, 0xf1, 0xc7, 0x3d, 0x9f, 0xcd, 0xf0, 0x3d,
  0x9f, 0x09, 0x13, 0x3d, 0x7b, 0x0d, 0x43, 0x3e, 0xb3, 0x2e, 0x0d, 0xbe,
  0x5a, 0x69, 0x97, 0x3d, 0xaf, 0x03, 0x5a, 0xbe, 0x31, 0x03, 0x98, 0xbd,
  0xe7, 0x1f, 0xdc, 0x3d, 0x73, 0x6d, 0x18, 0xbe, 0x8f, 0xdd, 0x99, 0xbe,
  0x22, 0xad, 0xc0, 0x3d, 0xcf, 0xb4, 0xbd, 0x3c, 0xcd, 0x13, 0x65, 0x3d,
  0x6a, 0x06, 0x43, 0xbb, 0x39, 0x05, 0x92, 0xbb, 0x51, 0xb6, 0x01, 0x3e,
  0x9b, 0xa6, 0xf5, 0xbc, 0x1b, 0xcd, 0x99, 0x3d, 0xab, 0x5f, 0xbe, 0x3d,
  0x76, 0xc8, 0xb8, 0xbd, 0x95, 0xfb, 0xd2, 0xbd, 0xc0, 0x4f, 0x96, 0x3d,
  0x8c, 0x8a, 0xdd, 0xbd, 0xe1, 0x93, 0x24, 0x3d, 0x29, 0x20, 0x1b, 0xbd,
  0xbb, 0xb3, 0x91, 0xbe, 0xc9, 0x06, 0xe0, 0x3d, 0xf8, 0x36, 0x68, 0x3c,
  0x0d, 0x14, 0xb2, 0xbd, 0x78, 0x6a, 0xa9, 0xbd, 0xf2, 0xc1, 0xa4, 0xbd,
  0xe2, 0x75, 0x03, 0x3e, 0x1c, 0x09, 0x4f, 0xbe, 0x98, 0xd8, 0x06, 0x3e,
  0x83, 0x66, 0xfa, 0x3c, 0x12, 0x4b, 0x0d, 0x3e, 0xa2, 0x72, 0x36, 0xbc,
  0xa4, 0x87, 0x03, 0xbe, 0x74, 0x6c, 0xcd, 0x3d, 0x0b, 0xa4, 0xc9, 0xbd,
  0xb8, 0x12, 0x32, 0x3d, 0x0f, 0x63, 0xfc, 0x3d, 0x45, 0x09, 0xda, 0xbd,
  0xd3, 0x67, 0x25, 0x3e, 0xb7, 0x60, 0x59, 0xbe, 0x82, 0xdf, 0xcf, 0x3d,
  0xef, 0xcf, 0x86, 0xbd, 0xa5, 0xfe, 0x3d, 0x3e, 0xd5, 0xd6, 0xf5, 0xbd,
  0xff, 0xe1, 0x20, 0x3d, 0x4c, 0xd5, 0x25, 0xbe, 0x35, 0x54, 0xe9, 0xbd,
  0xf9, 0xd4, 0xf4, 0xbd, 0x49, 0xbc, 0xb3, 0x3e, 0x27, 0x1e, 0x06, 0xbe,
  0x1f, 0x4d, 0xe0, 0x3b, 0xb5, 0x54, 0x21, 0xbe, 0xc2, 0x5f, 0x73, 0xbe,
  0x4a, 0xc9, 0x04, 0x3d, 0x77, 0xc1, 0x5f, 0x3e, 0x9d, 0xf6, 0x2d, 0xbe,
  0xac, 0x29, 0x6e, 0xbd, 0x96, 0x3a, 0x07, 0x3d, 0x9e, 0x92, 0x9e, 0xbd,
  0xae, 0xa6, 0xf2, 0xbd, 0x36, 0x99, 0xf1, 0x3c, 0x3f, 0xf2, 0x9f, 0xbd,
  0xc7, 0x60, 0xd7, 0x3e, 0x45, 0x47, 0x11, 0xbe, 0x66, 0x1e, 0x8b, 0x3e,
  0x98, 0xa9, 0x28, 0x3e, 0xee, 0x19, 0x7f, 0xbb, 0x4e, 0x87, 0x25, 0xbd,
  0x49, 0x62, 0x5b, 0x3e, 0xb1, 0xa0, 0xba, 0x3d, 0x1b, 0x1f, 0xb4, 0x3e,
  0x81, 0x8a, 0x1b, 0x3e, 0x68, 0x8e, 0x27, 0x3e, 0x5c, 0x27, 0xfc, 0xbc,
  0x48, 0x2f, 0x52, 0x3e, 0x89, 0x97, 0xcf, 0xbe, 0xce, 0xba, 0x8b, 0x3d,
  0x31, 0x39, 0x1d, 0xbf, 0xa4, 0x80, 0x3f, 0x3e, 0x78, 0xe5, 0x7c, 0xbe,
  0x34, 0x05, 0x7e, 0x3e, 0xb3, 0x4c, 0x00, 0x3e, 0x0c, 0xe1, 0x9f, 0x3e,
  0x48, 0xd5, 0xba, 0x3d, 0xcc, 0xf9, 0xb4, 0x3c, 0xb9, 0xb2, 0x33, 0x3e,
  0xc3, 0x3f, 0x93, 0x3e, 0x9e, 0xf0, 0xfe, 0x3c, 0xda, 0x52, 0xbf, 0x3d,
  0x27, 0xe8, 0x17, 0xbf, 0x7d, 0x9a, 0x87, 0x3c, 0x54, 0x34, 0x15, 0xbf,
  0x7f, 0x20, 0x8c, 0x3c, 0xd7, 0x7e, 0x27, 0xbf, 0xfe, 0x1b, 0xad, 0x3d,
  0x42, 0x57, 0xd9, 0xbe, 0x2c, 0xc9, 0x48, 0x3e, 0x58, 0xc1, 0x2d, 0x3e,
  0x7a, 0xf3, 0xc2, 0x3e, 0x2f, 0x8a, 0xaa, 0x3c, 0x5c, 0x51, 0x80, 0x3e,
  0x43, 0x6c, 0x5d, 0x3e, 0xa5, 0x63, 0xea, 0x3e, 0xcd, 0xc9, 0x7a, 0xbe,
  0x8e, 0x33, 0xda, 0x3d, 0xd0, 0xee, 0xdc, 0xbe, 0xec, 0xac, 0x28, 0xbd,
  0x08, 0xab, 0x35, 0x3d, 0xb1, 0x6f, 0x4c, 0x3e, 0x0b, 0x09, 0xb3, 0xbe,
  0x15, 0xfc, 0xab, 0x3e, 0x10, 0x34, 0x02, 0xbe, 0x36, 0x90, 0x8e, 0x3e,
  0xd8, 0xd9, 0x9c, 0x3e, 0x74, 0x2d, 0x12, 0x3e, 0xc2, 0xff, 0xe8, 0x3d,
  0x43, 0x72, 0x11, 0x3e, 0x57, 0x23, 0x8e, 0x3e, 0x84, 0x9b, 0x79, 0x3e,
  0x09, 0x91, 0x9a, 0xbd, 0x5f, 0x98, 0x9f, 0x3d, 0xcc, 0x12, 0x8e, 0x3d,
  0xb3, 0x01, 0x89, 0x3d, 0x9c, 0xfb, 0x88, 0x3e, 0x13, 0x63, 0xb8, 0xbb,
  0x3d, 0x05, 0x15, 0xbd, 0xa1, 0x5d, 0xfb, 0x3d, 0x75, 0xac, 0x22, 0x3d,
  0x38, 0x1d, 0x07, 0x3d, 0x5a, 0x0c, 0x38, 0x3e, 0x85, 0xc3, 0xa0, 0x3e,
  0xbc, 0xbe, 0x7d, 0x3c, 0x5b, 0x77, 0xab, 0xbd, 0xde, 0x4f, 0x8e, 0x3e,
  0x18, 0x19, 0x33, 0xbd, 0x3f, 0x83, 0x29, 0x3e, 0xa8, 0xf0, 0xc4, 0x3c,
  0x0a, 0xcc, 0x0c, 0x3c, 0xab, 0x45, 0x81, 0xbe, 0xe1, 0x65, 0x09, 0x3e,
  0x1f, 0xa9, 0xa9, 0xbd, 0xe2, 0xa3, 0xc0, 0x3d, 0x06, 0x5e, 0x04, 0xbe,
  0x75, 0x39, 0xe0, 0xbc, 0x5b, 0xbe, 0x82, 0x3c, 0xe6, 0x20, 0x85, 0x3e,
  0x3f, 0xe5, 0x6e, 0x3e, 0x46, 0x19, 0x8b, 0xbd, 0xa4, 0x55, 0x74, 0xbd,
  0x1b, 0xd7, 0x34, 0xbe, 0x15, 0xfc, 0x92, 0x3c, 0x93, 0x89, 0x68, 0xbe,
  0x2f, 0xee, 0xb5, 0xbd, 0xdb, 0x55, 0xb6, 0x3d, 0x53, 0x63, 0xfb, 0xbe,
  0x16, 0x88, 0x4e, 0xbd, 0x6b, 0x07, 0xbd, 0xbd, 0xb6, 0x86, 0x76, 0x3e,
  0x53, 0xcc, 0x9e, 0xbe, 0x74, 0xf7, 0x34, 0x3e, 0xf2, 0xa0, 0xac, 0xbe,
  0x25, 0xe5, 0x98, 0xbc, 0x69, 0x5f, 0x8e, 0xbe, 0x14, 0x17, 0xd0, 0xbd,
  0x4e, 0xed, 0x94, 0xbe, 0x7c, 0xb0, 0xb7, 0xbe, 0x0e, 0xf3, 0x3c, 0xbe,
  0x1b, 0x31, 0xa2, 0xbe, 0xe5, 0xd4, 0xbf, 0xbd, 0xa7, 0x0c, 0xeb, 0xbc,
  0xdc, 0x25, 0x9b, 0xbe, 0x25, 0x2b, 0xa9, 0x3e, 0x90, 0xfe, 0x00, 0xbd,
  0xa9, 0xf8, 0xb6, 0x3d, 0xff, 0xff, 0x07, 0xbe, 0x2e, 0x97, 0x37, 0x3e,
  0xb1, 0xf9, 0xc4, 0xbe, 0x31, 0x25, 0x3b, 0xbe, 0x84, 0x45, 0xdc, 0xbe,
  0x6e, 0xcc, 0xec, 0xbd, 0x64, 0xf9, 0x93, 0xbe, 0x6e, 0xda, 0xc5, 0xbe,
  0x7b, 0xc1, 0x75, 0xbe, 0x59, 0xe4, 0xbb, 0xbe, 0x1c, 0x24, 0x1a, 0xbe,
  0xbd, 0x9f, 0x93, 0x3e, 0xdd, 0xdd, 0x17, 0x3e, 0x83, 0xd4, 0x9e, 0xbe,
  0xa5, 0x9e, 0x55, 0x3d, 0x7d, 0x61, 0x74, 0xbe, 0x4d, 0x82, 0xdc, 0x3c,
  0x7e, 0x97, 0x68, 0xbd, 0x7c, 0x87, 0x1b, 0x3e, 0x8c, 0xea, 0x8e, 0xbd,
  0x0b, 0x4b, 0x2e, 0x3e, 0x6e, 0x73, 0xcd, 0xbd, 0xdc, 0x11, 0x80, 0xbd,
  0x0a, 0x4e, 0xf5, 0xbd, 0x13, 0x3b, 0x13, 0x3e, 0xf3, 0x56, 0xae, 0xbc,
  0xe2, 0xbe, 0xfc, 0x3d, 0xf9, 0xfc, 0xa8, 0xbc, 0xf9, 0x25, 0x59, 0xbd,
  0xe3, 0x1d, 0x38, 0xbe, 0xc1, 0xa1, 0x34, 0x3c, 0x2b, 0xef, 0x5a, 0xbe,
  0xc0, 0x56, 0x4b, 0x3e, 0xa2, 0x0d, 0xcd, 0xbd, 0xdf, 0x4f, 0x38, 0x3d,
  0x7e, 0x2e, 0x76, 0x3c, 0xf1, 0xf8, 0x92, 0x3e, 0x1b, 0xdc, 0x98, 0x3d,
  0x6f, 0xd4, 0x17, 0x3d, 0x27, 0x42, 0xab, 0x3d, 0x5e, 0xa1, 0x53, 0xbe,
  0xee, 0x2f, 0xed, 0xbd, 0x06, 0xed, 0x17, 0x3d, 0x79, 0x71, 0x6d, 0xbe,
  0x7d, 0x1f, 0x39, 0xbe, 0xd8, 0x7a, 0xc9, 0xbd, 0x27, 0x47, 0xca, 0x3d,
  0xd9, 0x29, 0xbb, 0xbe, 0xbe, 0x39, 0xb0, 0x3c, 0x1a, 0x86, 0x61, 0xbd,
  0x7f, 0x88, 0x69, 0x3e, 0xaa, 0xec, 0x8c, 0xbd, 0x27, 0x81, 0xc3, 0x3d,
  0x05, 0x58, 0x12, 0x3e, 0x01, 0xc6, 0xf7, 0x3d, 0x3c, 0xa2, 0x6c, 0xbd,
  0x9b, 0x17, 0xd9, 0x3c, 0x63, 0x0a, 0x21, 0x3c, 0x53, 0x6a, 0x43, 0x3e,
  0xb6, 0x31, 0x60, 0xbe, 0x68, 0x8e, 0x0d, 0xbe, 0xc2, 0xd2, 0x73, 0xbe,
  0xd9, 0xee, 0xe2, 0xbd, 0x41, 0x8e, 0x9a, 0xbe, 0x8b, 0x6a, 0xe6, 0x3c,
  0x22, 0x57, 0x87, 0xbd, 0xb5, 0x58, 0x64, 0xbc, 0xe2, 0x5c, 0x8b, 0xbd,
  0x2e, 0xc1, 0x81, 0x3a, 0xbd, 0x1c, 0xd2, 0x3d, 0xf2, 0x0a, 0xc2, 0xbd,
  0x63, 0xb4, 0x51, 0x3e, 0xf3, 0xd1, 0x24, 0x3e, 0x05, 0x52, 0x8a, 0x3d,
  0x1c, 0x19, 0x14, 0xbe, 0x13, 0x09, 0x0f, 0xbe, 0x39, 0x34, 0x17, 0x3d,
  0x77, 0xa0, 0x0c, 0x3e, 0x36, 0x17, 0x78, 0x3d, 0x8a, 0x80, 0xfd, 0xbd,
  0x5d, 0xcd, 0x70, 0x3d, 0x5a, 0x61, 0x32, 0x3c, 0xfa, 0x87, 0x0c, 0xbe,
  0xba, 0x16, 0xec, 0xbd, 0xfb, 0x6b, 0x55, 0xbe, 0xfa, 0x9e, 0xae, 0x3d,
  0xa1, 0xb5, 0x66, 0xbe, 0x98, 0xcf, 0x06, 0xbb, 0x3c, 0x63, 0xe6, 0xbc,
  0xca, 0xe8, 0x29, 0xbc, 0xfe, 0x05, 0x0b, 0xbe, 0xe8, 0xb9, 0x9b, 0x3d,
  0xec, 0xc0, 0x82, 0xbd, 0xe0, 0x33, 0x29, 0x3e, 0x2a, 0xbf, 0xcc, 0x3d,
  0xe8, 0xf6, 0x38, 0x3c, 0x43, 0x6d, 0xc4, 0xbd, 0xef, 0xb6, 0x6b, 0x3e,
  0x94, 0x6d, 0x91, 0xbe, 0xa2, 0x98, 0x25, 0xbc, 0x31, 0x62, 0x57, 0xbb,
  0x54, 0x79, 0x00, 0xbe, 0x16, 0x57, 0x1a, 0xbe, 0x1a, 0xd6, 0xd5, 0x3d,
  0x8d, 0x4c, 0x17, 0x3d, 0x92, 0x3c, 0x57, 0x3d, 0x43, 0x6c, 0x09, 0xbe,
  0x92, 0x54, 0x38, 0x3e, 0x92, 0x6b, 0xd2, 0x3c, 0x07, 0xcd, 0x29, 0x3e,
  0x67, 0x24, 0xed, 0x3c, 0xbb, 0x7a, 0x45, 0x3e, 0xe9, 0x46, 0x71, 0xbe,
  0xb0, 0xca, 0x07, 0x3e, 0x05, 0xd4, 0x3a, 0xbe, 0x4c, 0x5e, 0xd5, 0x3d,
  0xf2, 0x13, 0xe4, 0xbd, 0x05, 0x05, 0x22, 0xbe, 0xfb, 0xec, 0x02, 0xbe,
  0x8f, 0xf1, 0x2c, 0xbe, 0xd2, 0xfd, 0x9f, 0xbd, 0xb1, 0x3f, 0x92, 0xbe,
  0x85, 0xff, 0x0c, 0xbe, 0xd3, 0x7f, 0x0a, 0x3e, 0x51, 0x89, 0x28, 0x3e,
  0x06, 0x85, 0xb0, 0x3d, 0xb8, 0x57, 0x53, 0x3e, 0xe1, 0x2e, 0xd5, 0xbd,
  0x9b, 0x58, 0x89, 0xbd, 0x26, 0x9f, 0x80, 0xbe, 0x0d, 0xff, 0x64, 0xbc,
  0x00, 0xde, 0xb4, 0x3c, 0xf5, 0x6b, 0xdb, 0x3d, 0x92, 0xdc, 0x46, 0xbe,
  0x37, 0xdb, 0x3f, 0x3e, 0x56, 0x56, 0x28, 0xbe, 0x91, 0x9f, 0x8d, 0x3e,
  0x3c, 0xc8, 0x66, 0x3d, 0x27, 0x59, 0x92, 0xbe, 0x7c, 0x1d, 0xe3, 0x3d,
  0xb9, 0xfa, 0x9a, 0xbd, 0xa8, 0x2f, 0x6f, 0xbe, 0xb8, 0xb4, 0x26, 0x3e,
  0x3e, 0xce, 0xbc, 0xbd, 0xb1, 0x8e, 0x27, 0x3d, 0x8e, 0x43, 0x56, 0xbd,
  0x66, 0x38, 0x30, 0xbe, 0x57, 0x65, 0xf9, 0xbd, 0x3a, 0xdc, 0xa2, 0x3d,
  0x70, 0x60, 0xa3, 0x3c, 0x46, 0x97, 0xd7, 0x3a, 0x4c, 0x82, 0x07, 0xbe,
  0xf3, 0x86, 0xa9, 0xbd, 0x82, 0xc9, 0x34, 0x3e, 0x56, 0x26, 0x3f, 0xbb,
  0xa2, 0x0e, 0x58, 0xbd, 0x90, 0xfa, 0xee, 0xbd, 0xcc, 0x2b, 0x36, 0xbe,
  0xe9, 0x1b, 0xa4, 0x3d, 0x7c, 0xae, 0xf5, 0xbd, 0x9b, 0xa6, 0x03, 0x3d,
  0x58, 0x39, 0x36, 0xbe, 0xa2, 0xef, 0x3e, 0x3d, 0x93, 0x47, 0x6c, 0xbd,
  0xe1, 0x65, 0x63, 0xbd, 0xd5, 0x90, 0x09, 0x3c, 0x4c, 0x94, 0xfe, 0x3d,
  0xd6, 0x6a, 0xc2, 0x3d, 0x81, 0x64, 0x8a, 0x3d, 0x21, 0x61, 0x4a, 0x3e,
  0xa0, 0x2f, 0x8c, 0xbd, 0x3a, 0xe3, 0x63, 0xbe, 0x2b, 0x56, 0x25, 0x3e,
  0x48, 0x3a, 0x86, 0xbd, 0x49, 0xfa, 0x8f, 0xbd, 0x22, 0x34, 0x96, 0x3b,
  0x45, 0x20, 0x10, 0x3e, 0xd6, 0xc3, 0x3f, 0xbe, 0xf2, 0xfa, 0x46, 0xbe,
  0xd6, 0x16, 0x45, 0xbb, 0xfd, 0x49, 0x4f, 0xbe, 0xea, 0xd9, 0xaf, 0xbd,
  0x25, 0xd9, 0x4b, 0x3d, 0x88, 0x53, 0x17, 0xbe, 0x50, 0x81, 0xdd, 0xbd,
  0x35, 0xdc, 0x55, 0x3e, 0xcf, 0x6a, 0x39, 0x3d, 0xf3, 0xab, 0xcb, 0xbb,
  0xa2, 0x07, 0x47, 0x3d, 0xb4, 0xd4, 0xbb, 0x3d, 0x7e, 0xcc, 0x09, 0xbe,
  0x5d, 0xb1, 0x95, 0xbd, 0x7b, 0x90, 0x95, 0xbd, 0x1d, 0x54, 0xde, 0xbd,
  0x33, 0xdb, 0x07, 0xbd, 0x45, 0x07, 0x5c, 0xbe, 0xae, 0x0c, 0xa5, 0x3d,
  0x2f, 0x75, 0x5e, 0xbe, 0x74, 0x7f, 0xac, 0xbd, 0xbb, 0x69, 0x20, 0x3c,
  0xb0, 0x3b, 0xe7, 0xbd, 0x5b, 0xbd, 0x71, 0x3e, 0xfd, 0xc7, 0x1d, 0xbe,
  0xdd, 0xb3, 0xcf, 0x3d, 0xdd, 0x56, 0x1e, 0xbd, 0x18, 0xb6, 0x8e, 0x3e,
  0x0b, 0xa0, 0x43, 0xbe, 0xfc, 0xf8, 0x90, 0xbd, 0x8a, 0x6e, 0x1a, 0xbd,
  0x07, 0xd6, 0x12, 0xbe, 0xee, 0xdc, 0x98, 0xbe, 0x0c, 0x69, 0x07, 0x3d,
  0x6d, 0x8b, 0x90, 0x3c, 0x4c, 0x40, 0x78, 0xbe, 0x74, 0xc2, 0x19, 0xbd,
  0x82, 0xdd, 0xad, 0x3d, 0xc4, 0x20, 0x19, 0xbd, 0x10, 0x5c, 0x17, 0x3e,
  0x30, 0xa6, 0xb3, 0xbd, 0x2b, 0xe1, 0x43, 0x3c, 0xac, 0x07, 0xe4, 0xbd,
  0x19, 0xce, 0x1b, 0x3e, 0x55, 0x3e, 0x57, 0x3e, 0x7d, 0xc3, 0x15, 0x3c,
  0x8f, 0xd0, 0x40, 0xbe, 0x38, 0xfa, 0xe6, 0xbd, 0xf5, 0x3b, 0xd9, 0x3d,
  0x92, 0xaf, 0xe5, 0x3d, 0x44, 0xb1, 0x01, 0xbe, 0x28, 0xe1, 0x3b, 0xbe,
  0x63, 0xdb, 0xf3, 0x3d, 0x3c, 0xe8, 0x72, 0xbd, 0x7a, 0x72, 0x9b, 0x3d,
  0x93, 0x9b, 0x6f, 0x3c, 0xce, 0xdd, 0x2a, 0xbe, 0x9b, 0x5a, 0x3b, 0xbd,
  0x55, 0x34, 0xbe, 0xbc, 0xea, 0x89, 0xed, 0x3e, 0x77, 0x60, 0x51, 0x3e,
  0xa4, 0xea, 0x92, 0x3e, 0xa0, 0xa6, 0x9a, 0xbe, 0x66, 0xc0, 0x6d, 0x3d,
  0xda, 0x26, 0xa1, 0xbe, 0xeb, 0x20, 0x6d, 0xbd, 0x79, 0xc5, 0x7f, 0x3b,
  0x83, 0xb3, 0x06, 0xbe, 0x69, 0xa7, 0x98, 0xbe, 0xee, 0x25, 0x32, 0xbc,
  0xab, 0x9c, 0xc1, 0xbe, 0x15, 0xd6, 0x4f, 0xbd, 0x1c, 0x83, 0xbf, 0xbd,
  0x9e, 0xfa, 0xc4, 0x3e, 0xf5, 0x90, 0x39, 0x3d, 0x8b, 0x16, 0x2a, 0x3f,
  0x31, 0x1b, 0xd1, 0x3d, 0x64, 0x1b, 0x2a, 0x3f, 0x9d, 0xb8, 0x7c, 0xbe,
  0x92, 0xa8, 0xca, 0x3d, 0xba, 0x9d, 0xf1, 0xbd, 0xd1, 0x22, 0x9c, 0xbd,
  0x86, 0xa1, 0x43, 0xbe, 0x5a, 0x67, 0xea, 0xbd, 0xe2, 0x6c, 0x6b, 0xbe,
  0x7d, 0xaa, 0x6f, 0xbe, 0xb8, 0x2b, 0x9b, 0xbe, 0xaa, 0xba, 0x4a, 0xbe,
  0x62, 0x62, 0x85, 0xbd, 0x47, 0xfb, 0x86, 0x3e, 0xb5, 0x73, 0x71, 0xbe,
  0x06, 0x8c, 0xa9, 0xbd, 0x85, 0xf7, 0x3c, 0x3e, 0xf0, 0xba, 0x61, 0x3e,
  0x6b, 0x92, 0x80, 0xbe, 0x9f, 0x36, 0x0a, 0x3e, 0xd5, 0x83, 0x67, 0xbe,
  0x09, 0xf4, 0x2e, 0x3e, 0x9b, 0x60, 0x06, 0x3c, 0xf3, 0x6d, 0x0a, 0xbe,
  0xca, 0xf9, 0x17, 0xbe, 0x75, 0x44, 0x77, 0xbd, 0x0d, 0xac, 0x39, 0xbe,
  0x08, 0xa7, 0x93, 0xbd, 0x1c, 0xb9, 0xfe, 0xbd, 0xd3, 0x01, 0x0c, 0xbb,
  0x3e, 0x60, 0x84, 0x3e, 0xaf, 0x06, 0x25, 0xbe, 0x2d, 0xe4, 0x80, 0xbd,
  0xf7, 0x6c, 0x5f, 0x3e, 0x5d, 0x96, 0x33, 0xbe, 0xe1, 0x08, 0xf8, 0x3d,
  0x0b, 0x6e, 0xa8, 0xbc, 0xd2, 0x48, 0x43, 0x3c, 0x3a, 0x52, 0x15, 0xbe,
  0x85, 0xee, 0x68, 0xbd, 0xf5, 0x46, 0xc9, 0xbd, 0x4b, 0xe1, 0xee, 0x3c,
  0xa4, 0xca, 0x9c, 0x3e, 0x7a, 0x27, 0x73, 0xbd, 0x56, 0x69, 0x91, 0xbd,
  0x55, 0x20, 0x3e, 0xbd, 0x1f, 0xbf, 0x8b, 0x3e, 0x9b, 0x3c, 0x36, 0xbd,
  0x90, 0x9f, 0x1b, 0xbe, 0x65, 0xee, 0xb4, 0xbd, 0x4b, 0xdd, 0x0c, 0x3d,
  0xcd, 0x6e, 0x85, 0xbd, 0xfc, 0xa0, 0x6c, 0x3d, 0xf4, 0x92, 0xb2, 0x3d,
  0xa7, 0x05, 0x56, 0x3e, 0x29, 0xd6, 0x5d, 0xbd, 0x19, 0xc5, 0x41, 0xbe,
  0xa7, 0xb3, 0xa6, 0x3e, 0xae, 0x25, 0xb8, 0xbd, 0xed, 0xd4, 0x40, 0xbd,
  0x60, 0x2d, 0x59, 0xbd, 0xfb, 0x29, 0xc5, 0x3d, 0x48, 0x7b, 0xc7, 0x3e,
  0xf1, 0x89, 0x7c, 0xbe, 0xbc, 0x43, 0x84, 0xbd, 0x81, 0xca, 0x13, 0xbe,
  0xeb, 0x47, 0xfb, 0x3d, 0xb8, 0x6f, 0xef, 0x3c, 0x2b, 0x0b, 0x90, 0x3e,
  0xff, 0x3b, 0x72, 0x3e, 0x66, 0x28, 0x5f, 0x3e, 0xa1, 0xdc, 0x25, 0x3e,
  0x1b, 0x2d, 0x47, 0x3e, 0xdc, 0x83, 0x44, 0x3e, 0xd2, 0xf2, 0x59, 0x3e,
  0x2e, 0x68, 0xe0, 0x3c, 0xa8, 0x1a, 0xd7, 0x3d, 0x78, 0xbc, 0x0b, 0xbe,
  0x21, 0x9e, 0x25, 0x3e, 0xe6, 0x03, 0x38, 0xbf, 0x9e, 0xa1, 0x13, 0xbe,
  0xf1, 0x28, 0x60, 0xbe, 0xcd, 0x24, 0x5b, 0x3e, 0x01, 0xe3, 0x15, 0xbe,
  0x2e, 0x16, 0xb9, 0x3e, 0x43, 0xe5, 0x6d, 0x3e, 0xa1, 0xc0, 0x7f, 0x3e,
  0x5a, 0xf8, 0xae, 0x3e, 0x96, 0x0e, 0xfd, 0x3d, 0x2e, 0x15, 0x9a, 0x3e,
  0x8b, 0x7f, 0x96, 0x3e, 0x9f, 0x8b, 0x1a, 0xbc, 0x6c, 0xd5, 0xb3, 0x3d,
  0x43, 0x2e, 0x72, 0xbe, 0xde, 0x73, 0x4e, 0xbd, 0xdd, 0xa9, 0x21, 0xbe,
  0x2f, 0x44, 0xfe, 0xbd, 0xbc, 0xa2, 0x2f, 0xbd, 0x62, 0xdb, 0x36, 0x3d,
  0x7b, 0x1b, 0x18, 0xbe, 0x65, 0x4d, 0xe9, 0xbd, 0x81, 0x24, 0x30, 0x3d,
  0x69, 0xae, 0x26, 0xbe, 0x0d, 0x8e, 0xe2, 0xbd, 0xbf, 0x92, 0x37, 0x3d,
  0x33, 0x1f, 0xdd, 0x3d, 0xf3, 0x5d, 0x06, 0x3e, 0xa7, 0x85, 0x91, 0x3e,
  0xca, 0xdd, 0x4e, 0xbd, 0xc3, 0x27, 0x00, 0xbd, 0x2f, 0x44, 0x48, 0x3d,
  0xf9, 0xe7, 0xf5, 0xbd, 0x52, 0xd8, 0xb9, 0xbd, 0x56, 0x2a, 0x62, 0xbe,
  0x80, 0x60, 0xdc, 0x3d, 0x63, 0xe1, 0x16, 0xbe, 0x72, 0xd6, 0x2f, 0xbc,
  0x24, 0x0f, 0xa5, 0xbd, 0x18, 0x93, 0x42, 0xbd, 0x45, 0xfc, 0x01, 0xbe,
  0xf7, 0xb2, 0x8f, 0xbd, 0x07, 0xb8, 0xd4, 0xbc, 0x51, 0xac, 0x53, 0x3d,
  0xb5, 0x34, 0x0a, 0x3e, 0x47, 0x43, 0x5f, 0xbb, 0xc6, 0xc0, 0x02, 0xbe,
  0x2c, 0x59, 0x4f, 0x3e, 0x39, 0x9b, 0x50, 0x3e, 0x9c, 0x7c, 0xaf, 0x3d,
  0x9f, 0x33, 0x62, 0xbe, 0x88, 0xa6, 0xde, 0x3d, 0xe9, 0x93, 0x0c, 0xbc,
  0x7b, 0x28, 0xb6, 0xbd, 0x04, 0x03, 0x45, 0x3c, 0x74, 0x1c, 0x55, 0xbe,
  0xea, 0x40, 0x96, 0xbe, 0x51, 0x2c, 0xa2, 0x3e, 0xe4, 0x11, 0xa0, 0xbd,
  0x22, 0x85, 0x91, 0xbe, 0x2e, 0xeb, 0xa8, 0x3e, 0x39, 0xc4, 0x19, 0xbe,
  0xb8, 0x00, 0xdf, 0x3d, 0x8d, 0x16, 0x37, 0xbe, 0x63, 0x8a, 0x43, 0xbe,
  0x26, 0xa4, 0x9d, 0x3d, 0xe1, 0x4f, 0x9b, 0xbe, 0x9b, 0x74, 0x25, 0xbe,
  0x3a, 0x26, 0x2d, 0xbd, 0x05, 0x7f, 0x1d, 0x3e, 0x59, 0xc6, 0x2d, 0xbe,
  0xd7, 0x6d, 0x6f, 0xbd, 0x6e, 0x7f, 0x09, 0xbe, 0xb1, 0xa1, 0x3e, 0x3c,
  0x4a, 0x96, 0x7b, 0xbd, 0x8e, 0xcb, 0xf7, 0xbd, 0xab, 0xf6, 0x6b, 0x3e,
  0x97, 0x9c, 0x86, 0x3d, 0x90, 0x6b, 0x3f, 0x3c, 0xf9, 0x8d, 0x66, 0xbe,
  0xb2, 0xcf, 0x66, 0xbe, 0xa9, 0xa2, 0x45, 0x3e, 0xda, 0xc2, 0xc6, 0xbe,
  0xca, 0x29, 0x15, 0xbd, 0x39, 0x67, 0x85, 0xbe, 0xdb, 0xf6, 0x1e, 0x3e,
  0xa9, 0x41, 0x7d, 0xbe, 0xbd, 0x47, 0x0b, 0xbe, 0xb9, 0x84, 0x7e, 0xbe,
  0x26, 0x57, 0xa9, 0x3e, 0x89, 0xd2, 0xc6, 0x3d, 0x66, 0x06, 0x3a, 0xbe,
  0x9e, 0xf9, 0x94, 0xbd, 0x05, 0x6d, 0x42, 0xbe, 0xdc, 0x24, 0x2b, 0xbe,
  0x31, 0x08, 0x3d, 0xbe, 0xf9, 0xe3, 0x10, 0xbe, 0x80, 0xcd, 0x84, 0x3d,
  0x66, 0xa3, 0xac, 0xbe, 0xe2, 0x5b, 0xd3, 0xbd, 0xca, 0x5e, 0x51, 0xbd,
  0xf6, 0xe4, 0x20, 0x3e, 0xf8, 0xc4, 0xc1, 0x3d, 0x7e, 0x0c, 0x72, 0x3d,
  0xc1, 0xb4, 0x98, 0xbe, 0x74, 0x3b, 0x21, 0x3e, 0x91, 0x74, 0x99, 0xbd,
  0x15, 0x80, 0x17, 0xbe, 0xca, 0x86, 0x46, 0x3e, 0x8d, 0x29, 0x46, 0xbe,
  0x28, 0x66, 0x84, 0xbd, 0x11, 0x36, 0xd4, 0xbc, 0x6a, 0xcc, 0xab, 0xbd,
  0x7e, 0x32, 0x4f, 0xbc, 0x9f, 0x1f, 0x03, 0xbe, 0xb6, 0xa9, 0x81, 0xbc,
  0x3d, 0xf4, 0x99, 0x3d, 0x2b, 0xe5, 0x11, 0x3e, 0x7c, 0x88, 0x0f, 0xbe,
  0xbc, 0xb3, 0x9f, 0xbe, 0x5f, 0x68, 0xb1, 0xbd, 0x6e, 0x94, 0xf8, 0xbd,
  0x72, 0x90, 0x9d, 0x3d, 0x39, 0x57, 0xba, 0xbd, 0x7d, 0xfe, 0x38, 0x3e,
  0xab, 0x18, 0xb3, 0xbd, 0xb4, 0xa6, 0x51, 0xbe, 0x75, 0xa5, 0xba, 0xbd,
  0x81, 0xf9, 0x23, 0xbe, 0x20, 0xa4, 0x24, 0x3d, 0xf0, 0xe5, 0xbe, 0xbd,
  0x65, 0x16, 0x19, 0x3e, 0x60, 0x7f, 0x40, 0x3d, 0xd8, 0x84, 0x86, 0x3d,
  0x32, 0xb5, 0xde, 0x3c, 0x5e, 0xed, 0x97, 0xbd, 0x0e, 0xa5, 0x02, 0x3c,
  0x05, 0xd3, 0x25, 0xbd, 0xe3, 0xba, 0x30, 0x3e, 0x72, 0x40, 0xd9, 0x3c,
  0xba, 0x20, 0x9d, 0x3d, 0x30, 0x3c, 0xe5, 0x3d, 0x20, 0x64, 0xa5, 0xbc,
  0x58, 0x2b, 0x94, 0xbd, 0x37, 0xa1, 0x0b, 0x3d, 0x22, 0x86, 0x34, 0x3c,
  0xec, 0x7a, 0x00, 0xbe, 0xaa, 0x90, 0x5c, 0xbe, 0x50, 0xfd, 0x49, 0xbe,
  0xf3, 0xd8, 0x1b, 0x3d, 0x9c, 0x9e, 0xae, 0xbc, 0xb2, 0xef, 0x18, 0xbe,
  0xa4, 0x64, 0xf0, 0xbd, 0x6a, 0x4f, 0xb7, 0xbc, 0xe3, 0x13, 0xe9, 0xbd,
  0x8a, 0x46, 0x6b, 0x3e, 0xab, 0x54, 0x9e, 0x3c, 0x08, 0xb5, 0x5a, 0x3d,
  0xcb, 0xa7, 0x25, 0xbe, 0x65, 0x10, 0xa6, 0xbd, 0xe8, 0xd9, 0xd3, 0x3d,
  0xb6, 0x77, 0xf2, 0x3d, 0xf0, 0x15, 0x35, 0xbe, 0xa7, 0xef, 0x34, 0xbe,
  0xb8, 0xf8, 0xf3, 0xbd, 0x92, 0x80, 0xe7, 0x3d, 0x48, 0xa6, 0x49, 0xbe,
  0xa1, 0xb9, 0x17, 0xbe, 0x9d, 0xa0, 0x00, 0x3e, 0xa6, 0x91, 0x29, 0x3e,
  0x92, 0xf9, 0xfd, 0xbc, 0x75, 0x79, 0x1e, 0xbe, 0x5d, 0x31, 0x38, 0x3e,
  0xc8, 0x0f, 0x10, 0xbe, 0xc9, 0x40, 0xbb, 0xbd, 0x09, 0x70, 0xb1, 0x3d,
  0xd6, 0xbc, 0x45, 0x3e, 0x82, 0x47, 0x1e, 0xbd, 0x0f, 0x3a, 0x14, 0xbe,
  0x2a, 0xbf, 0x8b, 0xbe, 0x35, 0x6c, 0x64, 0xbd, 0x18, 0xb3, 0x0e, 0x3d,
  0x69, 0xd1, 0xb5, 0x3d, 0xc4, 0x02, 0x48, 0xbe, 0xcf, 0xcf, 0x40, 0xbd,
  0x65, 0xe4, 0xb3, 0x3d, 0xbf, 0x82, 0xbb, 0xbd, 0x78, 0x24, 0x9e, 0x3e,
  0xe8, 0x5e, 0xbc, 0xbd, 0x07, 0x41, 0x08, 0x3d, 0x90, 0x02, 0x3b, 0xbe,
  0xec, 0x20, 0x00, 0xbd, 0x1c, 0xbc, 0xae, 0xbd, 0x59, 0x47, 0x35, 0x3e,
  0xcc, 0xdd, 0x2b, 0x3d, 0x23, 0x6c, 0x04, 0xbe, 0x5e, 0x83, 0x14, 0x3d,
  0x2c, 0xd7, 0xd8, 0xbc, 0x06, 0x19, 0xa3, 0xbd, 0x72, 0x65, 0x2f, 0x3c,
  0x3d, 0xfa, 0x01, 0xbe, 0x2f, 0x05, 0x48, 0xbb, 0x47, 0x06, 0xd2, 0x3d,
  0x4c, 0x48, 0x07, 0x3e, 0xf0, 0xed, 0x83, 0xbe, 0x50, 0x2f, 0xad, 0xbd,
  0x6b, 0x95, 0xe6, 0xbd, 0x4f, 0xb7, 0x0f, 0xbd, 0xd9, 0xbb, 0xa6, 0x3d,
  0x08, 0xeb, 0x24, 0xbe, 0xc2, 0x9c, 0x89, 0xbd, 0x8a, 0x5c, 0x8c, 0xbc,
  0xf3, 0xfa, 0x7e, 0x3d, 0x39, 0xde, 0x99, 0xbd, 0x6a, 0x6e, 0x19, 0xbe,
  0xa6, 0x07, 0x84, 0xbe, 0x64, 0xc7, 0x85, 0xbe, 0xeb, 0x87, 0x81, 0x3d,
  0x95, 0x60, 0xe7, 0x3d, 0xbf, 0x56, 0x45, 0x3d, 0x63, 0x1c, 0x51, 0xbe,
  0x68, 0x25, 0x41, 0xbe, 0x9b, 0x47, 0x78, 0x3e, 0x23, 0x82, 0x23, 0xbe,
  0xf9, 0xc7, 0x60, 0xbd, 0xd1, 0x75, 0x61, 0x3d, 0x06, 0x36, 0xee, 0xbb,
  0x89, 0x06, 0xd3, 0xbd, 0xe0, 0x86, 0xa9, 0xbd, 0x53, 0x67, 0xa5, 0x3c,
  0x42, 0x75, 0x55, 0x3e, 0x4d, 0xfa, 0x69, 0xbe, 0x76, 0xf0, 0x30, 0xbe,
  0x8f, 0x2a, 0x71, 0xbe, 0x07, 0x72, 0xc1, 0xbd, 0x93, 0x5c, 0x80, 0xbe,
  0xaa, 0x14, 0x21, 0xbd, 0x10, 0xa2, 0x77, 0xbd, 0xe8, 0xc5, 0x23, 0x3e,
  0x7c, 0xcc, 0x40, 0xbd, 0x81, 0xbe, 0xa6, 0x3e, 0xcc, 0x9a, 0xa8, 0xbd,
  0xf3, 0x4c, 0x38, 0x3e, 0x4f, 0x62, 0xcb, 0xbe, 0x5a, 0x69, 0x95, 0x3e,
  0xc4, 0x5f, 0x9e, 0xbe, 0x75, 0xab, 0x37, 0xbe, 0x7f, 0x67, 0x55, 0xbe,
  0x7d, 0xcb, 0x30, 0xbe, 0x9d, 0xb4, 0x67, 0xbe, 0x63, 0x57, 0x41, 0xbe,
  0xe7, 0xa6, 0x58, 0xbe, 0x3f, 0x52, 0x92, 0xbd, 0xb1, 0x0d, 0x1d, 0xbe,
  0x74, 0x42, 0x57, 0x3e, 0xb5, 0x06, 0x2c, 0xbd, 0xd8, 0x53, 0xa6, 0x3c,
  0x96, 0x9c, 0x42, 0x3d, 0xca, 0xf9, 0xe8, 0x3d, 0x17, 0x4d, 0x5b, 0xbe,
  0x25, 0xa3, 0x50, 0x3e, 0x47, 0xbc, 0x37, 0xbe, 0xeb, 0x2b, 0x23, 0x3e,
  0xa2, 0x7f, 0x89, 0xbc, 0xa3, 0x5f, 0x16, 0xbe, 0x78, 0xd6, 0x3c, 0xbe,
  0x99, 0x71, 0x6a, 0xbd, 0x68, 0xc5, 0x6a, 0xbe, 0xd7, 0xe8, 0x98, 0xbd,
  0x25, 0xb7, 0x28, 0xbe, 0x91, 0x79, 0x72, 0x3e, 0x4d, 0x50, 0x1e, 0x3e,
  0x04, 0xd5, 0x1d, 0x3e, 0xf8, 0xfd, 0x6d, 0x3d, 0xaf, 0xf2, 0x1e, 0x3e,
  0xac, 0xa8, 0x9a, 0xbe, 0x41, 0xd6, 0x72, 0xbc, 0xaa, 0xfd, 0x64, 0xbe,
  0xa1, 0x2d, 0x17, 0xbe, 0x54, 0x14, 0x3d, 0x3e, 0x23, 0x26, 0xbf, 0xbd,
  0x1e, 0x8d, 0x84, 0xbe, 0x63, 0x6d, 0xa8, 0x3c, 0x5b, 0x27, 0xde, 0xbd,
  0x53, 0x36, 0x7b, 0xbe, 0xb5, 0x9d, 0xf2, 0xbd, 0x2a, 0x79, 0x7b, 0x3c,
  0xe0, 0x91, 0x54, 0x3e, 0x0f, 0x73, 0xa4, 0xbd, 0x8a, 0xd3, 0x9b, 0xbd,
  0x3f, 0x92, 0x63, 0x3d, 0x3b, 0x91, 0x08, 0xbd, 0x63, 0xb3, 0x65, 0x3d,
  0xa1, 0x52, 0x0b, 0xbd, 0xb2, 0x5f, 0xfb, 0xbb, 0xec, 0x78, 0x24, 0x3e,
  0x50, 0x15, 0xb4, 0xbd, 0x4b, 0xa9, 0x05, 0xbb, 0xca, 0x60, 0x42, 0x3d,
  0x5e, 0x81, 0x95, 0x3d, 0x5d, 0x06, 0xb1, 0xbd, 0x27, 0x1e, 0xe2, 0xbd,
  0x7f, 0xab, 0x0b, 0x3e, 0xe5, 0xef, 0x19, 0x3e, 0x08, 0xae, 0x86, 0x3c,
  0x7e, 0x17, 0x26, 0xbe, 0xce, 0xc8, 0x2a, 0x3d, 0xec, 0x5a, 0xdc, 0xbd,
  0xfd, 0x19, 0xca, 0xbd, 0x6f, 0x2a, 0xc8, 0xbd, 0xc7, 0x61, 0x9f, 0x3d,
  0x29, 0xed, 0x40, 0xbd, 0x04, 0x70, 0x93, 0xbd, 0xa6, 0x57, 0xac, 0xbc,
  0xad, 0x15, 0x04, 0x3d, 0xe6, 0x58, 0x35, 0x3b, 0x22, 0xa8, 0x07, 0xbe,
  0x6a, 0xb6, 0xe3, 0x3d, 0x29, 0x49, 0x63, 0xbd, 0x61, 0xd5, 0x00, 0x3e,
  0x27, 0x12, 0x72, 0xbe, 0x6f, 0xd7, 0x28, 0x3e, 0x79, 0xee, 0x46, 0xbc,
  0x37, 0xea, 0xd1, 0xbd, 0x33, 0x40, 0x99, 0xb9, 0xbe, 0xc4, 0x8d, 0x3d,
  0x1f, 0x89, 0x30, 0x3e, 0xdd, 0x62, 0xb1, 0xbc, 0x09, 0x86, 0x8e, 0xbc,
  0xff, 0x86, 0xb9, 0x3d, 0x1f, 0x36, 0xab, 0x3d, 0xda, 0xb1, 0x05, 0x3e,
  0xf0, 0x31, 0x2c, 0xbe, 0x3a, 0xf2, 0x83, 0x3c, 0x03, 0xe6, 0x09, 0xbe,
  0xa3, 0xb6, 0x2f, 0x3e, 0x92, 0x7a, 0xd9, 0xbe, 0x33, 0xcc, 0x7e, 0x3d,
  0x34, 0xcc, 0x2d, 0xbd, 0x17, 0xfb, 0xda, 0x3e, 0xb1, 0xc3, 0x23, 0xbe,
  0x5d, 0x3a, 0x4f, 0x3e, 0x2a, 0xbb, 0xbb, 0x3e, 0x45, 0x7e, 0x56, 0xbd,
  0xc8, 0xf5, 0xb1, 0x3e, 0xcb, 0x5c, 0x8a, 0x3e, 0x98, 0xe0, 0x3d, 0x3e,
  0x21, 0x0f, 0x11, 0x3e, 0xa1, 0xe8, 0x9d, 0x3d, 0x18, 0x2c, 0x39, 0x3e,
  0xa4, 0x05, 0xe1, 0xbd, 0x66, 0xcd, 0x20, 0xbe, 0x43, 0xa6, 0x30, 0x3d,
  0xb4, 0x10, 0xf7, 0xbd, 0x23, 0xc6, 0xff, 0xbd, 0x1e, 0x19, 0xcd, 0x3d,
  0x99, 0xd0, 0x14, 0xbe, 0xed, 0xa3, 0xe6, 0xbd, 0x08, 0xac, 0xeb, 0x3c,
  0x71, 0x28, 0xfb, 0x3c, 0x00, 0x18, 0x33, 0xbe, 0x22, 0xf3, 0x2e, 0x3e,
  0x25, 0x3a, 0x14, 0xbe, 0x21, 0xaa, 0x50, 0x3c, 0x3b, 0xf8, 0xd5, 0xbb,
  0x6c, 0xa3, 0x02, 0xbe, 0x73, 0xe1, 0x91, 0xbc, 0x1e, 0x44, 0x88, 0xbd,
  0x8e, 0xeb, 0x35, 0xbe, 0x27, 0x72, 0xdb, 0xbd, 0xdd, 0xd8, 0x8f, 0x3d,
  0x9a, 0x1e, 0x86, 0x3d, 0x9d, 0xec, 0xda, 0xbd, 0x34, 0xc5, 0x93, 0xbe,
  0xb5, 0xe7, 0x29, 0x3e, 0xdc, 0x59, 0x80, 0xbd, 0x7a, 0xaf, 0xab, 0x3d,
  0x34, 0xa2, 0x04, 0xbe, 0x4c, 0x3b, 0x81, 0xbe, 0xf0, 0x65, 0x80, 0xbe,
  0xa3, 0x71, 0x80, 0xbd, 0x09, 0x6d, 0x59, 0xbe, 0xf1, 0x36, 0x09, 0xbe,
  0x8e, 0xd9, 0x90, 0xbd, 0x6b, 0x17, 0x0a, 0x3c, 0xa9, 0x63, 0x30, 0x3d,
  0x1c, 0x1d, 0x26, 0xbe, 0xb4, 0x06, 0x99, 0x3d, 0x29, 0xae, 0x74, 0xbd,
  0x2a, 0xa3, 0xb8, 0xbd, 0x75, 0x26, 0x9f, 0x3d, 0xc1, 0x1d, 0x09, 0xbd,
  0x9a, 0x73, 0x4e, 0xbe, 0xef, 0x61, 0xbd, 0xbd, 0xc5, 0xbe, 0x2a, 0xbd,
  0xe4, 0xf9, 0xcf, 0x3c, 0xf9, 0x0a, 0x71, 0x3e, 0xe9, 0xf5, 0xac, 0xbd,
  0x00, 0xdb, 0x18, 0xbe, 0x91, 0x72, 0x3d, 0xbe, 0x9c, 0x24, 0x28, 0xbe,
  0x36, 0x6d, 0x8c, 0x3d, 0xf6, 0x83, 0xdc, 0xbb, 0x23, 0x05, 0xb9, 0xbd,
  0xe4, 0x5f, 0x9b, 0xbd, 0xed, 0xa4, 0x14, 0xbd, 0xfa, 0x4b, 0x72, 0x3d,
  0x78, 0xa9, 0x4d, 0xbe, 0x2e, 0x15, 0xc1, 0xbd, 0xe7, 0x94, 0xaa, 0x3d,
  0x91, 0x3a, 0x23, 0x3e, 0x5d, 0x80, 0x9b, 0xbd, 0x79, 0x21, 0x61, 0x3e,
  0x09, 0x97, 0x37, 0xbe, 0xc0, 0x92, 0x25, 0x3e, 0x85, 0x03, 0x01, 0xbe,
  0x98, 0x76, 0xf4, 0x3c, 0xad, 0xa7, 0x1a, 0xbd, 0xc3, 0xc8, 0x1f, 0xbc,
  0x1e, 0xec, 0x2d, 0x3d, 0xc2, 0x63, 0xa2, 0xbe, 0x42, 0x56, 0x64, 0xbc,
  0xea, 0x60, 0x05, 0x3e, 0xcf, 0x44, 0x11, 0x3e, 0x1e, 0x04, 0x46, 0xbe,
  0xea, 0xd7, 0x30, 0x3e, 0x29, 0xd7, 0x8e, 0x3d, 0x99, 0xf1, 0x1e, 0xbe,
  0x09, 0x3f, 0xab, 0x3e, 0xb8, 0x2f, 0xec, 0xbd, 0x85, 0x9e, 0xa5, 0xbc,
  0x02, 0x14, 0xe2, 0xbd, 0x8c, 0x9e, 0x8c, 0xbe, 0x44, 0x65, 0xc0, 0x3d,
  0x57, 0x57, 0x8e, 0xbe, 0x00, 0x6c, 0x14, 0x3e, 0x50, 0xfd, 0x33, 0x3c,
  0x09, 0x73, 0x90, 0xbd, 0x8b, 0x13, 0x12, 0x3e, 0x14, 0xbf, 0x1b, 0x3e,
  0x92, 0x4d, 0xc1, 0x3d, 0x1f, 0x9a, 0x65, 0xbe, 0xb8, 0x9f, 0x1c, 0xbd,
  0xc0, 0xca, 0x83, 0x3e, 0xf5, 0xc0, 0x4f, 0x3e, 0x1e, 0xa1, 0x39, 0xbc,
  0x1b, 0x84, 0x21, 0x3e, 0x15, 0x33, 0x04, 0x3e, 0xb2, 0x0e, 0x26, 0xbe,
  0x39, 0x66, 0xb2, 0xbd, 0xd2, 0x53, 0xa7, 0xbd, 0xd2, 0xbe, 0x93, 0xbd,
  0xbe, 0x71, 0x58, 0xbe, 0x00, 0xc2, 0x4e, 0xbe, 0x41, 0x19, 0xa8, 0x3d,
  0x9b, 0xf6, 0x5b, 0xbe, 0x37, 0x2e, 0xfa, 0x3d, 0x2c, 0x47, 0x0a, 0x3d,
  0x25, 0xbf, 0xd4, 0x3d, 0x00, 0xbb, 0x63, 0x3e, 0x65, 0x9a, 0xc6, 0xbc,
  0xac, 0x01, 0x50, 0x3d, 0x3a, 0x7c, 0x8a, 0x3d, 0x49, 0xc9, 0x99, 0xbe,
  0x31, 0x2b, 0x68, 0x3e, 0x30, 0xee, 0x46, 0xbe, 0x59, 0x01, 0xef, 0x3e,
  0x4f, 0x4c, 0x98, 0xbe, 0x3a, 0xee, 0xa1, 0x3e, 0x25, 0x04, 0x93, 0xbe,
  0xfc, 0x55, 0x9d, 0x3c, 0x16, 0xe6, 0x4f, 0x3b, 0x51, 0x9e, 0x8a, 0xbd,
  0x51, 0xa9, 0x89, 0xbe, 0x53, 0x0c, 0xd3, 0xbd, 0xca, 0xcb, 0x45, 0xbe,
  0x2e, 0xc1, 0xe4, 0x3b, 0x84, 0x34, 0x11, 0xbe, 0xfc, 0x32, 0x8f, 0x3e,
  0xfd, 0x29, 0x7c, 0xbc, 0x2f, 0xc6, 0x19, 0x3f, 0x32, 0x45, 0xdd, 0x3d,
  0xb2, 0x77, 0xa6, 0x3e, 0xf1, 0x16, 0x11, 0xbe, 0x3b, 0x8f, 0x94, 0x3e,
  0xf3, 0xe9, 0x1d, 0xbe, 0xf2, 0x51, 0x36, 0xbd, 0x53, 0x80, 0x0a, 0xbc,
  0x62, 0x03, 0xa4, 0xbd, 0xc6, 0x38, 0x7e, 0xbe, 0xa4, 0x1f, 0x8f, 0xbe,
  0x11, 0xf9, 0xd2, 0xbd, 0x89, 0x37, 0xcf, 0xbd, 0xfd, 0xf6, 0x05, 0xbe,
  0x6f, 0x25, 0x8e, 0x3e, 0x6c, 0x42, 0x80, 0xbe, 0x65, 0x90, 0xcd, 0x3d,
  0x4e, 0xf4, 0x4a, 0xbe, 0x5d, 0x56, 0x1f, 0x3e, 0xb1, 0xb3, 0xc8, 0xbe,
  0xcc, 0xc6, 0xc9, 0x3d, 0x1d, 0x1c, 0x27, 0xbe, 0xf5, 0xbd, 0xaf, 0xbc,
  0xbd, 0x9c, 0x8b, 0xbe, 0x68, 0x0d, 0xcf, 0xbd, 0xc2, 0x96, 0x2f, 0xbe,
  0x9b, 0xeb, 0x10, 0xbe, 0xfe, 0x61, 0x48, 0xbe, 0x9f, 0x35, 0x80, 0xbe,
  0x15, 0x4a, 0x02, 0xbe, 0xe3, 0xe0, 0xd4, 0x3d, 0x63, 0xb4, 0x8a, 0xbd,
  0xff, 0x63, 0xde, 0xbd, 0x50, 0xe0, 0x1b, 0xbe, 0x6a, 0xf4, 0x22, 0xbc,
  0xde, 0x95, 0xec, 0xbd, 0xe7, 0x2f, 0xbb, 0x3d, 0x8b, 0xe4, 0x74, 0xbd,
  0xd1, 0x29, 0xe4, 0xbd, 0x8e, 0x9f, 0xa6, 0xbd, 0xa0, 0xe0, 0xb2, 0xbd,
  0x3a, 0xdf, 0x0e, 0xbe, 0x77, 0x1a, 0x87, 0xbc, 0x80, 0x14, 0xe5, 0xbd,
  0xed, 0x2c, 0xdb, 0xbc, 0xee, 0xd3, 0xe8, 0xbd, 0xa8, 0x17, 0x74, 0xbd,
  0xaf, 0xee, 0x58, 0x3e, 0x5e, 0x66, 0xba, 0xbd, 0x2e, 0xcc, 0x62, 0xbd,
  0x4f, 0x0a, 0xbf, 0xbd, 0xbb, 0x98, 0x52, 0xbd, 0x48, 0x7a, 0xb0, 0xbc,
  0x66, 0x5d, 0xe7, 0x3b, 0x6b, 0x30, 0xfe, 0x3b, 0x7d, 0x20, 0xad, 0x3d,
  0x8d, 0x57, 0x5d, 0x3d, 0x12, 0x7e, 0x25, 0xbd, 0x2c, 0x37, 0x86, 0x3e,
  0x09, 0x48, 0x10, 0x3e, 0xea, 0x26, 0xca, 0xbc, 0x22, 0xbc, 0x06, 0x3d,
  0xd2, 0xa8, 0x58, 0xbe, 0x6a, 0xac, 0x75, 0x3e, 0x3b, 0x6c, 0x27, 0xbe,
  0xc7, 0xeb, 0x4e, 0xbe, 0x6a, 0x43, 0x5a, 0xbe, 0xfe, 0x14, 0xaa, 0x3e,
  0x0f, 0x85, 0x42, 0xbe, 0x78, 0x35, 0x2b, 0x3e, 0x93, 0x59, 0x8c, 0x3d,
  0x5c, 0xa0, 0x2e, 0x3e, 0xa8, 0xc8, 0x6e, 0x3d, 0xe4, 0x5c, 0x5d, 0x3d,
  0xaa, 0x8c, 0x71, 0x3e, 0x4a, 0x5a, 0x2d, 0x3e, 0x79, 0xf6, 0x7c, 0x3e,
  0x25, 0xad, 0x18, 0x3e, 0x4f, 0x5b, 0x49, 0xbe, 0xab, 0x68, 0x75, 0x3e,
  0xd3, 0x71, 0x1d, 0xbf, 0xf6, 0x49, 0x04, 0xbe, 0x70, 0xef, 0x9d, 0xbe,
  0xc0, 0x90, 0x20, 0x3e, 0x6e, 0x0e, 0xb4, 0xbe, 0xa0, 0x3e, 0x08, 0x3f,
  0xf1, 0x0f, 0x03, 0x3f, 0x7d, 0xdd, 0xbd, 0x3e, 0x72, 0x30, 0xc6, 0xbc,
  0x02, 0x6f, 0x8e, 0x3e, 0x81, 0x85, 0x66, 0x3e, 0x10, 0xc6, 0xad, 0x3e,
  0x4c, 0xb4, 0x21, 0x3e, 0x90, 0xdb, 0x4a, 0x3e, 0xc0, 0xda, 0xbd, 0xbe,
  0xbe, 0x29, 0x11, 0xbe, 0x1e, 0x8e, 0x1a, 0x3e, 0xa1, 0xf1, 0x1c, 0x3e,
  0x53, 0xb1, 0x08, 0xbe, 0xea, 0x02, 0xc8, 0x3d, 0x5c, 0xa9, 0xd9, 0xbd,
  0xa0, 0x76, 0xd1, 0x3c, 0xa4, 0xba, 0x87, 0x3c, 0x58, 0xac, 0x28, 0xbe,
  0xe1, 0x9c, 0x16, 0xbe, 0xfc, 0x6c, 0x28, 0x3e, 0x8a, 0x0c, 0xcb, 0xbd,
  0xe4, 0xd9, 0x50, 0xbd, 0x4f, 0x86, 0x8b, 0x3e, 0x20, 0xc4, 0x24, 0xbe,
  0x2c, 0x2b, 0x0a, 0xbd, 0x6f, 0x4b, 0x70, 0x3e, 0x61, 0x53, 0x5d, 0xbe,
  0x2a, 0xea, 0x9e, 0x3d, 0x56, 0x75, 0x5b, 0xbe, 0x7a, 0x2b, 0x8c, 0x3c,
  0x16, 0xf6, 0x96, 0xbd, 0xeb, 0x58, 0xc1, 0xbc, 0xd3, 0xa5, 0x26, 0x3e,
  0xd3, 0x2d, 0xcd, 0xbc, 0x27, 0x49, 0x54, 0xbe, 0x90, 0x3c, 0x67, 0x3d,
  0x7b, 0x15, 0xa0, 0xbd, 0xaa, 0x14, 0xf1, 0xbd, 0x4b, 0x86, 0x4a, 0x3e,
  0x2a, 0xbd, 0x3e, 0x3c, 0xa5, 0xa9, 0x81, 0xbe, 0xdd, 0x36, 0xd9, 0xbd,
  0x4e, 0xba, 0xaa, 0x3d, 0x4e, 0x96, 0xc0, 0x3d, 0x16, 0x6d, 0x5f, 0xbe,
  0xe2, 0x60, 0xf9, 0x3c, 0x82, 0x92, 0x0c, 0xbe, 0x77, 0x16, 0x08, 0xbd,
  0x5b, 0x9c, 0x35, 0x3e, 0xb0, 0x6b, 0x40, 0x3b, 0x4d, 0x9b, 0x79, 0xbc,
  0x23, 0x94, 0x82, 0xbd, 0x3f, 0xe6, 0x2d, 0xbe, 0xfa, 0xa4, 0x47, 0xbe,
  0xa3, 0xc6, 0x08, 0x3e, 0xdf, 0x95, 0xb6, 0x3d, 0xfe, 0x4b, 0x02, 0xbe,
  0xfa, 0x53, 0xe9, 0xbd, 0x85, 0x97, 0x02, 0xbe, 0x53, 0xf9, 0x5d, 0x3e,
  0xf6, 0x4d, 0x9e, 0xbe, 0xdf, 0xa2, 0xb4, 0x39, 0xf7, 0xf3, 0xa4, 0x3c,
  0x10, 0x1d, 0x72, 0x3d, 0x77, 0x6d, 0x11, 0xbe, 0xe2, 0xca, 0x96, 0xbd,
  0x1a, 0x95, 0x24, 0xbd, 0xd6, 0x3e, 0x89, 0xbc, 0x57, 0xf1, 0xd9, 0x3c,
  0xa8, 0x1f, 0x8b, 0xbd, 0x36, 0xf9, 0xad, 0x3e, 0xba, 0xa5, 0x80, 0xbe,
  0xea, 0x35, 0x1d, 0xbe, 0x28, 0xfc, 0x36, 0xbe, 0x18, 0xfc, 0x19, 0x3d,
  0x49, 0x3b, 0x6d, 0xbd, 0x3d, 0xe3, 0x7a, 0xbd, 0x79, 0xd7, 0x1b, 0x3d,
  0x53, 0x85, 0x15, 0xbe, 0xda, 0xba, 0xe0, 0x3c, 0x27, 0x8c, 0xf6, 0x3d,
  0x88, 0xad, 0x4a, 0x3d, 0xb9, 0xe7, 0x2d, 0xbe, 0x5a, 0x99, 0x2a, 0x3e,
  0x06, 0x29, 0x3f, 0x3e, 0x48, 0xd2, 0x5b, 0x3d, 0xdf, 0x99, 0xbf, 0x3e,
  0x92, 0x0e, 0x70, 0xbd, 0x41, 0x79, 0x38, 0xbe, 0x6f, 0xdb, 0x4b, 0xbd,
  0x42, 0x35, 0x85, 0x3e, 0xc8, 0x92, 0x0b, 0x3d, 0x8d, 0x3c, 0xff, 0xbd,
  0x46, 0x7d, 0x03, 0xbe, 0xb5, 0x86, 0x77, 0xbd, 0x27, 0x5b, 0xbb, 0xbc,
  0x46, 0x2b, 0x01, 0x3e, 0xa3, 0x15, 0x82, 0xbe, 0x6c, 0xee, 0x05, 0xbe,
  0x6b, 0x27, 0x98, 0x3d, 0x22, 0x9c, 0x21, 0x3e, 0x77, 0x4f, 0x8f, 0xbd,
  0x1c, 0x6f, 0x90, 0x3d, 0xa9, 0x05, 0xab, 0xbd, 0x4e, 0x5f, 0x13, 0x3e,
  0x5a, 0x60, 0xbd, 0x3d, 0x27, 0x45, 0x85, 0x3e, 0xf9, 0x94, 0xd4, 0xbd,
  0x31, 0x50, 0x9d, 0x3d, 0x85, 0x99, 0x1c, 0xbe, 0xe7, 0x12, 0x03, 0xbe,
  0x4d, 0x22, 0x0d, 0x3d, 0xc9, 0xbc, 0xa2, 0x3d, 0x80, 0x76, 0xca, 0xbd,
  0xd0, 0x37, 0x5d, 0xbe, 0xc4, 0xef, 0x4f, 0xbd, 0x08, 0x4e, 0xa2, 0xbd,
  0x23, 0x58, 0x9f, 0xbd, 0x7b, 0x4b, 0x0f, 0x3c, 0x5e, 0xb4, 0x6a, 0xbe,
  0xa1, 0x08, 0x1c, 0xbd, 0x36, 0x11, 0x88, 0x3e, 0x83, 0x6d, 0xc9, 0xbe,
  0xe5, 0x1c, 0xa8, 0xbc, 0x9e, 0xfa, 0xb6, 0xbe, 0x25, 0xc8, 0x2b, 0x3e,
  0xdf, 0xe7, 0x38, 0xbe, 0x85, 0xb9, 0xad, 0x3e, 0xee, 0xb6, 0x44, 0x3e,
  0x69, 0xae, 0xba, 0x3e, 0x27, 0x25, 0xa6, 0x3c, 0xbd, 0x2e, 0xc4, 0x3d,
  0x0f, 0x47, 0x84, 0x3e, 0xf1, 0x5d, 0xf2, 0x3d, 0x9d, 0x3a, 0x61, 0xbe,
  0x06, 0x8a, 0xa0, 0x3d, 0x9b, 0x08, 0x15, 0xbe, 0x61, 0x46, 0x07, 0xbe,
  0x56, 0xad, 0x0d, 0xbf, 0x67, 0x9d, 0x5a, 0xbd, 0x16, 0x42, 0x94, 0xbe,
  0xbc, 0xd6, 0x40, 0x3e, 0x60, 0xc8, 0x7b, 0xbe, 0x5a, 0x7c, 0x6f, 0x3d,
  0xb9, 0x6f, 0xb2, 0x3e, 0x2a, 0xed, 0x2f, 0x3e, 0x53, 0x65, 0x99, 0x3d,
  0xda, 0xce, 0xde, 0x3d, 0x5e, 0x22, 0xa4, 0xbc, 0xca, 0xd0, 0x67, 0x3e,
  0x00, 0xdb, 0xac, 0xbd, 0xc9, 0x94, 0xaf, 0x3d, 0x23, 0x30, 0xba, 0xbe,
  0x30, 0xf9, 0xf2, 0x3c, 0xda, 0x98, 0x3d, 0xbd, 0x00, 0xb7, 0x64, 0x3c,
  0x64, 0x70, 0xa5, 0xbe, 0xee, 0xcd, 0xa8, 0x3e, 0x56, 0x9f, 0xf3, 0xbd,
  0x37, 0x5c, 0x1d, 0x3e, 0x6c, 0x7d, 0x98, 0x3e, 0x30, 0x70, 0xbd, 0x3e,
  0xfc, 0x1e, 0x04, 0x3e, 0x51, 0x98, 0x0e, 0x3e, 0x4f, 0xce, 0xed, 0x3e,
  0x18, 0x92, 0x15, 0x3e, 0xaa, 0x93, 0x46, 0xbe, 0x61, 0xf2, 0x91, 0x3d,
  0xcf, 0x19, 0xd9, 0xbd, 0x8c, 0x73, 0xe6, 0x3d, 0xf0, 0x81, 0x66, 0x3e,
  0xd6, 0x1c, 0x4c, 0x3e, 0xc0, 0xf4, 0x8c, 0xbd, 0x31, 0xe2, 0xa5, 0x3d,
  0x76, 0xea, 0x92, 0xbc, 0x50, 0xf4, 0x3c, 0x3e, 0xfa, 0x48, 0x61, 0x3e,
  0x0e, 0xd2, 0x17, 0x3d, 0xec, 0x88, 0x99, 0x3d, 0x56, 0xcc, 0xed, 0x3d,
  0xae, 0xce, 0xa7, 0x3e, 0xd5, 0xbe, 0x3e, 0x3d, 0x88, 0x3a, 0x81, 0x3d,
  0x04, 0x20, 0xe1, 0x3d, 0x67, 0xc7, 0xcd, 0x3d, 0x4c, 0x7a, 0x45, 0xbe,
  0x11, 0x97, 0x6f, 0x3c, 0xed, 0xb2, 0x1d, 0x3e, 0x21, 0x1b, 0x4e, 0x3e,
  0x7d, 0xe4, 0x16, 0xbe, 0x18, 0x15, 0xa1, 0xbd, 0x83, 0x75, 0x02, 0xbe,
  0x04, 0x68, 0x71, 0x3d, 0xba, 0x70, 0x68, 0x3c, 0x12, 0x97, 0xa1, 0x3c,
  0x51, 0xd9, 0x15, 0xbe, 0xc5, 0xb6, 0x07, 0xbe, 0x6f, 0x46, 0x63, 0x3d,
  0x86, 0xa1, 0x33, 0xbd, 0xdd, 0xb7, 0x24, 0xbd, 0x6c, 0x86, 0x3a, 0x3d,
  0x5b, 0xd3, 0xc9, 0xbe, 0x37, 0x1f, 0x42, 0x3e, 0xe6, 0x47, 0x4b, 0xbe,
  0x11, 0x36, 0x31, 0xbd, 0xa5, 0x9e, 0xb0, 0xbe, 0x43, 0xa7, 0x6b, 0xbd,
  0x83, 0x91, 0x8a, 0xbe, 0x30, 0xea, 0xab, 0xbc, 0x20, 0xf4, 0xce, 0xbe,
  0x77, 0xdd, 0x73, 0xbd, 0x4b, 0xf6, 0x6d, 0xbe, 0x10, 0xa5, 0x9a, 0xbe,
  0x4e, 0xad, 0x9f, 0xbe, 0x4b, 0x68, 0x81, 0xbe, 0x8b, 0x08, 0x17, 0xbe,
  0xbc, 0x7a, 0x71, 0x3e, 0x17, 0x97, 0xc8, 0xbe, 0x49, 0x41, 0xb4, 0x3e,
  0x8e, 0x62, 0x28, 0x3e, 0xab, 0x50, 0x2f, 0x3e, 0xbf, 0x92, 0x49, 0xbe,
  0x8d, 0x41, 0xab, 0x3e, 0x55, 0x1e, 0xda, 0xbe, 0x95, 0x72, 0x35, 0xbe,
  0x31, 0x4c, 0x59, 0xbe, 0x0a, 0x56, 0xb9, 0xbd, 0x1a, 0x5b, 0x90, 0xbe,
  0x2b, 0x63, 0x42, 0xbd, 0x60, 0x62, 0xa1, 0xbe, 0x03, 0x63, 0xaf, 0xbe,
  0x94, 0xdf, 0x3e, 0xbe, 0x83, 0xc4, 0x30, 0x3d, 0x3c, 0xc9, 0xc2, 0xbd,
  0xe6, 0x40, 0x7d, 0x3e, 0xc1, 0x49, 0x4b, 0xbe, 0x52, 0xfa, 0x95, 0x3e,
  0xff, 0xae, 0x7f, 0xbd, 0xc1, 0xa9, 0x10, 0x3d, 0x5d, 0x0a, 0xf9, 0xbd,
  0x3f, 0x56, 0xbf, 0x3d, 0xfd, 0xf4, 0x4d, 0xbe, 0xe6, 0x63, 0xcf, 0xbe,
  0xc6, 0x7b, 0xd7, 0xbd, 0x1e, 0x6e, 0x13, 0x3e, 0x38, 0x9a, 0xd7, 0x3d,
  0x21, 0xfd, 0x0a, 0xbe, 0xd5, 0x3a, 0x81, 0xbe, 0x70, 0x91, 0x70, 0x3e,
  0xa5, 0x41, 0x0d, 0xbe, 0xa7, 0xbc, 0x8c, 0x3e, 0x9b, 0x76, 0x53, 0xbe,
  0x6e, 0x94, 0xf0, 0xbc, 0x2a, 0x3b, 0x99, 0x3d, 0x6b, 0x26, 0xb7, 0xbe,
  0x6f, 0xc6, 0x10, 0xbe, 0xd2, 0xba, 0xdc, 0xbd, 0x45, 0x41, 0x25, 0xbc,
  0x23, 0x05, 0xee, 0xbd, 0x66, 0xbd, 0x04, 0xbe, 0xd8, 0x4d, 0x9f, 0xbd,
  0x28, 0x64, 0x90, 0xbd, 0x18, 0x47, 0x01, 0xbe, 0xe4, 0x5e, 0xb1, 0xbe,
  0x8a, 0x47, 0x4f, 0x3e, 0x36, 0x00, 0xef, 0x3d, 0xeb, 0x37, 0xef, 0x3c,
  0x1c, 0x8b, 0xf0, 0x3d, 0x7c, 0xe6, 0xb9, 0x3e, 0x4b, 0xfd, 0xab, 0x3d,
  0xcc, 0x1c, 0x92, 0x3d, 0xa5, 0x52, 0x6b, 0x3d, 0x94, 0x43, 0x2f, 0xbe,
  0x4f, 0x76, 0x07, 0xbe, 0x4a, 0x1a, 0xaf, 0xbe, 0xa7, 0x1e, 0xd9, 0xbd,
  0xcc, 0xf2, 0x16, 0x3e, 0x6f, 0x91, 0x3b, 0xbe, 0xc5, 0x4d, 0x1c, 0xbe,
  0xa5, 0x36, 0xa2, 0xbe, 0x5c, 0x54, 0x8f, 0xbd, 0xd4, 0x4f, 0x3b, 0xbe,
  0xfd, 0xbc, 0xbe, 0x3d, 0x10, 0xdd, 0xac, 0xbd, 0x53, 0xbc, 0x06, 0xbb,
  0x84, 0x5d, 0xc1, 0x3d, 0x5c, 0xa8, 0x3c, 0x3d, 0x35, 0x56, 0x07, 0x3e,
  0x73, 0x30, 0xcd, 0x3c, 0x53, 0xe4, 0x6a, 0xbd, 0x61, 0x3a, 0x2b, 0xbd,
  0xc6, 0x39, 0xe4, 0xbd, 0x67, 0x4f, 0xa4, 0xbd, 0x91, 0x5f, 0x43, 0x3e,
  0xf0, 0x59, 0x70, 0xbe, 0x81, 0x60, 0x57, 0xbd, 0x8f, 0x78, 0xf3, 0x3d,
  0x3d, 0x8c, 0x03, 0xbe, 0x9b, 0x8c, 0x00, 0xbe, 0xf9, 0x9d, 0x63, 0xbe,
  0x0b, 0x0e, 0x69, 0xbd, 0xb2, 0xa0, 0x6c, 0xbe, 0x84, 0x81, 0x83, 0xbc,
  0x4a, 0xa7, 0x44, 0xbe, 0x55, 0x1a, 0xaa, 0x3d, 0xeb, 0x8e, 0x12, 0x3e,
  0xa0, 0x05, 0x09, 0xbd, 0x24, 0x4f, 0x6c, 0xbd, 0x71, 0x46, 0x1d, 0xbe,
  0x76, 0xdd, 0x9d, 0x3e, 0x49, 0x79, 0x83, 0xbd, 0x6e, 0x21, 0x5b, 0xbd,
  0x78, 0xf3, 0xd6, 0xbc, 0xbf, 0x53, 0x5c, 0x3e, 0xd6, 0x15, 0x5b, 0x3d,
  0x98, 0xdf, 0x5a, 0xbe, 0x83, 0x59, 0x71, 0xbd, 0xce, 0x69, 0xbc, 0x3d,
  0xae, 0xd3, 0x07, 0xbe, 0x3c, 0xe8, 0xcd, 0x3d, 0x8e, 0xa2, 0x38, 0x3e,
  0xff, 0x39, 0x13, 0xbe, 0xc9, 0xec, 0x84, 0x3e, 0xd9, 0xad, 0x29, 0xbe,
  0x1e, 0x61, 0x9d, 0xbd, 0xa0, 0x66, 0x5d, 0x3e, 0xc9, 0x48, 0xe5, 0x3c,
  0x0f, 0x8c, 0xbd, 0xbd, 0x5b, 0xa1, 0xf2, 0xbd, 0xc5, 0xb6, 0x8d, 0x3e,
  0x56, 0xf2, 0x43, 0xbe, 0x02, 0x9e, 0xca, 0xbc, 0xb3, 0xd7, 0x16, 0x3e,
  0x83, 0xb3, 0xf4, 0x3d, 0xdd, 0xb4, 0xd7, 0xbc, 0xf3, 0x95, 0xb0, 0x3d,
  0xc7, 0x8e, 0x89, 0x3e, 0xf5, 0x8a, 0x56, 0x3d, 0x53, 0x6a, 0x9b, 0x3d,
  0xe9, 0xf6, 0xb3, 0xbc, 0xbc, 0x72, 0xa0, 0x3d, 0xa5, 0x82, 0x48, 0x3d,
  0x86, 0x2a, 0xf4, 0x3d, 0xb2, 0x3a, 0xdc, 0x3d, 0xd8, 0x79, 0xa6, 0xbd,
  0xec, 0x3c, 0x83, 0x3d, 0x92, 0x8b, 0x17, 0xbe, 0x40, 0xd3, 0xff, 0xbd,
  0x9c, 0xa4, 0xa2, 0xbe, 0x92, 0xa2, 0xf8, 0x3d, 0x82, 0x3a, 0x41, 0xbd,
  0x2b, 0xaf, 0xe8, 0x3d, 0x17, 0x71, 0x77, 0x3e, 0xe4, 0xe7, 0x0b, 0x3e,
  0x1f, 0xa6, 0x65, 0x3e, 0x28, 0xf4, 0x80, 0x3e, 0x8f, 0x52, 0xa4, 0x3d,
  0x49, 0xea, 0x13, 0x3e, 0x7c, 0xe0, 0x4d, 0x3d, 0x77, 0xb7, 0x03, 0xbd,
  0xfc, 0xb6, 0x67, 0xbe, 0x16, 0x54, 0xae, 0x3d, 0xaf, 0xfa, 0x08, 0xbf,
  0xce, 0xc9, 0x48, 0xbe, 0xef, 0x24, 0x59, 0xbe, 0x24, 0x2e, 0x42, 0x3e,
  0x27, 0xcb, 0x11, 0xbe, 0xd8, 0x3f, 0x08, 0x3e, 0x51, 0x84, 0x81, 0x3e,
  0x50, 0xca, 0x7b, 0x3e, 0x93, 0x2b, 0x96, 0x3c, 0xbc, 0xf8, 0xc2, 0x3d,
  0x68, 0x7d, 0x19, 0x3e, 0xb7, 0xe8, 0xe2, 0x3e, 0x72, 0x74, 0xa4, 0xbd,
  0x21, 0x99, 0x5b, 0x3b, 0x1f, 0x20, 0xd1, 0xbe, 0x06, 0x19, 0x01, 0xbe,
  0xde, 0x1b, 0x9a, 0xbe, 0x2b, 0x8f, 0x01, 0x3e, 0xca, 0x61, 0x88, 0xbe,
  0xc4, 0x16, 0x2f, 0x3e, 0x88, 0x58, 0x40, 0xbd, 0x6d, 0x91, 0x8a, 0x3e,
  0x2e, 0xe5, 0xa3, 0x3e, 0xa5, 0x0c, 0xa9, 0x3e, 0xf1, 0xfa, 0xc0, 0xbc,
  0x10, 0x1e, 0x0a, 0x3c, 0x28, 0x9f, 0xfe, 0x3d, 0x68, 0xfb, 0x0b, 0x3e,
  0xc0, 0x6f, 0x62, 0xbd, 0xed, 0x1f, 0x5c, 0x3e, 0x63, 0x0c, 0x1d, 0xbe,
  0x63, 0x7b, 0xe5, 0xbd, 0xa6, 0xbf, 0xee, 0x3d, 0xff, 0x58, 0x92, 0x3d,
  0x5a, 0x5a, 0x12, 0xbe, 0x02, 0xc4, 0xd7, 0x3c, 0x13, 0x91, 0x36, 0xbd,
  0xc5, 0x08, 0x01, 0xbd, 0x63, 0x88, 0xc9, 0x3c, 0xcb, 0x8d, 0x19, 0x3d,
  0x94, 0xda, 0x0f, 0xbc, 0xd4, 0x41, 0xd7, 0x3d, 0x19, 0x4a, 0xc5, 0x3d,
  0xc5, 0xbc, 0x65, 0x3e, 0x7a, 0x42, 0x1d, 0xbe, 0xa7, 0x70, 0x9f, 0xbc,
  0x9d, 0x53, 0x1d, 0x3c, 0x59, 0x5c, 0xb0, 0xbe, 0x50, 0x3a, 0x89, 0x3e,
  0xea, 0xc4, 0x8e, 0xbc, 0xcc, 0xec, 0xaa, 0x3d, 0x18, 0x7e, 0x5e, 0xbe,
  0x5d, 0x84, 0xff, 0x3c, 0xcb, 0x8c, 0x37, 0xbe, 0x57, 0xa3, 0x5f, 0x3e,
  0x92, 0x24, 0x47, 0x3e, 0xbf, 0xc6, 0x9a, 0xbc, 0xca, 0x93, 0x46, 0x3d,
  0x03, 0x28, 0xb1, 0xbd, 0x26, 0x9a, 0x80, 0xbe, 0x8f, 0x13, 0x5b, 0xbb,
  0x84, 0x4f, 0xb1, 0xbd, 0x71, 0xf2, 0xfc, 0xbb, 0xeb, 0x06, 0xce, 0xbe,
  0x7f, 0xe9, 0xb4, 0x3e, 0x2e, 0x11, 0x23, 0x3e, 0x33, 0x12, 0xac, 0x3e,
  0x2d, 0x9a, 0xa0, 0xbe, 0x75, 0x26, 0x0f, 0x3e, 0x09, 0xdb, 0x9e, 0xbe,
  0x36, 0xa2, 0x3b, 0xbd, 0xd9, 0x65, 0x30, 0xbe, 0x03, 0x72, 0x04, 0xbe,
  0x1b, 0xd8, 0x65, 0xbe, 0xb5, 0x4d, 0xc2, 0xbe, 0xe3, 0xc0, 0x7e, 0xbe,
  0x20, 0xb2, 0x6f, 0xbe, 0xc7, 0x94, 0x0b, 0xbe, 0x0d, 0xc0, 0xa7, 0x3d,
  0xb2, 0xc9, 0xb6, 0xbe, 0x39, 0xa2, 0xec, 0x3e, 0xd9, 0x31, 0x88, 0x3d,
  0xb3, 0x24, 0x84, 0x3c, 0x7e, 0x22, 0x8d, 0xbe, 0x7f, 0x33, 0x27, 0x3e,
  0x77, 0x5e, 0xec, 0xbe, 0x6e, 0xb0, 0x29, 0xbe, 0xaa, 0x80, 0xbc, 0xbe,
  0x2e, 0x15, 0x25, 0xbe, 0x27, 0x3d, 0x8c, 0xbe, 0xc7, 0x01, 0xce, 0xbe,
  0x7f, 0x48, 0x83, 0xbe, 0x22, 0x16, 0x96, 0xbe, 0x74, 0x73, 0x2f, 0xbe,
  0xda, 0xfe, 0xd1, 0x3e, 0x7f, 0x8a, 0x2d, 0xbe, 0x95, 0xdc, 0xfd, 0x3d,
  0x07, 0xc2, 0x41, 0x3e, 0x2a, 0x63, 0x80, 0x3e, 0x82, 0xa6, 0x54, 0xbe,
  0x3a, 0x93, 0x54, 0x3d, 0x6f, 0xd1, 0x6e, 0xbe, 0x8b, 0x13, 0xa9, 0xbd,
  0x28, 0xa0, 0xb1, 0xbd, 0xde, 0xbe, 0x7f, 0xbd, 0xcf, 0x51, 0x8f, 0xbe,
  0x27, 0xab, 0xde, 0xbd, 0x22, 0x9d, 0xb9, 0x3d, 0xa1, 0x2c, 0x4d, 0x3e,
  0xdd, 0xbc, 0x18, 0xbe, 0x06, 0x7e, 0x9c, 0x3e, 0x1b, 0x1e, 0x6a, 0xbe,
  0x43, 0xc8, 0xf0, 0x3e, 0x21, 0x5f, 0xf4, 0xbc, 0xeb, 0x11, 0x3a, 0x3e,
  0xc1, 0xde, 0x46, 0xbe, 0x9a, 0xc8, 0xef, 0x3d, 0xb3, 0x97, 0x82, 0xbe,
  0xe2, 0xde, 0x65, 0xbc, 0x02, 0x94, 0x19, 0x3e, 0xd9, 0xe0, 0x20, 0xbe,
  0x09, 0x48, 0x6c, 0xbe, 0xc6, 0x5b, 0x12, 0x3e, 0xa8, 0xa2, 0x28, 0x3e,
  0xc9, 0xa5, 0x32, 0xbe, 0x2d, 0xde, 0xc0, 0xbd, 0x55, 0xf4, 0x8b, 0x3e,
  0x47, 0xa1, 0x57, 0xbe, 0x76, 0x6a, 0xea, 0xbd, 0x11, 0x52, 0x3f, 0x3e,
  0x0a, 0x5d, 0xa3, 0xbd, 0xd0, 0xca, 0x06, 0xbd, 0x67, 0x5f, 0x1b, 0x3e,
  0xd4, 0x76, 0xef, 0x3c, 0x2c, 0x7d, 0x68, 0xbd, 0x0f, 0x7a, 0x3a, 0x3e,
  0x81, 0x58, 0x9e, 0xbc, 0xf1, 0x98, 0x57, 0xbe, 0xfa, 0xa6, 0x4e, 0xbe,
  0x96, 0x6a, 0xbb, 0xbd, 0x61, 0x90, 0xe1, 0x3d, 0x3c, 0x0f, 0x3f, 0xbe,
  0xe0, 0x13, 0x18, 0x3d, 0x2d, 0xbd, 0x32, 0xbd, 0x26, 0x18, 0xb0, 0xbd,
  0x23, 0xb3, 0xae, 0xbd, 0x73, 0x1c, 0x18, 0xbe, 0x9e, 0x4e, 0x5a, 0xbd,
  0xf3, 0xdf, 0x7f, 0x3d, 0x80, 0xb8, 0x33, 0x3d, 0x67, 0xb8, 0x1e, 0x3d,
  0xc9, 0x44, 0x7f, 0x3d, 0xac, 0x48, 0xc6, 0xbd, 0x6e, 0x25, 0xc7, 0xbd,
  0xc3, 0xa9, 0x23, 0x3e, 0xef, 0x7c, 0x28, 0x3e, 0x3d, 0x68, 0x5a, 0xbe,
  0xf9, 0x9e, 0x68, 0xbd, 0x08, 0x2a, 0xb5, 0x3d, 0x49, 0x10, 0xfa, 0x3d,
  0xa6, 0x06, 0x63, 0xbe, 0x81, 0xec, 0xe2, 0x3d, 0x74, 0xa8, 0xd3, 0x3d,
  0x4d, 0x2d, 0x43, 0x3e, 0xcf, 0xcb, 0x3c, 0xbe, 0x4b, 0x46, 0x20, 0x3e,
  0xaf, 0x95, 0x99, 0x3d, 0x08, 0x15, 0x0c, 0xbd, 0xf0, 0xd4, 0xb7, 0xbd,
  0xd2, 0x34, 0x9c, 0x3d, 0x0d, 0xcf, 0x84, 0x3e, 0x3c, 0x0f, 0x99, 0x3d,
  0xa6, 0x2b, 0x2b, 0x3e, 0x0e, 0xda, 0x15, 0xbe, 0x66, 0xef, 0xf2, 0xbd,
  0x04, 0x7b, 0xda, 0x3d, 0x12, 0x52, 0xaa, 0xba, 0x53, 0x60, 0x2e, 0xbe,
  0x6d, 0x69, 0xcc, 0x3d, 0xf7, 0x2c, 0x04, 0x3e, 0x6c, 0x1c, 0x6f, 0xbe,
  0x28, 0x7e, 0x61, 0x3e, 0xd0, 0xdd, 0x2c, 0xbd, 0xff, 0x56, 0x20, 0x3e,
  0xb5, 0xd8, 0xa2, 0xbd, 0xb3, 0xde, 0xf1, 0xbd, 0xa9, 0x31, 0xe9, 0x3d,
  0x73, 0xe6, 0x19, 0xbe, 0x21, 0x08, 0x5a, 0x3d, 0x8e, 0x0c, 0x81, 0x3d,
  0xfa, 0xb6, 0xf5, 0xbd, 0x00, 0x12, 0xd3, 0x3e, 0x18, 0x98, 0x93, 0xbe,
  0x39, 0x85, 0x3e, 0xbc, 0x46, 0x3c, 0xa2, 0xbe, 0xd2, 0x12, 0x6a, 0x3e,
  0x3b, 0x38, 0x65, 0xbe, 0x89, 0x9b, 0x50, 0xbe, 0xdc, 0xe7, 0x6b, 0x3e,
  0xab, 0xa4, 0x20, 0x3e, 0xd0, 0x17, 0x7e, 0xbe, 0xdf, 0x92, 0x62, 0x3d,
  0xe3, 0xf7, 0xfe, 0x3d, 0xc8, 0xf1, 0x01, 0xbd, 0x7f, 0x70, 0x93, 0xbe,
  0x7f, 0x37, 0x47, 0x3e, 0x58, 0xf8, 0x97, 0xbd, 0xa8, 0x41, 0x0a, 0x3e,
  0x77, 0xbd, 0x00, 0x3e, 0x12, 0xee, 0xc6, 0x3d, 0x43, 0x7f, 0xdf, 0x3c,
  0x85, 0x15, 0xf6, 0xbd, 0xae, 0x14, 0x1f, 0x3e, 0xda, 0xb0, 0x16, 0xbe,
  0x80, 0x55, 0x93, 0xbd, 0x2e, 0x5c, 0x46, 0xbd, 0x1d, 0x0e, 0xd5, 0xbe,
  0x22, 0xf0, 0xa1, 0xbd, 0x85, 0x60, 0x7d, 0xbe, 0x62, 0x9e, 0x7b, 0xbe,
  0xee, 0x55, 0x27, 0x3e, 0x7e, 0x72, 0xea, 0xbd, 0x14, 0xda, 0xfa, 0xbd,
  0xd1, 0x07, 0x14, 0xbd, 0x2a, 0xef, 0x92, 0xbd, 0x46, 0xb6, 0x60, 0xbe,
  0x2e, 0x21, 0x94, 0xbd, 0xa8, 0xcc, 0x92, 0x3d, 0x80, 0xeb, 0x19, 0xbe,
  0xee, 0xac, 0xdf, 0xbd, 0x20, 0x39, 0xd0, 0x3d, 0x8e, 0x21, 0x63, 0x3c,
  0x21, 0xc6, 0x6d, 0xbe, 0x64, 0x9d, 0x94, 0x3d, 0x5a, 0xbe, 0xbf, 0x3d,
  0x96, 0x9c, 0xde, 0xbc, 0xc5, 0xf2, 0xb7, 0x3d, 0xbb, 0x02, 0x35, 0xbe,
  0xd8, 0x79, 0x86, 0xbc, 0x80, 0x97, 0xad, 0x3d, 0xf2, 0x1e, 0x3f, 0x3d,
  0x96, 0xb8, 0xce, 0xbd, 0x74, 0xd4, 0xfa, 0x3d, 0x55, 0x93, 0x02, 0x3e,
  0xe1, 0x46, 0x64, 0xbd, 0xd8, 0xc9, 0xfd, 0xbd, 0xee, 0x12, 0xba, 0x3d,
  0x77, 0x61, 0x07, 0x3e, 0x3a, 0x25, 0xeb, 0xbd, 0xbe, 0xe7, 0xca, 0x3d,
  0xd2, 0x5c, 0x50, 0xbe, 0xa8, 0xb2, 0x98, 0x3d, 0xde, 0xa9, 0x53, 0x3e,
  0x03, 0xbb, 0x19, 0xbd, 0x3c, 0xbf, 0x2d, 0xbe, 0x03, 0x9a, 0xac, 0xbc,
  0xc3, 0x23, 0x22, 0x3d, 0xed, 0x85, 0xfc, 0xbd, 0x8a, 0x85, 0x85, 0xbe,
  0x30, 0x64, 0xe3, 0x3d, 0x3b, 0x3d, 0xd5, 0x3d, 0xf2, 0x18, 0x91, 0xbd,
  0xac, 0x59, 0xb6, 0xbc, 0x74, 0x3f, 0x8a, 0xbe, 0x40, 0x21, 0x7e, 0xbe,
  0xc7, 0x5c, 0xab, 0x3d, 0xde, 0x0d, 0x99, 0x3d, 0x5a, 0x7f, 0xdb, 0xbd,
  0x63, 0xdd, 0x47, 0x3e, 0x62, 0x2e, 0x62, 0xbe, 0x24, 0x99, 0x70, 0x3d,
  0xd7, 0x09, 0x1d, 0x3e, 0x8e, 0x0d, 0x67, 0x3e, 0xc1, 0xb4, 0x86, 0x3d,
  0x9d, 0xd2, 0x1f, 0xbe, 0x88, 0xef, 0xb4, 0x3d, 0xa8, 0x66, 0x91, 0xbe,
  0xde, 0xb8, 0x09, 0xbe, 0x03, 0xf3, 0x61, 0xbc, 0x0b, 0xc1, 0x18, 0xbe,
  0xd3, 0xcb, 0x67, 0xbe, 0x2a, 0x4e, 0xfb, 0x3d, 0x54, 0xe1, 0x6e, 0xbe,
  0x76, 0x5c, 0xd7, 0x3d, 0x3a, 0x94, 0xdb, 0x3d, 0xe8, 0x1c, 0x46, 0xbe,
  0x7c, 0xf6, 0x19, 0x3c, 0x0e, 0x0b, 0xff, 0xbd, 0x37, 0x3b, 0x52, 0xbe,
  0xee, 0x2a, 0xa1, 0x3d, 0x89, 0x84, 0xdb, 0xbd, 0x94, 0xe6, 0x2c, 0x3e,
  0xbe, 0x5d, 0x95, 0xbe, 0xf4, 0x58, 0x63, 0xbd, 0xf1, 0xa9, 0x09, 0x3c,
  0x38, 0xfc, 0x0d, 0xbe, 0x8a, 0x4c, 0x09, 0xbe, 0xa0, 0x34, 0x48, 0x3e,
  0x84, 0x30, 0xcd, 0xbc, 0x17, 0x3b, 0x32, 0xbe, 0xc2, 0x89, 0xcc, 0x3e,
  0xdd, 0x72, 0x16, 0xbe, 0x4f, 0x4e, 0x0a, 0xbe, 0xcb, 0x1a, 0x22, 0xbe,
  0xaa, 0x85, 0xa6, 0xbc, 0x40, 0x09, 0xff, 0xbd, 0xd6, 0xd9, 0x9a, 0xbe,
  0xfa, 0x7c, 0x55, 0xbe, 0xf3, 0xcc, 0x78, 0xbd, 0xdf, 0x6b, 0x55, 0x3d,
  0xbd, 0xc9, 0xe7, 0xbd, 0xb0, 0x28, 0x0b, 0x3e, 0xa1, 0x77, 0x83, 0xbd,
  0xf1, 0x2c, 0x93, 0x3d, 0x64, 0x3c, 0xb5, 0xbb, 0xb5, 0xb1, 0x35, 0xbc,
  0xb5, 0x06, 0xe3, 0xbc, 0xe4, 0xce, 0x53, 0xbe, 0xcc, 0x5c, 0x92, 0xbe,
  0x66, 0xfd, 0xff, 0xff, 0x10, 0x00, 0x00, 0x00, 0x07, 0x00, 0x00, 0x00,
  0x14, 0x00, 0x00, 0x00, 0x2c, 0x00, 0x00, 0x00, 0x02, 0x00, 0x00, 0x00,
  0x10, 0x00, 0x00, 0x00, 0x70, 0x00, 0x00, 0x00, 0x17, 0x00, 0x00, 0x00,
  0x73, 0x65, 0x71, 0x75, 0x65, 0x6e, 0x74, 0x69, 0x61, 0x6c, 0x2f, 0x64,
  0x65, 0x6e, 0x73, 0x65, 0x2f, 0x4d, 0x61, 0x74, 0x4d, 0x75, 0x6c, 0x00,
  0xd0, 0xfc, 0xff, 0xff, 0xda, 0xfd, 0xff, 0xff, 0x04, 0x00, 0x00, 0x00,
  0x08, 0x00, 0x00, 0x00, 0xff, 0xff, 0xff, 0xff, 0x70, 0x00, 0x00, 0x00,
  0x00, 0x00, 0x0e, 0x00, 0x18, 0x00, 0x08, 0x00, 0x07, 0x00, 0x0c, 0x00,
  0x10, 0x00, 0x14, 0x00, 0x0e, 0x00, 0x00, 0x00, 0x00, 0x00, 0x00, 0x02,
  0x10, 0x00, 0x00, 0x00, 0x06, 0x00, 0x00, 0x00, 0x10, 0x00, 0x00, 0x00,
  0x2c, 0x00, 0x00, 0x00, 0x01, 0x00, 0x00, 0x00, 0x02, 0x00, 0x00, 0x00,
  0x18, 0x00, 0x00, 0x00, 0x73, 0x65, 0x71, 0x75, 0x65, 0x6e, 0x74, 0x69,
  0x61, 0x6c, 0x2f, 0x66, 0x6c, 0x61, 0x74, 0x74, 0x65, 0x6e, 0x2f, 0x43,
  0x6f, 0x6e, 0x73, 0x74, 0x00, 0x00, 0x00, 0x00, 0x38, 0xfd, 0xff, 0xff,
  0x42, 0xfe, 0xff, 0xff, 0x04, 0x00, 0x00, 0x00, 0x0c, 0x00, 0x00, 0x00,
  0x5c, 0x5c, 0xbf, 0x3e, 0xfe, 0xeb, 0x95, 0x3d, 0x00, 0xf8, 0x77, 0xc0,
  0x26, 0xfe, 0xff, 0xff, 0x10, 0x00, 0x00, 0x00, 0x05, 0x00, 0x00, 0x00,
  0x10, 0x00, 0x00, 0x00, 0x44, 0x00, 0x00, 0x00, 0x01, 0x00, 0x00, 0x00,
  0x03, 0x00, 0x00, 0x00, 0x32, 0x00, 0x00, 0x00, 0x73, 0x65, 0x71, 0x75,
  0x65, 0x6e, 0x74, 0x69, 0x61, 0x6c, 0x2f, 0x64, 0x65, 0x6e, 0x73, 0x65,
  0x5f, 0x31, 0x2f, 0x42, 0x69, 0x61, 0x73, 0x41, 0x64, 0x64, 0x2f, 0x52,
  0x65, 0x61, 0x64, 0x56, 0x61, 0x72, 0x69, 0x61, 0x62, 0x6c, 0x65, 0x4f,
  0x70, 0x2f, 0x72, 0x65, 0x73, 0x6f, 0x75, 0x72, 0x63, 0x65, 0x00, 0x00,
  0xa8, 0xfd, 0xff, 0xff, 0xb2, 0xfe, 0xff, 0xff, 0x04, 0x00, 0x00, 0x00,
  0x40, 0x00, 0x00, 0x00, 0x14, 0x0f, 0x46, 0xbe, 0x28, 0xe5, 0xce, 0x3d,
  0x7b, 0xa3, 0x81, 0xbe, 0x8d, 0xd3, 0x85, 0xbe, 0xef, 0xcd, 0xb1, 0x3e,
  0x7b, 0x8c, 0x10, 0xbe, 0xba, 0x6e, 0x76, 0xbe, 0x4b, 0x17, 0x6a, 0x3e,
  0x93, 0x9a, 0x0a, 0xbc, 0xf9, 0x94, 0x13, 0x3f, 0xad, 0x61, 0xa1, 0xbd,
  0x94, 0xe6, 0xc5, 0x3c, 0x1d, 0x21, 0x09, 0xbe, 0x44, 0x82, 0x9e, 0xbd,
  0xfa, 0x3d, 0x9b, 0xbe, 0x21, 0xbe, 0x06, 0xbe, 0xca, 0xfe, 0xff, 0xff,
  0x10, 0x00, 0x00, 0x00, 0x04, 0x00, 0x00, 0x00, 0x10, 0x00, 0x00, 0x00,
  0x44, 0x00, 0x00, 0x00, 0x01, 0x00, 0x00, 0x00, 0x10, 0x00, 0x00, 0x00,
  0x30, 0x00, 0x00, 0x00, 0x73, 0x65, 0x71, 0x75, 0x65, 0x6e, 0x74, 0x69,
  0x61, 0x6c, 0x2f, 0x64, 0x65, 0x6e, 0x73, 0x65, 0x2f, 0x42, 0x69, 0x61,
  0x73, 0x41, 0x64, 0x64, 0x2f, 0x52, 0x65, 0x61, 0x64, 0x56, 0x61, 0x72,
  0x69, 0x61, 0x62, 0x6c, 0x65, 0x4f, 0x70, 0x2f, 0x72, 0x65, 0x73, 0x6f,
  0x75, 0x72, 0x63, 0x65, 0x00, 0x00, 0x00, 0x00, 0x4c, 0xfe, 0xff, 0xff,
  0x56, 0xff, 0xff, 0xff, 0x04, 0x00, 0x00, 0x00, 0x40, 0x00, 0x00, 0x00,
  0x9f, 0x2b, 0x39, 0xbe, 0x8a, 0x11, 0x0e, 0xbf, 0x3d, 0x33, 0x2d, 0xbe,
  0x77, 0x9b, 0x2c, 0xbd, 0x2c, 0xc9, 0xc4, 0xbe, 0x9e, 0x4b, 0x1d, 0x3e,
  0x2c, 0xce, 0xea, 0xbe, 0x39, 0x29, 0xa1, 0xbe, 0x33, 0xf7, 0xad, 0xbe,
  0x82, 0x17, 0x07, 0xbf, 0xec, 0xa5, 0xa6, 0xbe, 0xe1, 0xe1, 0xbc, 0xbe,
  0x75, 0xce, 0xe9, 0xbe, 0x90, 0xfa, 0x00, 0xbe, 0xb5, 0xb4, 0x07, 0xbf,
  0x09, 0x8e, 0x75, 0xbe, 0x6e, 0xff, 0xff, 0xff, 0x10, 0x00, 0x00, 0x00,
  0x03, 0x00, 0x00, 0x00, 0x10, 0x00, 0x00, 0x00, 0x48, 0x00, 0x00, 0x00,
  0x01, 0x00, 0x00, 0x00, 0x10, 0x00, 0x00, 0x00, 0x33, 0x00, 0x00, 0x00,
  0x73, 0x65, 0x71, 0x75, 0x65, 0x6e, 0x74, 0x69, 0x61, 0x6c, 0x2f, 0x63,
  0x6f, 0x6e, 0x76, 0x32, 0x64, 0x5f, 0x31, 0x2f, 0x42, 0x69, 0x61, 0x73,
  0x41, 0x64, 0x64, 0x2f, 0x52, 0x65, 0x61, 0x64, 0x56, 0x61, 0x72, 0x69,
  0x61, 0x62, 0x6c, 0x65, 0x4f, 0x70, 0x2f, 0x72, 0x65, 0x73, 0x6f, 0x75,
  0x72, 0x63, 0x65, 0x00, 0x04, 0x00, 0x06, 0x00, 0x04, 0x00, 0x00, 0x00,
  0x00, 0x00, 0x06, 0x00, 0x08, 0x00, 0x04, 0x00, 0x06, 0x00, 0x00, 0x00,
  0x04, 0x00, 0x00, 0x00, 0x20, 0x00, 0x00, 0x00, 0xb1, 0xd2, 0x07, 0xbf,
  0x40, 0xe1, 0xb5, 0xbe, 0x76, 0xfc, 0x69, 0xbe, 0x33, 0xa1, 0x1b, 0xbf,
  0xb7, 0x9a, 0xac, 0xbd, 0xae, 0x21, 0x8c, 0x3e, 0x47, 0x5d, 0x82, 0xbf,
  0x12, 0x9b, 0x49, 0xbe, 0x00, 0x00, 0x0e, 0x00, 0x14, 0x00, 0x04, 0x00,
  0x00, 0x00, 0x08, 0x00, 0x0c, 0x00, 0x10, 0x00, 0x0e, 0x00, 0x00, 0x00,
  0x10, 0x00, 0x00, 0x00, 0x02, 0x00, 0x00, 0x00, 0x10, 0x00, 0x00, 0x00,
  0x44, 0x00, 0x00, 0x00, 0x01, 0x00, 0x00, 0x00, 0x08, 0x00, 0x00, 0x00,
  0x31, 0x00, 0x00, 0x00, 0x73, 0x65, 0x71, 0x75, 0x65, 0x6e, 0x74, 0x69,
  0x61, 0x6c, 0x2f, 0x63, 0x6f, 0x6e, 0x76, 0x32, 0x64, 0x2f, 0x42, 0x69,
  0x61, 0x73, 0x41, 0x64, 0x64, 0x2f, 0x52, 0x65, 0x61, 0x64, 0x56, 0x61,
  0x72, 0x69, 0x61, 0x62, 0x6c, 0x65, 0x4f, 0x70, 0x2f, 0x72, 0x65, 0x73,
  0x6f, 0x75, 0x72, 0x63, 0x65, 0x00, 0x00, 0x00, 0x90, 0xff, 0xff, 0xff,
  0x14, 0x00, 0x18, 0x00, 0x04, 0x00, 0x00, 0x00, 0x08, 0x00, 0x0c, 0x00,
  0x10, 0x00, 0x00, 0x00, 0x00, 0x00, 0x14, 0x00, 0x14, 0x00, 0x00, 0x00,
  0x14, 0x00, 0x00, 0x00, 0x01, 0x00, 0x00, 0x00, 0x20, 0x00, 0x00, 0x00,
  0x44, 0x00, 0x00, 0x00, 0x2c, 0x00, 0x00, 0x00, 0x04, 0x00, 0x00, 0x00,
  0x01, 0x00, 0x00, 0x00, 0x40, 0x00, 0x00, 0x00, 0x03, 0x00, 0x00, 0x00,
  0x01, 0x00, 0x00, 0x00, 0x0c, 0x00, 0x00, 0x00, 0x63, 0x6f, 0x6e, 0x76,
  0x32, 0x64, 0x5f, 0x69, 0x6e, 0x70, 0x75, 0x74, 0x00, 0x00, 0x00, 0x00,
  0x04, 0x00, 0x00, 0x00, 0xff, 0xff, 0xff, 0xff, 0x40, 0x00, 0x00, 0x00,
  0x03, 0x00, 0x00, 0x00, 0x01, 0x00, 0x00, 0x00, 0xfc, 0xff, 0xff, 0xff,
  0x04, 0x00, 0x04, 0x00, 0x04, 0x00, 0x00, 0x00




};


unsigned int model_tflite_len = 13052;// Fill the int in `src/model.cc` here
