#include "magic_wand_model_data.h"


// We need to keep the data array aligned on some architectures.

#ifdef __has_attribute

#define HAVE_ATTRIBUTE(x) __has_attribute(x)

#else

#define HAVE_ATTRIBUTE(x) 0

#endif

#if HAVE_ATTRIBUTE(aligned) || (defined(__GNUC__) && !defined(__clang__))

#define DATA_ALIGN_ATTRIBUTE __attribute__((aligned(4)))

#else

#define DATA_ALIGN_ATTRIBUTE

#endif


const unsigned char g_magic_wand_model_data[] DATA_ALIGN_ATTRIBUTE = {

  0x1c, 0x00, 0x00, 0x00, 0x54, 0x46, 0x4c, 0x33, 0x14, 0x00, 0x20, 0x00,
  0x04, 0x00, 0x08, 0x00, 0x0c, 0x00, 0x10, 0x00, 0x14, 0x00, 0x00, 0x00,
  0x18, 0x00, 0x1c, 0x00, 0x14, 0x00, 0x00, 0x00, 0x03, 0x00, 0x00, 0x00,
  0x18, 0x00, 0x00, 0x00, 0x2c, 0x00, 0x00, 0x00, 0xd8, 0x00, 0x00, 0x00,
  0x2c, 0x00, 0x00, 0x00, 0x80, 0x00, 0x00, 0x00, 0x78, 0x00, 0x00, 0x00,
  0x05, 0x00, 0x00, 0x00, 0x28, 0x07, 0x00, 0x00, 0x44, 0x06, 0x00, 0x00,
  0xbc, 0x03, 0x00, 0x00, 0xf8, 0x02, 0x00, 0x00, 0xac, 0x01, 0x00, 0x00,
  0x01, 0x00, 0x00, 0x00, 0xd0, 0x00, 0x00, 0x00, 0x14, 0x00, 0x00, 0x00,
  0x98, 0x32, 0x00, 0x00, 0x94, 0x32, 0x00, 0x00, 0x8c, 0x31, 0x00, 0x00,
  0xd8, 0x30, 0x00, 0x00, 0x30, 0x30, 0x00, 0x00, 0xbc, 0x2f, 0x00, 0x00,
  0x50, 0x2f, 0x00, 0x00, 0x00, 0x13, 0x00, 0x00, 0xec, 0x11, 0x00, 0x00,
  0x10, 0x10, 0x00, 0x00, 0xb4, 0x07, 0x00, 0x00, 0x6c, 0x32, 0x00, 0x00,
  0x68, 0x32, 0x00, 0x00, 0x64, 0x32, 0x00, 0x00, 0x60, 0x32, 0x00, 0x00,
  0x5c, 0x32, 0x00, 0x00, 0x58, 0x32, 0x00, 0x00, 0x54, 0x32, 0x00, 0x00,
  0x50, 0x32, 0x00, 0x00, 0x3c, 0x00, 0x00, 0x00, 0x00, 0x00, 0x00, 0x00,
  0x01, 0x00, 0x00, 0x00, 0x0c, 0x00, 0x00, 0x00, 0x08, 0x00, 0x0c, 0x00,
  0x04, 0x00, 0x08, 0x00, 0x08, 0x00, 0x00, 0x00, 0x08, 0x00, 0x00, 0x00,
  0x13, 0x00, 0x00, 0x00, 0x13, 0x00, 0x00, 0x00, 0x6d, 0x69, 0x6e, 0x5f,
  0x72, 0x75, 0x6e, 0x74, 0x69, 0x6d, 0x65, 0x5f, 0x76, 0x65, 0x72, 0x73,
  0x69, 0x6f, 0x6e, 0x00, 0xfa, 0xce, 0xff, 0xff, 0x04, 0x00, 0x00, 0x00,
  0x10, 0x00, 0x00, 0x00, 0x31, 0x2e, 0x35, 0x2e, 0x30, 0x00, 0x00, 0x00,
  0x00, 0x00, 0x00, 0x00, 0x00, 0x00, 0x00, 0x00, 0x0f, 0x00, 0x00, 0x00,
  0x4d, 0x4c, 0x49, 0x52, 0x20, 0x43, 0x6f, 0x6e, 0x76, 0x65, 0x72, 0x74,
  0x65, 0x64, 0x2e, 0x00, 0x00, 0x00, 0x0e, 0x00, 0x18, 0x00, 0x04, 0x00,
  0x08, 0x00, 0x0c, 0x00, 0x10, 0x00, 0x14, 0x00, 0x0e, 0x00, 0x00, 0x00,
  0x14, 0x00, 0x00, 0x00, 0x5c, 0x00, 0x00, 0x00, 0x60, 0x00, 0x00, 0x00,
  0x64, 0x00, 0x00, 0x00, 0x84, 0x00, 0x00, 0x00, 0x12, 0x00, 0x00, 0x00,
  0x58, 0x31, 0x00, 0x00, 0xe8, 0x30, 0x00, 0x00, 0x44, 0x30, 0x00, 0x00,
  0x9c, 0x2f, 0x00, 0x00, 0xf4, 0x2e, 0x00, 0x00, 0x94, 0x2e, 0x00, 0x00,
  0x2c, 0x2e, 0x00, 0x00, 0xd8, 0x11, 0x00, 0x00, 0xbc, 0x10, 0x00, 0x00,
  0xe0, 0x0e, 0x00, 0x00, 0x0c, 0x06, 0x00, 0x00, 0x28, 0x05, 0x00, 0x00,
  0xe8, 0x03, 0x00, 0x00, 0x3c, 0x03, 0x00, 0x00, 0x98, 0x02, 0x00, 0x00,
  0xd4, 0x01, 0x00, 0x00, 0x10, 0x01, 0x00, 0x00, 0x84, 0x00, 0x00, 0x00,
  0x01, 0x00, 0x00, 0x00, 0x00, 0x00, 0x00, 0x00, 0x01, 0x00, 0x00, 0x00,
  0x11, 0x00, 0x00, 0x00, 0x08, 0x00, 0x00, 0x00, 0x74, 0x05, 0x00, 0x00,
  0x94, 0x04, 0x00, 0x00, 0x78, 0x03, 0x00, 0x00, 0xbc, 0x02, 0x00, 0x00,
  0x30, 0x02, 0x00, 0x00, 0x50, 0x01, 0x00, 0x00, 0xa8, 0x00, 0x00, 0x00,
  0x10, 0x00, 0x00, 0x00, 0x04, 0x00, 0x00, 0x00, 0x6d, 0x61, 0x69, 0x6e,
  0x00, 0x00, 0x00, 0x00, 0x7a, 0xff, 0xff, 0xff, 0x00, 0x00, 0x00, 0x09,
  0x04, 0x00, 0x00, 0x00, 0x1c, 0x00, 0x00, 0x00, 0x10, 0x00, 0x00, 0x00,
  0x04, 0x00, 0x00, 0x00, 0xf6, 0xcf, 0xff, 0xff, 0x00, 0x00, 0x80, 0x3f,
  0x01, 0x00, 0x00, 0x00, 0x11, 0x00, 0x00, 0x00, 0x01, 0x00, 0x00, 0x00,
  0x10, 0x00, 0x00, 0x00, 0xa0, 0xfa, 0xff, 0xff, 0x19, 0x00, 0x00, 0x00,
  0x00, 0x00, 0x00, 0x19, 0x01, 0x00, 0x00, 0x00, 0x84, 0xcf, 0xff, 0xff,
  0x14, 0x00, 0x00, 0x00, 0x12, 0x00, 0x00, 0x00, 0x18, 0x00, 0x00, 0x00,
  0x30, 0x00, 0x00, 0x00, 0x20, 0x00, 0x00, 0x00, 0x02, 0x00, 0x00, 0x00,
  0x01, 0x00, 0x00, 0x00, 0x03, 0x00, 0x00, 0x00, 0x08, 0x00, 0x00, 0x00,
  0x49, 0x64, 0x65, 0x6e, 0x74, 0x69, 0x74, 0x79, 0x00, 0x00, 0x00, 0x00,
  0x02, 0x00, 0x00, 0x00, 0xff, 0xff, 0xff, 0xff, 0x03, 0x00, 0x00, 0x00,
  0x68, 0xd0, 0xff, 0xff, 0x00, 0x00, 0x0e, 0x00, 0x18, 0x00, 0x08, 0x00,
  0x0c, 0x00, 0x10, 0x00, 0x07, 0x00, 0x14, 0x00, 0x0e, 0x00, 0x00, 0x00,
  0x00, 0x00, 0x00, 0x08, 0x03, 0x00, 0x00, 0x00, 0x18, 0x00, 0x00, 0x00,
  0x0c, 0x00, 0x00, 0x00, 0x04, 0x00, 0x00, 0x00, 0x84, 0xcf, 0xff, 0xff,
  0x01, 0x00, 0x00, 0x00, 0x10, 0x00, 0x00, 0x00, 0x03, 0x00, 0x00, 0x00,
  0x0f, 0x00, 0x00, 0x00, 0x07, 0x00, 0x00, 0x00, 0x04, 0x00, 0x00, 0x00,
  0x0c, 0xd0, 0xff, 0xff, 0x14, 0x00, 0x00, 0x00, 0x11, 0x00, 0x00, 0x00,
  0x18, 0x00, 0x00, 0x00, 0x5c, 0x00, 0x00, 0x00, 0x4c, 0x00, 0x00, 0x00,
  0x02, 0x00, 0x00, 0x00, 0x01, 0x00, 0x00, 0x00, 0x03, 0x00, 0x00, 0x00,
  0x34, 0x00, 0x00, 0x00, 0x73, 0x65, 0x71, 0x75, 0x65, 0x6e, 0x74, 0x69,
  0x61, 0x6c, 0x2f, 0x64, 0x65, 0x6e, 0x73, 0x65, 0x5f, 0x31, 0x2f, 0x4d,
  0x61, 0x74, 0x4d, 0x75, 0x6c, 0x3b, 0x73, 0x65, 0x71, 0x75, 0x65, 0x6e,
  0x74, 0x69, 0x61, 0x6c, 0x2f, 0x64, 0x65, 0x6e, 0x73, 0x65, 0x5f, 0x31,
  0x2f, 0x42, 0x69, 0x61, 0x73, 0x41, 0x64, 0x64, 0x00, 0x00, 0x00, 0x00,
  0x02, 0x00, 0x00, 0x00, 0xff, 0xff, 0xff, 0xff, 0x03, 0x00, 0x00, 0x00,
  0x0c, 0xd0, 0xff, 0xff, 0xda, 0xfc, 0xff, 0xff, 0x00, 0x00, 0x00, 0x08,
  0x03, 0x00, 0x00, 0x00, 0x24, 0x00, 0x00, 0x00, 0x18, 0x00, 0x00, 0x00,
  0x0c, 0x00, 0x00, 0x00, 0x00, 0x00, 0x06, 0x00, 0x08, 0x00, 0x07, 0x00,
  0x06, 0x00, 0x00, 0x00, 0x00, 0x00, 0x00, 0x01, 0x01, 0x00, 0x00, 0x00,
  0x0f, 0x00, 0x00, 0x00, 0x03, 0x00, 0x00, 0x00, 0x0e, 0x00, 0x00, 0x00,
  0x06, 0x00, 0x00, 0x00, 0x03, 0x00, 0x00, 0x00, 0xe8, 0xfb, 0xff, 0xff,
  0x09, 0x00, 0x00, 0x00, 0x00, 0x00, 0x00, 0x09, 0x01, 0x00, 0x00, 0x00,
  0xcc, 0xd0, 0xff, 0xff, 0x14, 0x00, 0x00, 0x00, 0x10, 0x00, 0x00, 0x00,
  0x18, 0x00, 0x00, 0x00, 0x6c, 0x00, 0x00, 0x00, 0x5c, 0x00, 0x00, 0x00,
  0x02, 0x00, 0x00, 0x00, 0x01, 0x00, 0x00, 0x00, 0x10, 0x00, 0x00, 0x00,
  0x46, 0x00, 0x00, 0x00, 0x73, 0x65, 0x71, 0x75, 0x65, 0x6e, 0x74, 0x69,
  0x61, 0x6c, 0x2f, 0x64, 0x65, 0x6e, 0x73, 0x65, 0x2f, 0x4d, 0x61, 0x74,
  0x4d, 0x75, 0x6c, 0x3b, 0x73, 0x65, 0x71, 0x75, 0x65, 0x6e, 0x74, 0x69,
  0x61, 0x6c, 0x2f, 0x64, 0x65, 0x6e, 0x73, 0x65, 0x2f, 0x52, 0x65, 0x6c,
  0x75, 0x3b, 0x73, 0x65, 0x71, 0x75, 0x65, 0x6e, 0x74, 0x69, 0x61, 0x6c,
  0x2f, 0x64, 0x65, 0x6e, 0x73, 0x65, 0x2f, 0x42, 0x69, 0x61, 0x73, 0x41,
  0x64, 0x64, 0x00, 0x00, 0x02, 0x00, 0x00, 0x00, 0xff, 0xff, 0xff, 0xff,
  0x10, 0x00, 0x00, 0x00, 0xec, 0xd1, 0xff, 0xff, 0x00, 0x00, 0x0a, 0x00,
  0x10, 0x00, 0x04, 0x00, 0x08, 0x00, 0x0c, 0x00, 0x0a, 0x00, 0x00, 0x00,
  0x02, 0x00, 0x00, 0x00, 0x10, 0x00, 0x00, 0x00, 0x04, 0x00, 0x00, 0x00,
  0x01, 0x00, 0x00, 0x00, 0x0e, 0x00, 0x00, 0x00, 0x02, 0x00, 0x00, 0x00,
  0x0d, 0x00, 0x00, 0x00, 0x05, 0x00, 0x00, 0x00, 0xa8, 0xfc, 0xff, 0xff,
  0x16, 0x00, 0x00, 0x00, 0x00, 0x00, 0x00, 0x16, 0x01, 0x00, 0x00, 0x00,
  0x8c, 0xd1, 0xff, 0xff, 0x14, 0x00, 0x00, 0x00, 0x0f, 0x00, 0x00, 0x00,
  0x18, 0x00, 0x00, 0x00, 0x40, 0x00, 0x00, 0x00, 0x30, 0x00, 0x00, 0x00,
  0x02, 0x00, 0x00, 0x00, 0x01, 0x00, 0x00, 0x00, 0x70, 0x00, 0x00, 0x00,
  0x1a, 0x00, 0x00, 0x00, 0x73, 0x65, 0x71, 0x75, 0x65, 0x6e, 0x74, 0x69,
  0x61, 0x6c, 0x2f, 0x66, 0x6c, 0x61, 0x74, 0x74, 0x65, 0x6e, 0x2f, 0x52,
  0x65, 0x73, 0x68, 0x61, 0x70, 0x65, 0x00, 0x00, 0x02, 0x00, 0x00, 0x00,
  0xff, 0xff, 0xff, 0xff, 0x70, 0x00, 0x00, 0x00, 0x70, 0xd1, 0xff, 0xff,
  0x3e, 0xfe, 0xff, 0xff, 0x00, 0x00, 0x00, 0x05, 0x01, 0x00, 0x00, 0x00,
  0x38, 0x00, 0x00, 0x00, 0x2c, 0x00, 0x00, 0x00, 0x14, 0x00, 0x00, 0x00,
  0x00, 0x00, 0x0e, 0x00, 0x14, 0x00, 0x00, 0x00, 0x10, 0x00, 0x0c, 0x00,
  0x08, 0x00, 0x04, 0x00, 0x0e, 0x00, 0x00, 0x00, 0x03, 0x00, 0x00, 0x00,
  0x01, 0x00, 0x00, 0x00, 0x03, 0x00, 0x00, 0x00, 0x01, 0x00, 0x00, 0x00,
  0x01, 0x00, 0x00, 0x00, 0x0d, 0x00, 0x00, 0x00, 0x01, 0x00, 0x00, 0x00,
  0x0c, 0x00, 0x00, 0x00, 0x2c, 0xd2, 0xff, 0xff, 0x14, 0x00, 0x00, 0x00,
  0x0e, 0x00, 0x00, 0x00, 0x20, 0x00, 0x00, 0x00, 0x58, 0x00, 0x00, 0x00,
  0x40, 0x00, 0x00, 0x00, 0x04, 0x00, 0x00, 0x00, 0x01, 0x00, 0x00, 0x00,
  0x07, 0x00, 0x00, 0x00, 0x01, 0x00, 0x00, 0x00, 0x10, 0x00, 0x00, 0x00,
  0x22, 0x00, 0x00, 0x00, 0x73, 0x65, 0x71, 0x75, 0x65, 0x6e, 0x74, 0x69,
  0x61, 0x6c, 0x2f, 0x6d, 0x61, 0x78, 0x5f, 0x70, 0x6f, 0x6f, 0x6c, 0x69,
  0x6e, 0x67, 0x32, 0x64, 0x5f, 0x31, 0x2f, 0x4d, 0x61, 0x78, 0x50, 0x6f,
  0x6f, 0x6c, 0x00, 0x00, 0x04, 0x00, 0x00, 0x00, 0xff, 0xff, 0xff, 0xff,
  0x07, 0x00, 0x00, 0x00, 0x01, 0x00, 0x00, 0x00, 0x10, 0x00, 0x00, 0x00,
  0x28, 0xd2, 0xff, 0xff, 0x1a, 0xfe, 0xff, 0xff, 0x00, 0x00, 0x00, 0x01,
  0x24, 0x00, 0x00, 0x00, 0x18, 0x00, 0x00, 0x00, 0x04, 0x00, 0x00, 0x00,
  0x0c, 0xfe, 0xff, 0xff, 0x01, 0x00, 0x00, 0x00, 0x01, 0x00, 0x00, 0x00,
  0x00, 0x00, 0x00, 0x01, 0x01, 0x00, 0x00, 0x00, 0x0c, 0x00, 0x00, 0x00,
  0x03, 0x00, 0x00, 0x00, 0x0b, 0x00, 0x00, 0x00, 0x09, 0x00, 0x00, 0x00,
  0x02, 0x00, 0x00, 0x00, 0xd4, 0xd2, 0xff, 0xff, 0x14, 0x00, 0x00, 0x00,
  0x0d, 0x00, 0x00, 0x00, 0x20, 0x00, 0x00, 0x00, 0xb8, 0x00, 0x00, 0x00,
  0xa0, 0x00, 0x00, 0x00, 0x04, 0x00, 0x00, 0x00, 0x01, 0x00, 0x00, 0x00,
  0x15, 0x00, 0x00, 0x00, 0x01, 0x00, 0x00, 0x00, 0x10, 0x00, 0x00, 0x00,
  0x83, 0x00, 0x00, 0x00, 0x73, 0x65, 0x71, 0x75, 0x65, 0x6e, 0x74, 0x69,
  0x61, 0x6c, 0x2f, 0x63, 0x6f, 0x6e, 0x76, 0x32, 0x64, 0x5f, 0x31, 0x2f,
  0x52, 0x65, 0x6c, 0x75, 0x3b, 0x73, 0x65, 0x71, 0x75, 0x65, 0x6e, 0x74,
  0x69, 0x61, 0x6c, 0x2f, 0x63, 0x6f, 0x6e, 0x76, 0x32, 0x64, 0x5f, 0x31,
  0x2f, 0x42, 0x69, 0x61, 0x73, 0x41, 0x64, 0x64, 0x3b, 0x73, 0x65, 0x71,
  0x75, 0x65, 0x6e, 0x74, 0x69, 0x61, 0x6c, 0x2f, 0x63, 0x6f, 0x6e, 0x76,
  0x32, 0x64, 0x5f, 0x31, 0x2f, 0x43, 0x6f, 0x6e, 0x76, 0x32, 0x44, 0x3b,
  0x73, 0x65, 0x71, 0x75, 0x65, 0x6e, 0x74, 0x69, 0x61, 0x6c, 0x2f, 0x63,
  0x6f, 0x6e, 0x76, 0x32, 0x64, 0x5f, 0x31, 0x2f, 0x42, 0x69, 0x61, 0x73,
  0x41, 0x64, 0x64, 0x2f, 0x52, 0x65, 0x61, 0x64, 0x56, 0x61, 0x72, 0x69,
  0x61, 0x62, 0x6c, 0x65, 0x4f, 0x70, 0x2f, 0x72, 0x65, 0x73, 0x6f, 0x75,
  0x72, 0x63, 0x65, 0x00, 0x04, 0x00, 0x00, 0x00, 0xff, 0xff, 0xff, 0xff,
  0x15, 0x00, 0x00, 0x00, 0x01, 0x00, 0x00, 0x00, 0x10, 0x00, 0x00, 0x00,
  0x40, 0xd4, 0xff, 0xff, 0x00, 0x00, 0x0e, 0x00, 0x1a, 0x00, 0x08, 0x00,
  0x0c, 0x00, 0x10, 0x00, 0x07, 0x00, 0x14, 0x00, 0x0e, 0x00, 0x00, 0x00,
  0x00, 0x00, 0x00, 0x05, 0x01, 0x00, 0x00, 0x00, 0x3c, 0x00, 0x00, 0x00,
  0x30, 0x00, 0x00, 0x00, 0x14, 0x00, 0x00, 0x00, 0x00, 0x00, 0x0e, 0x00,
  0x18, 0x00, 0x17, 0x00, 0x10, 0x00, 0x0c, 0x00, 0x08, 0x00, 0x04, 0x00,
  0x0e, 0x00, 0x00, 0x00, 0x03, 0x00, 0x00, 0x00, 0x03, 0x00, 0x00, 0x00,
  0x03, 0x00, 0x00, 0x00, 0x03, 0x00, 0x00, 0x00, 0x00, 0x00, 0x00, 0x01,
  0x01, 0x00, 0x00, 0x00, 0x0b, 0x00, 0x00, 0x00, 0x01, 0x00, 0x00, 0x00,
  0x0a, 0x00, 0x00, 0x00, 0x2c, 0xff, 0xff, 0xff, 0x11, 0x00, 0x00, 0x00,
  0x00, 0x00, 0x00, 0x11, 0x01, 0x00, 0x00, 0x00, 0x10, 0xd4, 0xff, 0xff,
  0x14, 0x00, 0x00, 0x00, 0x0c, 0x00, 0x00, 0x00, 0x20, 0x00, 0x00, 0x00,
  0x58, 0x00, 0x00, 0x00, 0x40, 0x00, 0x00, 0x00, 0x04, 0x00, 0x00, 0x00,
  0x01, 0x00, 0x00, 0x00, 0x15, 0x00, 0x00, 0x00, 0x01, 0x00, 0x00, 0x00,
  0x08, 0x00, 0x00, 0x00, 0x20, 0x00, 0x00, 0x00, 0x73, 0x65, 0x71, 0x75,
  0x65, 0x6e, 0x74, 0x69, 0x61, 0x6c, 0x2f, 0x6d, 0x61, 0x78, 0x5f, 0x70,
  0x6f, 0x6f, 0x6c, 0x69, 0x6e, 0x67, 0x32, 0x64, 0x2f, 0x4d, 0x61, 0x78,
  0x50, 0x6f, 0x6f, 0x6c, 0x00, 0x00, 0x00, 0x00, 0x04, 0x00, 0x00, 0x00,
  0xff, 0xff, 0xff, 0xff, 0x15, 0x00, 0x00, 0x00, 0x01, 0x00, 0x00, 0x00,
  0x08, 0x00, 0x00, 0x00, 0x1c, 0xd5, 0xff, 0xff, 0x00, 0x00, 0x0e, 0x00,
  0x14, 0x00, 0x00, 0x00, 0x08, 0x00, 0x0c, 0x00, 0x07, 0x00, 0x10, 0x00,
  0x0e, 0x00, 0x00, 0x00, 0x00, 0x00, 0x00, 0x01, 0x30, 0x00, 0x00, 0x00,
  0x24, 0x00, 0x00, 0x00, 0x10, 0x00, 0x00, 0x00, 0x0c, 0x00, 0x10, 0x00,
  0x00, 0x00, 0x04, 0x00, 0x08, 0x00, 0x0f, 0x00, 0x0c, 0x00, 0x00, 0x00,
  0x01, 0x00, 0x00, 0x00, 0x01, 0x00, 0x00, 0x00, 0x00, 0x00, 0x00, 0x01,
  0x01, 0x00, 0x00, 0x00, 0x0a, 0x00, 0x00, 0x00, 0x03, 0x00, 0x00, 0x00,
  0x00, 0x00, 0x00, 0x00, 0x08, 0x00, 0x00, 0x00, 0x01, 0x00, 0x00, 0x00,
  0x0c, 0x00, 0x10, 0x00, 0x0b, 0x00, 0x00, 0x00, 0x0c, 0x00, 0x04, 0x00,
  0x0c, 0x00, 0x00, 0x00, 0x03, 0x00, 0x00, 0x00, 0x00, 0x00, 0x00, 0x03,
  0x01, 0x00, 0x00, 0x00, 0xf0, 0xd4, 0xff, 0xff, 0x14, 0x00, 0x00, 0x00,
  0x0b, 0x00, 0x00, 0x00, 0x20, 0x00, 0x00, 0x00, 0xb0, 0x00, 0x00, 0x00,
  0x98, 0x00, 0x00, 0x00, 0x04, 0x00, 0x00, 0x00, 0x01, 0x00, 0x00, 0x00,
  0x40, 0x00, 0x00, 0x00, 0x03, 0x00, 0x00, 0x00, 0x08, 0x00, 0x00, 0x00,
  0x7b, 0x00, 0x00, 0x00, 0x73, 0x65, 0x71, 0x75, 0x65, 0x6e, 0x74, 0x69,
  0x61, 0x6c, 0x2f, 0x63, 0x6f, 0x6e, 0x76, 0x32, 0x64, 0x2f, 0x52, 0x65,
  0x6c, 0x75, 0x3b, 0x73, 0x65, 0x71, 0x75, 0x65, 0x6e, 0x74, 0x69, 0x61,
  0x6c, 0x2f, 0x63, 0x6f, 0x6e, 0x76, 0x32, 0x64, 0x2f, 0x42, 0x69, 0x61,
  0x73, 0x41, 0x64, 0x64, 0x3b, 0x73, 0x65, 0x71, 0x75, 0x65, 0x6e, 0x74,
  0x69, 0x61, 0x6c, 0x2f, 0x63, 0x6f, 0x6e, 0x76, 0x32, 0x64, 0x2f, 0x43,
  0x6f, 0x6e, 0x76, 0x32, 0x44, 0x3b, 0x73, 0x65, 0x71, 0x75, 0x65, 0x6e,
  0x74, 0x69, 0x61, 0x6c, 0x2f, 0x63, 0x6f, 0x6e, 0x76, 0x32, 0x64, 0x2f,
  0x42, 0x69, 0x61, 0x73, 0x41, 0x64, 0x64, 0x2f, 0x52, 0x65, 0x61, 0x64,
  0x56, 0x61, 0x72, 0x69, 0x61, 0x62, 0x6c, 0x65, 0x4f, 0x70, 0x2f, 0x72,
  0x65, 0x73, 0x6f, 0x75, 0x72, 0x63, 0x65, 0x00, 0x04, 0x00, 0x00, 0x00,
  0xff, 0xff, 0xff, 0xff, 0x40, 0x00, 0x00, 0x00, 0x03, 0x00, 0x00, 0x00,
  0x08, 0x00, 0x00, 0x00, 0x44, 0xd5, 0xff, 0xff, 0x4e, 0xd6, 0xff, 0xff,
  0x04, 0x00, 0x00, 0x00, 0x00, 0x08, 0x00, 0x00, 0xb3, 0xfa, 0x10, 0x3e,
  0x2b, 0xdd, 0x57, 0xbe, 0x4c, 0x0c, 0x01, 0x3e, 0x5e, 0x62, 0x52, 0x3e,
  0x31, 0x50, 0x18, 0xbe, 0x6c, 0x35, 0x68, 0xbe, 0x37, 0x6f, 0xf3, 0xbb,
  0x3c, 0x12, 0x0c, 0x3c, 0xfd, 0x47, 0xf3, 0xbc, 0x46, 0x1e, 0x94, 0x3e,
  0x49, 0xf2, 0xc6, 0xbc, 0x6c, 0x3e, 0x16, 0xbd, 0xe7, 0x92, 0x85, 0x3d,
  0x8b, 0x25, 0xa1, 0x3d, 0x6c, 0xbd, 0xcf, 0x3d, 0x23, 0x8c, 0x4c, 0x3e,
  0xda, 0x9c, 0xc0, 0x3d, 0xd0, 0xba, 0x6b, 0x3e, 0x62, 0xbb, 0x7d, 0xbe,
  0x66, 0x76, 0x17, 0x3e, 0x63, 0x03, 0x2c, 0xbe, 0x42, 0x98, 0xf5, 0x3d,
  0x23, 0xe0, 0x34, 0x3e, 0x77, 0x27, 0x1c, 0xbc, 0x82, 0x9a, 0x34, 0x3e,
  0x73, 0xfd, 0x17, 0x3d, 0x40, 0x13, 0x13, 0xbd, 0x2f, 0x2a, 0x01, 0x3e,
  0x6e, 0x52, 0x5d, 0x3e, 0x77, 0x24, 0x0e, 0xbe, 0x66, 0xfd, 0x98, 0xbd,
  0xe3, 0x70, 0x3f, 0xbe, 0xed, 0x1e, 0x21, 0x3e, 0x9c, 0x9d, 0x8c, 0xbe,
  0x8e, 0xf0, 0x47, 0x3e, 0x6a, 0xfe, 0x78, 0x3e, 0x88, 0xf4, 0x11, 0xbe,
  0x01, 0x5f, 0x53, 0xbe, 0xf1, 0xa4, 0xbc, 0xbd, 0xf5, 0x83, 0x9d, 0x3d,
  0x7b, 0x47, 0xf3, 0xbd, 0x27, 0x90, 0x10, 0xbe, 0xc1, 0xcc, 0x8c, 0x3d,
  0x1b, 0xf0, 0x53, 0xbc, 0x99, 0x06, 0x9d, 0x3a, 0x83, 0x43, 0x97, 0x3c,
  0xfc, 0x7c, 0x1d, 0xbe, 0xb9, 0x58, 0xb8, 0xbd, 0xcb, 0x18, 0x40, 0xbc,
  0x06, 0x48, 0x28, 0x3c, 0x4b, 0x8f, 0x1f, 0xbe, 0x95, 0xf8, 0xa4, 0x3c,
  0xe2, 0xfc, 0xb3, 0xbd, 0x4e, 0xcd, 0x6b, 0xbe, 0xd7, 0x5d, 0xdb, 0x3d,
  0x6f, 0x64, 0xad, 0x3d, 0x10, 0xb7, 0x82, 0x3d, 0x31, 0xad, 0x32, 0xbe,
  0x5c, 0x64, 0x0f, 0x3e, 0xf4, 0x7b, 0x5a, 0x3a, 0xea, 0xd3, 0xcf, 0xbd,
  0x6e, 0xcf, 0x15, 0x3e, 0x3e, 0x44, 0x39, 0xbe, 0x7c, 0xeb, 0x9c, 0xbd,
  0xa0, 0xd4, 0xaf, 0x3e, 0xfd, 0xd3, 0x9a, 0x3e, 0x82, 0x30, 0xc5, 0xbc,
  0xc7, 0xe4, 0xda, 0xbd, 0x03, 0x6a, 0x10, 0x3d, 0x5f, 0x35, 0xa0, 0xbe,
  0x02, 0x92, 0x4f, 0x3e, 0xbc, 0xdb, 0xa2, 0xbe, 0x39, 0xd7, 0x99, 0xbd,
  0xc5, 0x82, 0x81, 0xbd, 0x96, 0xe6, 0x7a, 0x3e, 0xd8, 0x34, 0x58, 0xbd,
  0x95, 0x00, 0x08, 0xbe, 0x84, 0xe5, 0x40, 0xbe, 0xa3, 0x5a, 0x49, 0xbe,
  0xd7, 0xbe, 0x18, 0x3e, 0xfa, 0xe4, 0x8a, 0x3e, 0x50, 0x21, 0x74, 0xbd,
  0x5f, 0xe5, 0x82, 0x3d, 0x8c, 0x8a, 0x01, 0x3e, 0x77, 0xfc, 0x80, 0xbb,
  0x2c, 0x0e, 0x92, 0xbe, 0xae, 0x3c, 0x7c, 0x3d, 0x72, 0xe5, 0x2d, 0xbc,
  0xab, 0x1e, 0xa9, 0x3d, 0x80, 0x27, 0x3c, 0xbe, 0xca, 0x28, 0x24, 0xbe,
  0x44, 0x98, 0x21, 0xbe, 0x8a, 0xab, 0x11, 0xbe, 0x04, 0xdf, 0x83, 0xbd,
  0xd9, 0x6d, 0x38, 0x3d, 0x63, 0xba, 0x21, 0xbe, 0x5d, 0x84, 0xae, 0x3e,
  0x85, 0xb5, 0x1b, 0x3e, 0x46, 0xf9, 0x0b, 0x3e, 0xb9, 0x00, 0xdf, 0xbe,
  0x5b, 0xc1, 0x11, 0x3e, 0xef, 0x23, 0x56, 0xbe, 0x6e, 0x7d, 0x22, 0x3d,
  0xcf, 0x4e, 0x88, 0xbd, 0x88, 0xbb, 0x27, 0x3e, 0xe6, 0xaf, 0xe9, 0x3d,
  0xa8, 0x24, 0x8b, 0xbe, 0x8f, 0xfd, 0xc3, 0xbe, 0xed, 0xa2, 0x39, 0x3e,
  0x9b, 0x08, 0x27, 0xbe, 0x68, 0xc7, 0x03, 0xbe, 0x30, 0x04, 0x20, 0xbe,
  0x06, 0x90, 0x98, 0x3e, 0x2d, 0x8f, 0x58, 0x3d, 0x72, 0x32, 0x42, 0x3e,
  0x0b, 0xde, 0x81, 0xbe, 0x21, 0x2d, 0x34, 0xbe, 0x91, 0x41, 0x6d, 0xbe,
  0x52, 0x3f, 0x25, 0xbe, 0xc6, 0x74, 0x2a, 0xbe, 0xad, 0x0b, 0x49, 0x3e,
  0xe2, 0x68, 0x3d, 0x3d, 0xac, 0x24, 0x30, 0x3d, 0x6a, 0xba, 0x79, 0xbe,
  0x5f, 0xae, 0x02, 0xbe, 0x7d, 0x4e, 0x98, 0xbd, 0x6e, 0x24, 0xbc, 0x3d,
  0x0d, 0xb5, 0xa2, 0xbd, 0xdd, 0x8a, 0xcb, 0xbd, 0xf6, 0x4d, 0x4f, 0xbe,
  0x29, 0xcd, 0x5e, 0x3e, 0x17, 0x1d, 0xb4, 0x3d, 0x99, 0xea, 0x01, 0xbc,
  0xf0, 0x62, 0x8f, 0x3e, 0x89, 0x48, 0xae, 0xbe, 0x7d, 0x57, 0x28, 0x3e,
  0xc9, 0xe4, 0x33, 0x3e, 0x58, 0x40, 0xae, 0x3d, 0xcd, 0xf5, 0xe8, 0x3d,
  0x94, 0x6e, 0x54, 0xbd, 0xfc, 0x01, 0x8e, 0xbe, 0xae, 0xaf, 0xc5, 0xbc,
  0xb8, 0xd8, 0x68, 0xbe, 0x72, 0x15, 0xd5, 0xbd, 0x3f, 0x54, 0x9c, 0xbc,
  0x7f, 0x45, 0x28, 0x3d, 0xff, 0xd5, 0x65, 0x3e, 0x4a, 0x25, 0x8a, 0x3e,
  0xab, 0x07, 0xab, 0x3d, 0x11, 0xea, 0x6d, 0x3e, 0xeb, 0x45, 0x52, 0xbd,
  0xaa, 0x3c, 0x4a, 0xbe, 0x23, 0xfd, 0x56, 0xbe, 0x53, 0xf1, 0x60, 0xbe,
  0x9e, 0xe9, 0x7c, 0xbd, 0x8b, 0x4e, 0xc0, 0xbd, 0x6e, 0x9f, 0x5e, 0x3d,
  0xa9, 0x31, 0x27, 0xbc, 0x1b, 0x53, 0x98, 0xbd, 0xec, 0x7f, 0x0f, 0x3e,
  0x35, 0x18, 0xac, 0xbe, 0x5c, 0x53, 0xaf, 0xbd, 0x25, 0xd2, 0xc2, 0xbe,
  0x3a, 0xb7, 0x12, 0xbe, 0x99, 0xf8, 0x81, 0x3e, 0x1d, 0xfa, 0x2b, 0x3e,
  0xa6, 0x9d, 0x1e, 0x3e, 0x96, 0xab, 0xa3, 0xbd, 0x86, 0x09, 0x9e, 0xbe,
  0x88, 0x45, 0xa5, 0xbd, 0x54, 0x4e, 0xd2, 0xbc, 0xef, 0x26, 0xd2, 0xbc,
  0x68, 0x08, 0x66, 0x3e, 0x5f, 0x23, 0xec, 0xbc, 0x5e, 0x8d, 0x39, 0x3e,
  0xdb, 0x8f, 0x99, 0xbe, 0xf0, 0xed, 0x65, 0xbe, 0x7d, 0x71, 0x61, 0xbe,
  0x94, 0xc0, 0xaa, 0x3d, 0xb6, 0x1b, 0x5e, 0xbe, 0xf9, 0x96, 0xa5, 0xbd,
  0x38, 0x25, 0x2c, 0x3e, 0x72, 0x3c, 0xbd, 0x3c, 0x38, 0x68, 0xb1, 0x3d,
  0x2e, 0x6c, 0xb7, 0xbe, 0x27, 0xd4, 0x49, 0xbe, 0x71, 0x6c, 0xb2, 0x3d,
  0xe2, 0xf2, 0x1f, 0x3e, 0x9b, 0x9a, 0x75, 0xbe, 0x28, 0x0f, 0x25, 0x3e,
  0x14, 0x49, 0x4a, 0x3e, 0xab, 0x2b, 0x40, 0xbe, 0x55, 0x6e, 0x34, 0x3d,
  0xc8, 0xd3, 0x29, 0xbd, 0x79, 0xbd, 0x02, 0xbd, 0x47, 0x91, 0x38, 0x3e,
  0x03, 0xfa, 0x69, 0xbe, 0x32, 0xa8, 0x34, 0x3e, 0x48, 0xf0, 0xe6, 0xbd,
  0xf9, 0x40, 0x95, 0xbd, 0x78, 0xb6, 0x3e, 0x3e, 0x9f, 0xc1, 0x93, 0xbd,
  0x26, 0x97, 0x4b, 0x3e, 0xfa, 0x0a, 0x71, 0x3c, 0x77, 0x58, 0xce, 0x3b,
  0x56, 0x3c, 0x4d, 0x3e, 0x96, 0xcf, 0x47, 0xbe, 0xf0, 0xd3, 0x14, 0xbd,
  0xd6, 0xe7, 0x53, 0xbe, 0x43, 0xae, 0xd7, 0x3d, 0xb0, 0xf3, 0x20, 0xbe,
  0x62, 0x0c, 0xa8, 0xbd, 0x3d, 0x26, 0x00, 0xbe, 0xad, 0x90, 0x90, 0xbe,
  0xfb, 0x0b, 0x3e, 0xbd, 0x43, 0x97, 0x30, 0x3d, 0x5c, 0x21, 0x7b, 0xbe,
  0xb6, 0xb4, 0x8a, 0xbe, 0x3e, 0xcb, 0x1a, 0xbe, 0xb4, 0x87, 0x3c, 0xbe,
  0x6d, 0xc0, 0x49, 0x3d, 0x1b, 0x6d, 0x98, 0xbe, 0xfd, 0x71, 0x81, 0xbe,
  0x20, 0x82, 0x0c, 0xbe, 0xd4, 0x5e, 0x6d, 0x3e, 0x19, 0x2d, 0x99, 0x3e,
  0x08, 0xd8, 0xfc, 0xbc, 0xc3, 0x38, 0x1a, 0x3e, 0xeb, 0x9a, 0xcc, 0xbd,
  0x21, 0x99, 0xfa, 0xbc, 0xc6, 0xac, 0x2c, 0xbd, 0x3e, 0x75, 0x15, 0xbe,
  0x41, 0x7e, 0x81, 0x3d, 0x12, 0x07, 0x36, 0x3e, 0x77, 0x05, 0x24, 0x3e,
  0x67, 0x26, 0x50, 0xbd, 0x10, 0x06, 0xbc, 0xbd, 0xb6, 0x7e, 0x62, 0xbd,
  0xe7, 0x7c, 0xb2, 0xbd, 0xc5, 0x7a, 0x28, 0x3d, 0x78, 0x42, 0x5b, 0xbc,
  0xe4, 0xfe, 0x14, 0xbe, 0x5e, 0x59, 0x99, 0xbc, 0x0d, 0xd8, 0xa0, 0xbe,
  0x5b, 0x52, 0x00, 0x3d, 0x81, 0x0f, 0x81, 0xbe, 0x71, 0xd5, 0x63, 0x3e,
  0x43, 0xc5, 0x85, 0x3c, 0x76, 0x81, 0x40, 0x3e, 0xa5, 0xa9, 0x6a, 0x3e,
  0x50, 0x49, 0x12, 0x3e, 0x20, 0x90, 0x8c, 0xbe, 0x55, 0xc7, 0x51, 0xbd,
  0x16, 0x28, 0x57, 0xbe, 0xe6, 0x34, 0x53, 0xbc, 0xcb, 0x03, 0xda, 0xbc,
  0x03, 0x72, 0xae, 0xbd, 0xb8, 0xb7, 0x68, 0xbe, 0xe9, 0x55, 0xb4, 0x3c,
  0xa7, 0xef, 0x12, 0x3b, 0xbb, 0x56, 0x0f, 0xbd, 0x5b, 0x3c, 0x21, 0x3d,
  0x6c, 0x36, 0x25, 0xbe, 0xd2, 0x18, 0x39, 0x3e, 0x40, 0xcf, 0x26, 0xbd,
  0x15, 0xe5, 0x5c, 0xbc, 0xed, 0x9b, 0xd4, 0xbd, 0x56, 0x36, 0xa7, 0xbe,
  0xa2, 0xee, 0x42, 0x3e, 0xa0, 0x93, 0xcc, 0x3d, 0xdf, 0xa8, 0x8c, 0x3e,
  0x66, 0xe6, 0x0d, 0xbe, 0xac, 0x74, 0x6c, 0x3e, 0xe6, 0x28, 0x82, 0x3e,
  0x84, 0xef, 0x35, 0xbe, 0xb8, 0x63, 0x1c, 0xbe, 0x03, 0x95, 0x88, 0xbe,
  0xfe, 0x85, 0x92, 0xbe, 0xde, 0x64, 0x09, 0x3c, 0x51, 0xf7, 0xc8, 0xbd,
  0x35, 0x6b, 0x8a, 0xbd, 0x77, 0x9e, 0x08, 0x3e, 0x98, 0x2d, 0x92, 0x3d,
  0x0c, 0x40, 0x06, 0xbe, 0xd4, 0xf1, 0xc3, 0x3c, 0x78, 0xed, 0xb6, 0xbe,
  0x18, 0x8a, 0xf0, 0xbd, 0x12, 0xce, 0x36, 0x3d, 0x8d, 0xe4, 0xe6, 0x3e,
  0x76, 0x55, 0xe1, 0x3d, 0x8f, 0x76, 0x6f, 0x3e, 0x61, 0x5e, 0xa7, 0xbe,
  0x7b, 0xb8, 0x38, 0x3e, 0x13, 0x19, 0xc4, 0xbe, 0xa4, 0x05, 0xdb, 0x3b,
  0x53, 0xf1, 0x9a, 0x3d, 0xb8, 0x4a, 0x72, 0xbc, 0xd0, 0xcd, 0xa2, 0x3e,
  0x9e, 0xb1, 0x0c, 0xbe, 0x55, 0x2e, 0xf2, 0xbd, 0xf5, 0x2b, 0xa7, 0x3c,
  0x2b, 0x33, 0xb3, 0xbe, 0x55, 0x14, 0x00, 0xbe, 0x60, 0x84, 0x9f, 0xbe,
  0xec, 0x09, 0x8e, 0x3d, 0xe4, 0xc0, 0xc7, 0xbd, 0xb5, 0xe9, 0x67, 0xbd,
  0x7c, 0xce, 0xf7, 0x3d, 0x78, 0xe8, 0xe6, 0xbc, 0x35, 0x4e, 0x6d, 0x3d,
  0x44, 0xc3, 0xed, 0xbd, 0x40, 0x02, 0xf7, 0xbc, 0x06, 0x8c, 0x8e, 0x3e,
  0x87, 0xf0, 0x85, 0xbd, 0xbd, 0x17, 0x7a, 0xbd, 0xf8, 0x3c, 0x0e, 0xbe,
  0x21, 0x92, 0x9c, 0xbd, 0xc3, 0x7c, 0x0b, 0x3d, 0x45, 0xc2, 0x48, 0xbd,
  0x7d, 0xa4, 0x4b, 0xbd, 0x8b, 0x52, 0x6f, 0x3e, 0x9b, 0xee, 0x23, 0xbd,
  0xd0, 0x42, 0xb6, 0xbd, 0x5d, 0x76, 0xd7, 0xbd, 0x71, 0xdd, 0x2f, 0xbe,
  0xb8, 0x6e, 0x4a, 0x3d, 0xfb, 0xb5, 0x24, 0xbd, 0xa2, 0xdc, 0x86, 0x3e,
  0xee, 0x53, 0x13, 0xbe, 0x2e, 0xfd, 0x6d, 0xbe, 0xa6, 0xbd, 0x85, 0x3e,
  0x83, 0xbb, 0xcb, 0xbd, 0x3c, 0x69, 0x35, 0xbe, 0xd4, 0x65, 0x8d, 0xbd,
  0x3b, 0x24, 0xd1, 0xbc, 0x2c, 0x8d, 0x75, 0x3c, 0xc6, 0x22, 0x87, 0x3e,
  0xe4, 0xbb, 0xe5, 0xbd, 0x10, 0x3d, 0x8d, 0x3e, 0xe3, 0xb9, 0x9d, 0x3e,
  0x0b, 0x62, 0xa1, 0xbe, 0x32, 0x09, 0xa0, 0x3e, 0x42, 0xa3, 0x9f, 0xbe,
  0xf0, 0x2e, 0x18, 0xbe, 0xc3, 0x16, 0x6e, 0x3e, 0x7b, 0xc2, 0x19, 0x3e,
  0x29, 0x84, 0xa3, 0xbd, 0x6e, 0x9f, 0x1a, 0x3e, 0xd3, 0x7a, 0xd3, 0xbe,
  0x43, 0x0e, 0x50, 0x3e, 0x22, 0x3c, 0x87, 0xbe, 0x80, 0xa5, 0x5f, 0x3e,
  0x77, 0x5b, 0xf5, 0xbc, 0xef, 0xec, 0x45, 0xba, 0x6c, 0x13, 0x6f, 0xbe,
  0xaa, 0xa6, 0x82, 0x3e, 0xf7, 0x3f, 0xec, 0x3d, 0x74, 0x92, 0x98, 0x3e,
  0x8e, 0xfd, 0x0f, 0xbd, 0x2b, 0x8c, 0x83, 0x3c, 0x53, 0x08, 0x5e, 0xbe,
  0x08, 0xe3, 0xe0, 0xbc, 0xff, 0x9d, 0xa7, 0x3d, 0x77, 0xb7, 0x95, 0x3c,
  0xa8, 0x24, 0x42, 0xbe, 0x96, 0x20, 0x84, 0xbd, 0x9d, 0x03, 0xbe, 0xbe,
  0xe5, 0xb7, 0x3a, 0xbd, 0x0f, 0xd5, 0xb6, 0x3d, 0x56, 0x55, 0xc3, 0xbd,
  0x81, 0xe0, 0xa5, 0xbe, 0xdc, 0xd2, 0x61, 0xba, 0x56, 0x78, 0xc1, 0xbc,
  0xee, 0xa0, 0x24, 0x3e, 0x50, 0xc5, 0xd7, 0xbd, 0xe4, 0xac, 0xc8, 0xbb,
  0x8b, 0x88, 0x8d, 0xbe, 0x40, 0x94, 0x9f, 0x3d, 0x8b, 0x1a, 0xaa, 0xbe,
  0xb4, 0x32, 0x8a, 0xbe, 0x80, 0x18, 0x44, 0x3e, 0x25, 0x9d, 0x86, 0x3e,
  0x22, 0x00, 0x57, 0x3e, 0x51, 0x86, 0x7b, 0xbd, 0x90, 0xf0, 0x94, 0x3d,
  0x7d, 0x2a, 0x09, 0xbd, 0x14, 0x35, 0x22, 0x3d, 0x71, 0xef, 0x06, 0x3e,
  0xdc, 0x05, 0x36, 0xbe, 0x97, 0x7d, 0x37, 0xbe, 0xab, 0x53, 0x85, 0x3d,
  0x36, 0xf5, 0x29, 0xbe, 0xd0, 0xcd, 0x9f, 0xbe, 0xa8, 0x83, 0x3e, 0xbc,
  0xd1, 0xa6, 0x80, 0xbe, 0xb0, 0xb8, 0xcd, 0x3d, 0x7e, 0x19, 0x23, 0xbd,
  0x7c, 0xc6, 0x44, 0xbe, 0xcd, 0x1c, 0xb2, 0xbe, 0xf2, 0x00, 0x3b, 0x3e,
  0xec, 0xa3, 0x6b, 0x3c, 0xd6, 0x59, 0x8a, 0x3d, 0x68, 0xfb, 0xf1, 0xbd,
  0xb8, 0xd3, 0x4e, 0xbe, 0x8a, 0x10, 0x18, 0x3d, 0xc7, 0xb1, 0xba, 0xba,
  0xca, 0xef, 0xa3, 0xbe, 0xe3, 0x63, 0xb3, 0x3d, 0x87, 0xda, 0x38, 0x3d,
  0xec, 0x7e, 0x93, 0x3d, 0xea, 0xff, 0xe3, 0x3c, 0x5e, 0x60, 0x17, 0x3e,
  0x63, 0xfc, 0xea, 0x3d, 0x46, 0x2a, 0x01, 0xbe, 0xd6, 0x92, 0x96, 0xbe,
  0xd7, 0xc3, 0x6f, 0x3c, 0x58, 0x57, 0xb9, 0xbd, 0xff, 0x8e, 0x3f, 0xbe,
  0xf2, 0x2a, 0x57, 0xbe, 0x61, 0x0c, 0x6e, 0xbe, 0xca, 0xa0, 0x49, 0x3d,
  0x79, 0x41, 0x14, 0xbe, 0xb3, 0x0b, 0x57, 0xbe, 0x5b, 0x95, 0x55, 0x3d,
  0xa0, 0x57, 0xa5, 0x3e, 0x9f, 0xa7, 0x8f, 0x3e, 0x42, 0x04, 0x09, 0x3e,
  0x8d, 0x89, 0x09, 0xbd, 0xc1, 0xd2, 0x0e, 0xbe, 0x16, 0x51, 0xb1, 0x3d,
  0x6b, 0x53, 0x3b, 0xbd, 0xc8, 0x24, 0x18, 0x3e, 0x29, 0x22, 0xbb, 0x3d,
  0x44, 0x66, 0x3e, 0x3e, 0xeb, 0x31, 0x96, 0xbe, 0xd7, 0x36, 0x12, 0xbe,
  0xe7, 0x56, 0xb3, 0xbd, 0x1b, 0x39, 0x99, 0x3c, 0xed, 0xce, 0x61, 0x3e,
  0x0f, 0xf8, 0x0e, 0xbe, 0x85, 0xd1, 0x5f, 0xbb, 0x46, 0x8d, 0xef, 0xbd,
  0x29, 0xa3, 0xa5, 0x3d, 0xff, 0xa2, 0x06, 0xbe, 0x39, 0x2e, 0x0a, 0xbe,
  0x8d, 0x8a, 0xa2, 0xbe, 0x6f, 0x1d, 0x0e, 0xbe, 0x24, 0x25, 0x73, 0xbe,
  0xa7, 0x84, 0x48, 0xbd, 0x6a, 0x43, 0x7b, 0xbe, 0x55, 0xfb, 0xb7, 0x3d,
  0x03, 0x13, 0x1a, 0x3e, 0xbb, 0xed, 0x2e, 0xbe, 0x72, 0xea, 0xe9, 0x3d,
  0xb7, 0x2d, 0x9a, 0xbe, 0x15, 0x4b, 0x4a, 0xbd, 0x3d, 0xbc, 0xb3, 0x3c,
  0x2d, 0x92, 0x6c, 0xbe, 0x2e, 0x36, 0xc8, 0x3d, 0xb4, 0x14, 0xc2, 0xbd,
  0x9f, 0x5d, 0xac, 0x3d, 0x8b, 0x9b, 0x47, 0xbe, 0x71, 0xf3, 0xa2, 0xba,
  0x0f, 0x18, 0x4d, 0xbe, 0x38, 0xba, 0x7f, 0xbd, 0xb6, 0xf8, 0x6e, 0xbe,
  0xda, 0xbc, 0x18, 0x3e, 0xdf, 0xe3, 0x54, 0x3e, 0x5a, 0x6c, 0xac, 0xbe,
  0xe1, 0x74, 0xd2, 0x3c, 0x62, 0x53, 0xe9, 0xbd, 0xff, 0x7c, 0x12, 0xbe,
  0xd5, 0x06, 0xe5, 0x3c, 0x01, 0x71, 0xbe, 0x3d, 0x28, 0xdd, 0x68, 0xbe,
  0x88, 0x1d, 0x28, 0x3e, 0x52, 0xc6, 0x06, 0x3c, 0x42, 0xc1, 0x86, 0xbe,
  0x84, 0x33, 0x18, 0x3d, 0x0a, 0xec, 0x86, 0x3d, 0x1a, 0x92, 0x9c, 0xbe,
  0x4a, 0xdf, 0x43, 0xbe, 0x34, 0x42, 0xd5, 0xbe, 0xca, 0x58, 0x6f, 0x3d,
  0x13, 0xa9, 0x62, 0x3e, 0xa9, 0x05, 0xdb, 0xbc, 0xc9, 0xb7, 0x57, 0x3e,
  0xdc, 0xff, 0x68, 0x3e, 0x13, 0x78, 0x5b, 0xbe, 0xcb, 0x79, 0x23, 0xbe,
  0xae, 0x95, 0x8f, 0xbe, 0x5a, 0xd9, 0x9c, 0xbe, 0x84, 0x87, 0x48, 0x3e,
  0xd3, 0xc8, 0x3e, 0x3e, 0xc0, 0x7e, 0x06, 0xbe, 0xd9, 0x9f, 0x93, 0xbe,
  0xcf, 0x9c, 0x41, 0xbe, 0x5e, 0x3c, 0xb0, 0xbd, 0x21, 0x0e, 0x51, 0xbe,
  0x9a, 0xa2, 0x9b, 0xbe, 0x2d, 0x7a, 0x4a, 0x3d, 0xa6, 0x9c, 0x04, 0x3e,
  0x27, 0xe8, 0xda, 0x3d, 0xe1, 0xa2, 0x67, 0xbe, 0x22, 0xe8, 0x43, 0xbe,
  0xfd, 0xd8, 0x38, 0xbe, 0xd7, 0x3e, 0xd5, 0xbe, 0x51, 0x6c, 0xa7, 0xbe,
  0x85, 0x73, 0x34, 0x3e, 0x3f, 0xb7, 0x78, 0x3e, 0x8e, 0xf6, 0x36, 0x3e,
  0xac, 0xed, 0x2f, 0x3d, 0x26, 0xde, 0xff, 0xff, 0x10, 0x00, 0x00, 0x00,
  0x0a, 0x00, 0x00, 0x00, 0x1c, 0x00, 0x00, 0x00, 0x38, 0x00, 0x00, 0x00,
  0x04, 0x00, 0x00, 0x00, 0x10, 0x00, 0x00, 0x00, 0x04, 0x00, 0x00, 0x00,
  0x01, 0x00, 0x00, 0x00, 0x08, 0x00, 0x00, 0x00, 0x1a, 0x00, 0x00, 0x00,
  0x73, 0x65, 0x71, 0x75, 0x65, 0x6e, 0x74, 0x69, 0x61, 0x6c, 0x2f, 0x63,
  0x6f, 0x6e, 0x76, 0x32, 0x64, 0x5f, 0x31, 0x2f, 0x43, 0x6f, 0x6e, 0x76,
  0x32, 0x44, 0x00, 0x00, 0x9c, 0xdd, 0xff, 0xff, 0xa6, 0xde, 0xff, 0xff,
  0x04, 0x00, 0x00, 0x00, 0x80, 0x01, 0x00, 0x00, 0x3c, 0x6b, 0x98, 0xbe,
  0x17, 0xf8, 0xad, 0xbd, 0x73, 0x42, 0xcf, 0xbe, 0x32, 0x22, 0xcf, 0xbd,
  0xf5, 0xd4, 0xe1, 0x3d, 0x8b, 0x03, 0x80, 0xbe, 0xbc, 0xf0, 0xe5, 0xbd,
  0x11, 0x94, 0x24, 0x3e, 0x97, 0x8b, 0x8a, 0xbc, 0x06, 0x89, 0x33, 0xbe,
  0xcb, 0xb7, 0x10, 0x3e, 0xd6, 0xf5, 0x94, 0xbd, 0x27, 0x0a, 0x31, 0xbe,
  0xa6, 0x20, 0x07, 0xbe, 0xa6, 0xc9, 0xf9, 0xbd, 0x85, 0x7a, 0x97, 0xbe,
  0xb2, 0x2a, 0x4b, 0x3e, 0xe3, 0x6d, 0xdb, 0xbd, 0x1d, 0x77, 0xbe, 0x3b,
  0xc7, 0x68, 0x1a, 0x3e, 0x83, 0x08, 0x82, 0xbc, 0x42, 0xf3, 0x82, 0x3b,
  0x90, 0x75, 0xf7, 0x3d, 0xa0, 0xf2, 0x36, 0xbe, 0xff, 0x30, 0x06, 0x3d,
  0xf6, 0xde, 0x35, 0xbe, 0xc1, 0x5c, 0xb3, 0xbe, 0x39, 0x4b, 0x07, 0xbc,
  0x61, 0x30, 0x55, 0xbe, 0xa7, 0x2b, 0x1b, 0x3d, 0xdd, 0xfc, 0xd8, 0xbb,
  0x6f, 0x52, 0xef, 0xbc, 0xb4, 0x76, 0x42, 0xbe, 0x72, 0xc2, 0x7d, 0x3e,
  0xe9, 0x5e, 0x31, 0xbe, 0x79, 0x89, 0x81, 0xbe, 0x93, 0x96, 0xce, 0xbd,
  0x4e, 0x09, 0xa4, 0xbe, 0x5a, 0xad, 0xbb, 0xbd, 0xfa, 0x8e, 0x1a, 0x3e,
  0x3a, 0x85, 0x77, 0xbd, 0xa8, 0x1f, 0x59, 0x3d, 0xde, 0x6a, 0x2f, 0x3d,
  0x60, 0xb9, 0x5a, 0xbe, 0x82, 0xee, 0xa2, 0xbd, 0x59, 0x8c, 0x36, 0x3e,
  0x7a, 0xd7, 0x5d, 0xbe, 0x06, 0xda, 0xe2, 0xbc, 0x5d, 0x2b, 0x79, 0x3d,
  0xe4, 0x3e, 0x55, 0x3e, 0x90, 0x52, 0x7a, 0x3d, 0x39, 0x05, 0x76, 0xbe,
  0x0e, 0x87, 0x2e, 0x3e, 0x80, 0xea, 0x5f, 0x3d, 0x0a, 0xd8, 0x8b, 0xbe,
  0xd3, 0xc6, 0x7f, 0x3d, 0x30, 0xfd, 0x35, 0x3e, 0xfb, 0xd0, 0x80, 0xbe,
  0x12, 0x68, 0x2f, 0xbe, 0x3e, 0x47, 0xae, 0x3d, 0x73, 0xb9, 0x5f, 0xbe,
  0xc4, 0x79, 0x7f, 0xbe, 0x6d, 0x2b, 0x09, 0xbe, 0xca, 0x38, 0x63, 0xbe,
  0x47, 0x87, 0x3c, 0xbe, 0x4e, 0x78, 0x81, 0x3e, 0xfd, 0x5e, 0xbb, 0x3d,
  0x19, 0xde, 0x1e, 0xbe, 0xaa, 0x00, 0x0d, 0xbd, 0x0b, 0xd8, 0x61, 0xbe,
  0xa0, 0xd3, 0x8c, 0xbe, 0xa7, 0x18, 0xdb, 0xbd, 0x64, 0x8b, 0xe6, 0xbd,
  0x22, 0xcd, 0xa3, 0xbd, 0x9e, 0x32, 0xe5, 0x3d, 0xa6, 0xe7, 0xa7, 0xbe,
  0xc2, 0xa2, 0x13, 0x3e, 0x27, 0xaa, 0x84, 0xbd, 0x0b, 0xe9, 0x4d, 0xbe,
  0x30, 0xa6, 0x13, 0x3e, 0x2a, 0xa0, 0x7c, 0x3e, 0xa9, 0xf4, 0x2e, 0xbe,
  0x13, 0xaa, 0xf1, 0x3d, 0xd6, 0xf3, 0x6b, 0x3d, 0x15, 0x28, 0x57, 0x3c,
  0x25, 0x8f, 0x8a, 0xbe, 0xbe, 0xbb, 0x6d, 0xbe, 0x78, 0xba, 0x25, 0xbe,
  0xf8, 0x67, 0xfa, 0xbd, 0x18, 0x80, 0x96, 0x3d, 0xf0, 0x3e, 0xbc, 0xbe,
  0xa7, 0x16, 0x24, 0x3e, 0x9a, 0x27, 0xcd, 0xbd, 0x74, 0x08, 0x40, 0xbe,
  0xaa, 0xe3, 0xf6, 0xbd, 0x35, 0xa6, 0xf8, 0x3d, 0xfe, 0xdf, 0xff, 0xff,
  0x10, 0x00, 0x00, 0x00, 0x09, 0x00, 0x00, 0x00, 0x1c, 0x00, 0x00, 0x00,
  0x38, 0x00, 0x00, 0x00, 0x04, 0x00, 0x00, 0x00, 0x08, 0x00, 0x00, 0x00,
  0x04, 0x00, 0x00, 0x00, 0x03, 0x00, 0x00, 0x00, 0x01, 0x00, 0x00, 0x00,
  0x18, 0x00, 0x00, 0x00, 0x73, 0x65, 0x71, 0x75, 0x65, 0x6e, 0x74, 0x69,
  0x61, 0x6c, 0x2f, 0x63, 0x6f, 0x6e, 0x76, 0x32, 0x64, 0x2f, 0x43, 0x6f,
  0x6e, 0x76, 0x32, 0x44, 0x00, 0x00, 0x00, 0x00, 0x74, 0xdf, 0xff, 0xff,
  0x7e, 0xe0, 0xff, 0xff, 0x04, 0x00, 0x00, 0x00, 0xc0, 0x00, 0x00, 0x00,
  0xeb, 0x7f, 0x2a, 0xbd, 0x64, 0xc6, 0x9e, 0x3e, 0x19, 0x46, 0x2c, 0x3c,
  0x1f, 0x0e, 0x9e, 0xbd, 0xfb, 0x90, 0xc0, 0x3e, 0x22, 0xf0, 0x91, 0x3e,
  0xdf, 0x63, 0x9e, 0x3d, 0x43, 0x61, 0x93, 0xbe, 0x1a, 0xf4, 0xd2, 0xbe,
  0x1c, 0x6f, 0xd9, 0x3e, 0x98, 0x4e, 0x9a, 0x3e, 0x76, 0x96, 0xaa, 0x3e,
  0xac, 0x3c, 0xe9, 0x3b, 0x69, 0xb9, 0xbd, 0x3d, 0x5e, 0x5a, 0xf3, 0x3e,
  0x65, 0xb9, 0xf2, 0x3d, 0x11, 0x3d, 0xb9, 0x3e, 0x51, 0x23, 0x85, 0x3c,
  0xc7, 0x57, 0xdd, 0x3e, 0x51, 0x84, 0x36, 0x3e, 0x62, 0x98, 0x87, 0xbe,
  0x88, 0xa3, 0x7b, 0x3c, 0xcc, 0x98, 0xc9, 0xbe, 0x7c, 0xdb, 0xf6, 0x3d,
  0x5f, 0xe1, 0x82, 0xbd, 0x2b, 0x26, 0xd7, 0xbe, 0xa9, 0x46, 0x97, 0x3e,
  0x0c, 0x45, 0x51, 0x3e, 0xcd, 0x71, 0x28, 0x3d, 0x62, 0x5f, 0xf5, 0xbe,
  0x17, 0xf0, 0xcb, 0xbe, 0x47, 0x7f, 0xfa, 0x3e, 0x91, 0xe0, 0x90, 0x3e,
  0xff, 0x5f, 0xf0, 0x3d, 0x22, 0x0f, 0xd8, 0xbd, 0xdb, 0x7d, 0xf1, 0xbd,
  0xf2, 0x9d, 0x91, 0x3e, 0x5b, 0xeb, 0xba, 0x3d, 0xdf, 0xe2, 0xa7, 0x3e,
  0x02, 0x98, 0xb2, 0xbe, 0x89, 0xb3, 0xd6, 0xbe, 0x73, 0xdb, 0xc0, 0x3e,
  0x9a, 0x27, 0xd7, 0x3e, 0xc1, 0x69, 0xd1, 0x3e, 0xf0, 0x36, 0x41, 0xbe,
  0x11, 0x27, 0x22, 0x3d, 0x21, 0xaf, 0x91, 0x3e, 0x39, 0x42, 0xb0, 0xbe,
  0x16, 0xe1, 0xff, 0xff, 0x10, 0x00, 0x00, 0x00, 0x08, 0x00, 0x00, 0x00,
  0x14, 0x00, 0x00, 0x00, 0x30, 0x00, 0x00, 0x00, 0x02, 0x00, 0x00, 0x00,
  0x03, 0x00, 0x00, 0x00, 0x10, 0x00, 0x00, 0x00, 0x19, 0x00, 0x00, 0x00,
  0x73, 0x65, 0x71, 0x75, 0x65, 0x6e, 0x74, 0x69, 0x61, 0x6c, 0x2f, 0x64,
  0x65, 0x6e, 0x73, 0x65, 0x5f, 0x31, 0x2f, 0x4d, 0x61, 0x74, 0x4d, 0x75,
  0x6c, 0x00, 0x00, 0x00, 0x84, 0xe0, 0xff, 0xff, 0x8e, 0xe1, 0xff, 0xff,
  0x04, 0x00, 0x00, 0x00, 0x00, 0x1c, 0x00, 0x00, 0x6a, 0x52, 0x01, 0xbe,
  0x44, 0x46, 0x5a, 0x3e, 0x16, 0x61, 0x80, 0xbd, 0xfb, 0x4f, 0x4d, 0xbe,
  0x12, 0xd5, 0x81, 0x3e, 0x26, 0x64, 0xfa, 0x3d, 0x24, 0x72, 0xf4, 0x3c,
  0xfa, 0xa4, 0x77, 0xbe, 0x0e, 0x28, 0xe9, 0xbd, 0xa3, 0x1d, 0xd3, 0xbd,
  0x5d, 0xb4, 0x17, 0x3e, 0x76, 0x0e, 0xa7, 0x3d, 0xf6, 0x9c, 0xc2, 0x3c,
  0xf5, 0xce, 0xe2, 0xbd, 0xb2, 0x73, 0x2a, 0xbe, 0x10, 0x70, 0x5c, 0xbb,
  0x56, 0xf3, 0x2f, 0xbe, 0x3c, 0xc0, 0x54, 0x3d, 0xee, 0x97, 0xfe, 0xbd,
  0xfa, 0x8b, 0x3a, 0xbd, 0x7a, 0x08, 0x0b, 0x3e, 0x29, 0xf3, 0x61, 0xbe,
  0x32, 0x60, 0xe9, 0x3d, 0x51, 0xd4, 0xd8, 0xbc, 0x87, 0xb3, 0x7c, 0xbd,
  0x5b, 0x60, 0x3e, 0x3d, 0xef, 0xd6, 0x82, 0xbd, 0x1e, 0xb4, 0x5c, 0x3e,
  0xa6, 0x3b, 0xc6, 0xbd, 0xa6, 0x2e, 0x18, 0x3e, 0x5f, 0x13, 0x0f, 0x3e,
  0xc2, 0x90, 0x95, 0xbe, 0xd1, 0x80, 0x79, 0xbe, 0x3f, 0x78, 0x20, 0x3e,
  0xe5, 0x3a, 0x0a, 0xbe, 0xfe, 0xfb, 0xbe, 0xbd, 0x59, 0xc3, 0x3c, 0x3e,
  0xf2, 0xbf, 0x82, 0xbe, 0x3a, 0xc3, 0xef, 0xbd, 0x5a, 0xf1, 0x17, 0xbe,
  0x81, 0xfd, 0xf0, 0x3d, 0xc6, 0x27, 0xf2, 0xbd, 0x3b, 0xf5, 0x3b, 0x3e,
  0x07, 0xba, 0xf5, 0x3d, 0xdc, 0xbb, 0x42, 0xbd, 0x90, 0x24, 0x44, 0xbe,
  0x4f, 0xb3, 0xe6, 0xbc, 0x42, 0x92, 0x04, 0xbd, 0xfc, 0xcb, 0x59, 0xbd,
  0x1f, 0xed, 0x18, 0x3e, 0x63, 0x65, 0x5d, 0xbe, 0xde, 0xbb, 0x03, 0x3e,
  0xc7, 0x60, 0x25, 0x3e, 0x52, 0x73, 0xe4, 0xbd, 0x68, 0xbf, 0x3f, 0xbe,
  0x5d, 0x40, 0x09, 0xbe, 0xba, 0x7c, 0x08, 0xbc, 0x1a, 0xb5, 0xf1, 0x3d,
  0x6c, 0xad, 0x11, 0x3d, 0x9b, 0xa3, 0x43, 0x3d, 0x73, 0x09, 0xbe, 0xbd,
  0xe7, 0x48, 0x8b, 0x3e, 0xc5, 0x14, 0x4f, 0x3c, 0xc8, 0x79, 0x8e, 0xbe,
  0x40, 0xf7, 0x05, 0xbe, 0x9c, 0x19, 0x07, 0x3d, 0x9a, 0x28, 0x84, 0xbd,
  0xfb, 0xcd, 0x58, 0xbd, 0x28, 0x6a, 0xf8, 0xbc, 0x2c, 0xbb, 0x81, 0xbd,
  0xc8, 0xf0, 0x6a, 0x3e, 0xdb, 0xf0, 0x47, 0x3d, 0x17, 0x67, 0x97, 0x3d,
  0xe8, 0xeb, 0xb5, 0xbd, 0x4d, 0x43, 0x0b, 0xbd, 0x44, 0x07, 0x43, 0x3e,
  0xb0, 0x70, 0x22, 0x3e, 0x45, 0x27, 0x03, 0xbe, 0xda, 0x5a, 0x20, 0x3e,
  0x78, 0xe8, 0x85, 0xbe, 0xfb, 0xf9, 0xc4, 0x3d, 0x2a, 0xc5, 0x0c, 0xbe,
  0x5a, 0x54, 0x6d, 0xbe, 0x8d, 0x95, 0xc3, 0x3d, 0xc3, 0x73, 0x3f, 0x3e,
  0xb8, 0xb7, 0x2e, 0xbe, 0x20, 0x35, 0x71, 0x3c, 0x35, 0x06, 0x40, 0x3e,
  0x2d, 0x90, 0x4a, 0xbe, 0xb5, 0x10, 0x70, 0x3d, 0x21, 0x0f, 0x2f, 0x3e,
  0x64, 0x36, 0xf5, 0x3d, 0x29, 0x25, 0x46, 0x3e, 0xeb, 0xdc, 0x0d, 0x3e,
  0x69, 0x28, 0xc5, 0xbd, 0x84, 0xa1, 0x4d, 0xbe, 0x2d, 0x19, 0xe4, 0x3d,
  0x82, 0x9e, 0x9c, 0xbd, 0xb9, 0xec, 0x64, 0xbe, 0xc9, 0xf2, 0x75, 0xbe,
  0xbc, 0x0d, 0x03, 0x3e, 0xa6, 0x65, 0xc6, 0x3d, 0xe6, 0xa1, 0x7a, 0x3e,
  0xd0, 0xbf, 0x69, 0x3c, 0xd0, 0xfb, 0x88, 0xbe, 0x79, 0xcd, 0x21, 0xbe,
  0xd9, 0xa3, 0x06, 0x3d, 0x34, 0x80, 0x24, 0x3e, 0xe6, 0x8a, 0x13, 0xbe,
  0xf0, 0x39, 0xcb, 0x3d, 0x62, 0x9a, 0x03, 0x3e, 0xc3, 0xec, 0x8b, 0xbe,
  0x9e, 0x93, 0xd9, 0xbd, 0x00, 0x6a, 0xc1, 0x3d, 0x8e, 0xc5, 0xbd, 0xbd,
  0xc7, 0x68, 0x36, 0xbe, 0xda, 0x8f, 0x4d, 0x3e, 0xc2, 0xbe, 0x8b, 0x3e,
  0xe5, 0xa5, 0x27, 0x3e, 0x6c, 0xac, 0x02, 0x3d, 0x49, 0x94, 0x08, 0xbd,
  0xcb, 0x7b, 0x19, 0xbd, 0x61, 0xe5, 0x63, 0xbe, 0x30, 0xfe, 0xca, 0x3d,
  0xad, 0x15, 0xae, 0xbd, 0xd6, 0x90, 0x9a, 0xbd, 0x98, 0x0d, 0xca, 0x3d,
  0xb8, 0x5f, 0x25, 0x3d, 0x48, 0x20, 0xa3, 0xbd, 0x49, 0x34, 0x36, 0xbd,
  0x97, 0xec, 0x3f, 0xbe, 0xf1, 0x7f, 0xba, 0xbe, 0x9e, 0xa5, 0x17, 0xbe,
  0x1d, 0xdd, 0x80, 0x3c, 0x18, 0x26, 0xf2, 0xbc, 0xcb, 0xa8, 0x27, 0xbe,
  0x56, 0x72, 0xc9, 0xbb, 0x02, 0x1d, 0x5c, 0xbe, 0x6b, 0xb0, 0x02, 0xbc,
  0xbb, 0x46, 0x43, 0xbe, 0x16, 0xc2, 0x08, 0x3e, 0x40, 0x89, 0xeb, 0x3d,
  0x47, 0xca, 0x14, 0xbe, 0xc5, 0xea, 0x92, 0x3e, 0x63, 0xfe, 0xbd, 0xbd,
  0xa4, 0x16, 0x72, 0xbe, 0x0b, 0xdc, 0x97, 0xbd, 0xf6, 0xa9, 0x3f, 0x3a,
  0x78, 0xce, 0xc2, 0x3b, 0xe3, 0x9e, 0xea, 0xbd, 0x30, 0x8c, 0x15, 0x3c,
  0xbe, 0x9a, 0xdd, 0xbd, 0x56, 0xd2, 0xb9, 0xbd, 0x99, 0xe5, 0x2e, 0xbe,
  0x32, 0x5d, 0xb4, 0xbd, 0x3d, 0x00, 0xbe, 0x3d, 0xee, 0x56, 0xfd, 0x3d,
  0x10, 0x41, 0xd8, 0xbd, 0x4a, 0x61, 0x5c, 0xbe, 0x23, 0x97, 0xc8, 0x3d,
  0x1e, 0x64, 0x14, 0x3e, 0x99, 0x9b, 0x16, 0x3d, 0x79, 0xf7, 0x09, 0x3e,
  0x51, 0xd5, 0x27, 0xbe, 0x72, 0x9c, 0x0c, 0x3d, 0x02, 0x09, 0x88, 0x3e,
  0x2f, 0x3d, 0x2f, 0x3e, 0x9b, 0xc5, 0x46, 0xbe, 0x6a, 0x5b, 0xa5, 0xbc,
  0x22, 0x5e, 0xf3, 0xbd, 0x27, 0xa6, 0x1d, 0x3d, 0x87, 0x52, 0x51, 0x3e,
  0x12, 0xac, 0x21, 0xbe, 0x5f, 0x0f, 0x59, 0x3e, 0x08, 0xba, 0x11, 0xbe,
  0x04, 0xfb, 0x85, 0x3e, 0x05, 0xea, 0x4c, 0xbd, 0x52, 0xdc, 0x9c, 0x3c,
  0xd3, 0x06, 0xed, 0x3d, 0x7f, 0x16, 0xba, 0xbd, 0xfd, 0xcf, 0x31, 0xbd,
  0xde, 0x65, 0x13, 0x3e, 0x0b, 0x3f, 0x05, 0x3d, 0x32, 0x39, 0x7a, 0x3d,
  0x54, 0x13, 0x93, 0xbd, 0x6c, 0xac, 0x5c, 0xbe, 0xcd, 0xfa, 0x1b, 0xbe,
  0x38, 0x88, 0xa5, 0xbc, 0xb9, 0xbe, 0x36, 0x3c, 0x6c, 0xb8, 0xa5, 0x3d,
  0x6d, 0x10, 0x17, 0xbe, 0x73, 0x6d, 0xf6, 0xbc, 0xa1, 0x5f, 0x4c, 0xbd,
  0xef, 0x3c, 0x73, 0xbe, 0x8f, 0x62, 0x08, 0x3e, 0x77, 0xa3, 0x0c, 0xbe,
  0x02, 0x66, 0xbf, 0x3d, 0x51, 0x37, 0x77, 0x3d, 0x80, 0xae, 0x87, 0x3a,
  0x5c, 0xaf, 0x53, 0xbe, 0xd6, 0x76, 0xea, 0x3d, 0xa2, 0xa0, 0x8f, 0xbc,
  0x48, 0x06, 0x06, 0xbe, 0xfd, 0xc6, 0x73, 0x3e, 0x43, 0xf1, 0x67, 0x3d,
  0x77, 0x11, 0x81, 0x3d, 0x7c, 0xf9, 0x12, 0xbc, 0x8b, 0x77, 0x85, 0x3e,
  0x3f, 0x1b, 0x3e, 0x3d, 0x32, 0xe1, 0x65, 0xbe, 0xcd, 0x66, 0x0b, 0xbd,
  0x41, 0x00, 0x0b, 0xbe, 0x12, 0xe7, 0xfc, 0x3d, 0x4c, 0xbd, 0x49, 0x3e,
  0x30, 0x90, 0xa1, 0x3b, 0xbb, 0xd7, 0x56, 0xbe, 0x20, 0xf4, 0x8e, 0xbd,
  0x92, 0x95, 0xf3, 0xbc, 0x28, 0x48, 0x33, 0x3c, 0x83, 0x51, 0xd2, 0x3d,
  0xd1, 0x31, 0x3b, 0xbe, 0xd7, 0x8f, 0x26, 0xbe, 0xae, 0xdf, 0x61, 0xbd,
  0x55, 0x10, 0x1c, 0x3e, 0xf9, 0x07, 0x28, 0xbe, 0xf0, 0x67, 0xcd, 0xbd,
  0xc3, 0x69, 0x16, 0xbe, 0x2a, 0xd9, 0x71, 0xbe, 0xfd, 0x9c, 0x2a, 0x3e,
  0xa3, 0xe0, 0x1b, 0xbe, 0xdb, 0x15, 0x5b, 0x3e, 0xf3, 0xd4, 0x70, 0xbe,
  0xf7, 0x07, 0x3e, 0xbe, 0xdf, 0x47, 0x0e, 0xbe, 0xd6, 0x59, 0x3b, 0x3c,
  0x99, 0xe6, 0x8e, 0x3d, 0x36, 0x55, 0x9d, 0x3b, 0x73, 0x24, 0xa2, 0xbd,
  0x16, 0x67, 0x80, 0x3d, 0xd5, 0xef, 0x9e, 0xbe, 0x34, 0xd5, 0x00, 0xbd,
  0x91, 0x48, 0x99, 0x3e, 0x38, 0xfe, 0xb4, 0xbd, 0x88, 0xe1, 0xfe, 0xbd,
  0xed, 0xbf, 0x18, 0x3e, 0xcd, 0x95, 0x0d, 0x3e, 0x40, 0x09, 0xf5, 0xbd,
  0xc5, 0x42, 0xab, 0xbd, 0x05, 0x4d, 0x81, 0xbd, 0xdc, 0xa6, 0xb1, 0x3d,
  0xe5, 0xcd, 0x1e, 0x3d, 0xf9, 0x61, 0xe9, 0xbc, 0x64, 0x21, 0x8c, 0x3c,
  0x00, 0xec, 0x09, 0xbe, 0x6c, 0x05, 0xd1, 0x3c, 0x6d, 0x2f, 0xad, 0xbc,
  0xf7, 0x5b, 0x80, 0x3d, 0x52, 0x07, 0x51, 0x3c, 0xcc, 0x1a, 0x95, 0xbd,
  0x52, 0x27, 0x83, 0xbd, 0x4a, 0x99, 0x75, 0x3d, 0x7e, 0xc9, 0x9d, 0x3d,
  0xff, 0xb6, 0x0d, 0x3e, 0xa4, 0x96, 0x5d, 0xbe, 0x16, 0x61, 0x68, 0xbe,
  0xcc, 0xb2, 0xda, 0xbd, 0x9d, 0x56, 0x19, 0x3e, 0x32, 0xcb, 0x82, 0x3c,
  0x3d, 0xb2, 0x24, 0x3e, 0xca, 0xde, 0xe6, 0x3d, 0x87, 0x7c, 0x37, 0x3e,
  0x50, 0xd0, 0x44, 0xbe, 0xf6, 0xa9, 0x9a, 0xbc, 0x7c, 0x37, 0xb9, 0xbd,
  0x34, 0x85, 0x31, 0xbe, 0xa0, 0xe0, 0x4c, 0xbc, 0x49, 0x91, 0x55, 0x3e,
  0x6b, 0xeb, 0x03, 0x3e, 0xa5, 0xab, 0x1b, 0xbd, 0x78, 0x9a, 0x76, 0x3c,
  0x61, 0x65, 0xf1, 0xbd, 0x85, 0xd0, 0x81, 0xbc, 0x46, 0x75, 0x29, 0x3e,
  0x5b, 0x0c, 0x48, 0x3c, 0x96, 0xe2, 0x67, 0x3e, 0xbf, 0xaa, 0xb2, 0x3d,
  0x99, 0xbb, 0x65, 0x3e, 0x4c, 0x75, 0x29, 0xbc, 0xe8, 0xbd, 0xa4, 0xbd,
  0x3c, 0x22, 0xf4, 0xbc, 0xdc, 0xc9, 0xa7, 0xbc, 0xbf, 0x5a, 0xa5, 0xbd,
  0x20, 0x5f, 0x97, 0x3e, 0x7d, 0xe5, 0x02, 0xbe, 0xb6, 0x72, 0x83, 0x3d,
  0x0f, 0x6b, 0x4d, 0xbe, 0xf2, 0x9d, 0x10, 0x3e, 0x34, 0x7a, 0x46, 0x3e,
  0x15, 0x03, 0x0a, 0x3d, 0xaa, 0xc0, 0x74, 0xbd, 0xd7, 0x60, 0xf2, 0x3d,
  0x2b, 0x0b, 0x8e, 0xbd, 0xdb, 0x8e, 0x3a, 0x3e, 0xda, 0x79, 0xa1, 0xbd,
  0xf6, 0x45, 0x8f, 0xbd, 0x13, 0xf9, 0x10, 0x3e, 0xed, 0xac, 0x66, 0x3d,
  0x4c, 0x1e, 0xfb, 0xbd, 0x1d, 0x90, 0x0a, 0x3e, 0x9e, 0x9c, 0x25, 0x3c,
  0x83, 0x1f, 0x4c, 0xbe, 0x23, 0xb3, 0xde, 0x3d, 0xc1, 0x83, 0x88, 0xbd,
  0x7b, 0x66, 0x17, 0x3e, 0x8b, 0x31, 0x83, 0x3e, 0x7f, 0x40, 0xcf, 0x3d,
  0x42, 0x1d, 0x51, 0x3e, 0x6e, 0xd4, 0x87, 0x3d, 0xa7, 0x5d, 0x88, 0x3c,
  0xb3, 0x9b, 0x33, 0x3d, 0x01, 0x73, 0x4a, 0x3d, 0x11, 0x58, 0x8e, 0xbd,
  0x95, 0xa6, 0x00, 0x3e, 0x72, 0xd9, 0xe9, 0x3c, 0xdf, 0x96, 0x79, 0x3e,
  0xb5, 0x10, 0x54, 0xbd, 0x69, 0xac, 0xcc, 0x3c, 0x80, 0x21, 0x2d, 0x3d,
  0x8d, 0x40, 0x4a, 0xbe, 0x5a, 0x98, 0x21, 0xbc, 0xcc, 0x92, 0xce, 0xbd,
  0x79, 0xd1, 0x12, 0xbe, 0x25, 0x8a, 0xdf, 0xbd, 0xe6, 0xda, 0x2d, 0x3e,
  0x52, 0x02, 0xd5, 0x3d, 0x98, 0x86, 0x56, 0xbe, 0x73, 0x17, 0x3f, 0xbe,
  0xac, 0x00, 0x61, 0xbc, 0xec, 0x96, 0x21, 0xbe, 0x8a, 0x62, 0xd1, 0xbd,
  0x59, 0x25, 0xfd, 0xbc, 0x2e, 0xa5, 0x11, 0xbe, 0xdc, 0x7d, 0xa5, 0x3d,
  0xab, 0x40, 0xe1, 0xbd, 0xac, 0xcb, 0x24, 0xbd, 0x63, 0xf2, 0x24, 0xbe,
  0xf9, 0xd9, 0x52, 0x3b, 0x7b, 0x3f, 0xf5, 0x3d, 0xfb, 0x56, 0x02, 0x3d,
  0x82, 0xe0, 0xda, 0xbc, 0x8e, 0x8a, 0x89, 0xbe, 0xca, 0x81, 0x07, 0xbe,
  0xfe, 0x2d, 0x5f, 0xbe, 0x57, 0xa1, 0xa5, 0x3d, 0x99, 0xcb, 0xab, 0xbe,
  0xb3, 0xa2, 0x35, 0xbe, 0xea, 0x70, 0x61, 0x3e, 0xa8, 0x42, 0x62, 0xbd,
  0x92, 0x53, 0xdb, 0x3d, 0xf4, 0xbd, 0x95, 0x3d, 0x7f, 0x44, 0x2e, 0xbd,
  0x7c, 0x65, 0x0f, 0xbe, 0x50, 0xd0, 0x40, 0x3d, 0xfb, 0xc0, 0x04, 0x3e,
  0x06, 0x64, 0xfa, 0x3d, 0x3a, 0x48, 0x44, 0xbe, 0x9d, 0xbc, 0x01, 0x3e,
  0xce, 0x17, 0x43, 0xbe, 0x43, 0x9a, 0xb0, 0x3d, 0x64, 0x4c, 0x83, 0x3e,
  0x8c, 0xc8, 0xa1, 0xbe, 0xd8, 0x84, 0x5a, 0xbe, 0x17, 0x9e, 0x8b, 0x3e,
  0x97, 0xfa, 0x12, 0xbe, 0x8b, 0x11, 0x5d, 0xbe, 0xf4, 0x5e, 0x75, 0x3c,
  0xaa, 0x25, 0x45, 0xbe, 0xcd, 0x32, 0x03, 0xbd, 0xae, 0xc0, 0x21, 0x3e,
  0xbe, 0x7d, 0x97, 0x3d, 0xe2, 0x81, 0x24, 0xbe, 0xf0, 0x01, 0x39, 0x3e,
  0x98, 0xac, 0x19, 0x3e, 0x47, 0x07, 0x02, 0xbe, 0xf5, 0x7a, 0x08, 0x3e,
  0xc9, 0x8b, 0x0b, 0xbc, 0xa9, 0x82, 0xd9, 0xbd, 0x23, 0x14, 0x2e, 0xbe,
  0x3c, 0xb0, 0x4c, 0xbc, 0x68, 0x1a, 0xe7, 0x3d, 0xfb, 0xc2, 0xd0, 0x3c,
  0x6a, 0x3b, 0x8a, 0xbd, 0x79, 0xd7, 0xae, 0x3d, 0x31, 0x07, 0x55, 0x3e,
  0x65, 0x5d, 0x05, 0x3e, 0x67, 0xce, 0x9b, 0xbd, 0x1d, 0x9e, 0x2a, 0xbe,
  0x6a, 0xf6, 0x28, 0x3e, 0xd3, 0xc7, 0xf5, 0x3d, 0x7f, 0x1d, 0x37, 0xbd,
  0x72, 0x9e, 0xd0, 0xbb, 0xb8, 0x1d, 0x0e, 0x3d, 0xa1, 0x79, 0x54, 0xbe,
  0x89, 0x93, 0xdc, 0xbd, 0x78, 0x86, 0x33, 0x3c, 0xd4, 0x7f, 0x07, 0xbe,
  0xd8, 0x86, 0x4f, 0xbe, 0xdb, 0x4f, 0xb3, 0xbd, 0xc9, 0x7b, 0x37, 0xbe,
  0x02, 0xbe, 0xed, 0xbc, 0x32, 0x2c, 0xa8, 0x3e, 0x7d, 0xfc, 0x40, 0xbe,
  0x8a, 0x41, 0x6e, 0x3e, 0x7e, 0x61, 0x0c, 0xbe, 0xb0, 0xfc, 0x01, 0x3e,
  0x13, 0xd7, 0x7b, 0xbd, 0xb2, 0x29, 0x64, 0xbe, 0x84, 0x3e, 0xee, 0x3a,
  0x40, 0xd5, 0x94, 0xbd, 0x73, 0x04, 0x73, 0xbe, 0xf1, 0x66, 0x3a, 0x3d,
  0x77, 0x4b, 0x4d, 0xbe, 0xda, 0x0d, 0x2b, 0x3e, 0x6b, 0xd2, 0x05, 0x3e,
  0x02, 0xed, 0x57, 0x3d, 0xf2, 0xe9, 0x50, 0x3d, 0xf1, 0xa5, 0x3e, 0x3e,
  0x5a, 0xb5, 0xdc, 0xbd, 0xb1, 0x76, 0x07, 0x3e, 0x55, 0x06, 0x28, 0x3d,
  0xc4, 0x6c, 0x36, 0x3e, 0x98, 0x8f, 0xa1, 0x3d, 0x0e, 0x5d, 0x17, 0x3e,
  0x2a, 0xd7, 0x36, 0x3e, 0x58, 0x5e, 0x6d, 0x3d, 0x21, 0x21, 0x58, 0xbe,
  0x21, 0xbd, 0x53, 0xbd, 0x7b, 0x9c, 0xda, 0x3d, 0xa2, 0xeb, 0x3b, 0x3e,
  0x64, 0x4e, 0x6e, 0x3e, 0xe1, 0xdb, 0xf6, 0xbb, 0x73, 0xb6, 0x24, 0x3e,
  0x9a, 0x6e, 0xb1, 0x3e, 0x4b, 0xe5, 0x51, 0x3e, 0x59, 0x97, 0x9e, 0x3d,
  0xa5, 0x7e, 0x89, 0xbd, 0x4d, 0x23, 0x28, 0xbe, 0x4c, 0x28, 0x55, 0xbe,
  0x39, 0x90, 0x9c, 0xbd, 0x4c, 0xf0, 0xb9, 0x3d, 0x41, 0x10, 0x8f, 0xbd,
  0xb0, 0x5d, 0x1f, 0xbe, 0x51, 0xc0, 0x48, 0xbe, 0x69, 0xd7, 0xeb, 0x3d,
  0x62, 0xe6, 0xd8, 0xbd, 0x3d, 0x1a, 0xfd, 0xbc, 0xff, 0x78, 0x82, 0x3d,
  0x06, 0x27, 0x4a, 0xbe, 0xf4, 0x12, 0x5e, 0xbd, 0x36, 0xb1, 0xe5, 0xbc,
  0x26, 0xbd, 0x97, 0x3d, 0xcf, 0x78, 0xea, 0x3b, 0x7d, 0x7f, 0x21, 0x3d,
  0x63, 0x7e, 0x34, 0x3e, 0xf1, 0xd1, 0xf0, 0x3c, 0xdc, 0xbb, 0xf8, 0x3d,
  0xbe, 0x7a, 0xe1, 0x3c, 0x2e, 0x76, 0xac, 0x3d, 0x3c, 0x52, 0x37, 0x3d,
  0x14, 0x80, 0xdb, 0xbd, 0x73, 0x52, 0x55, 0x3e, 0x0e, 0x88, 0x8e, 0x3b,
  0x25, 0x0f, 0x9c, 0xbd, 0x1b, 0x96, 0x84, 0xbc, 0xdb, 0x3f, 0x0f, 0xbe,
  0x53, 0xd0, 0x8f, 0x3d, 0xc5, 0x35, 0x26, 0x3d, 0xa6, 0x99, 0x0d, 0xbd,
  0x1b, 0x7b, 0x63, 0xbd, 0x02, 0xb6, 0x35, 0xbe, 0xd5, 0x2f, 0x55, 0xbe,
  0xf2, 0xd0, 0xe8, 0xbd, 0xca, 0x5b, 0xe4, 0xbc, 0xca, 0x46, 0xfa, 0x3c,
  0xde, 0x1b, 0x8b, 0x3d, 0x9c, 0x48, 0xef, 0xbb, 0x44, 0x6f, 0x4e, 0xbe,
  0x12, 0x09, 0x43, 0xbd, 0xc8, 0xa0, 0xd9, 0xbc, 0xd3, 0x76, 0x54, 0x3d,
  0x92, 0x48, 0x3a, 0xbc, 0x30, 0xe6, 0x37, 0x3d, 0x31, 0x97, 0x16, 0xbe,
  0x70, 0x71, 0x82, 0x3d, 0x06, 0x87, 0x56, 0xbe, 0xce, 0xfe, 0x75, 0x3e,
  0x0d, 0xbc, 0x6f, 0xbe, 0xa6, 0x1a, 0xc9, 0xbd, 0x34, 0x16, 0xbd, 0x3c,
  0xb6, 0xfb, 0x7d, 0xbe, 0xec, 0x31, 0x4a, 0xbd, 0xeb, 0xe1, 0x21, 0x3e,
  0x95, 0x74, 0xff, 0xbd, 0xe3, 0xf9, 0xa2, 0x3d, 0x1d, 0x56, 0x38, 0xbe,
  0xbb, 0x64, 0x32, 0xbe, 0x2e, 0x02, 0x00, 0xbc, 0x54, 0xaa, 0x15, 0xbe,
  0x6e, 0x27, 0x66, 0xbe, 0x7c, 0x94, 0xce, 0x3d, 0x5b, 0x04, 0x7e, 0xbd,
  0xe9, 0x30, 0x57, 0xbe, 0xa5, 0x34, 0x83, 0xbd, 0x56, 0x4b, 0x8b, 0xbd,
  0xa9, 0x46, 0x43, 0xbe, 0x01, 0x6d, 0x12, 0xbe, 0xfd, 0x97, 0xac, 0x3d,
  0x3b, 0x08, 0x1f, 0xbd, 0xb8, 0xcd, 0xaa, 0xbc, 0xb9, 0x76, 0xb0, 0x3b,
  0x3a, 0x80, 0x16, 0x3e, 0x22, 0xd2, 0x19, 0x3d, 0x13, 0xd2, 0x47, 0xbe,
  0xdd, 0xda, 0xa4, 0xbd, 0xa9, 0xb7, 0x9e, 0x3d, 0x4e, 0xfe, 0x5c, 0xbe,
  0xca, 0x39, 0xc8, 0xbc, 0xd9, 0xde, 0x2c, 0xbe, 0x94, 0xf5, 0x54, 0x3c,
  0x9b, 0x51, 0xc1, 0xbd, 0x98, 0xe7, 0xcc, 0xbd, 0xe5, 0x82, 0xe2, 0x3d,
  0x25, 0x7e, 0x06, 0x3e, 0x8b, 0x79, 0x31, 0xbd, 0x98, 0x9f, 0xe3, 0xbc,
  0x71, 0xa3, 0xd4, 0xbc, 0x33, 0xf3, 0xb3, 0xbd, 0x27, 0xb6, 0x46, 0xbe,
  0xb8, 0xfb, 0xf9, 0xbd, 0x5f, 0xbe, 0x18, 0x3e, 0xaa, 0x2b, 0xe6, 0xbd,
  0xd8, 0x48, 0x3b, 0xbe, 0x18, 0xdb, 0x44, 0x3e, 0xb2, 0x94, 0x54, 0x3e,
  0xd1, 0x2b, 0x06, 0xbe, 0x73, 0xce, 0xa0, 0x3d, 0x0c, 0x70, 0xe2, 0xbd,
  0xab, 0x9e, 0x61, 0x3d, 0x7d, 0x79, 0x3c, 0x3d, 0xe3, 0xc0, 0x43, 0xbe,
  0x3b, 0xfe, 0x07, 0x3d, 0xce, 0x77, 0x59, 0xbd, 0x3b, 0xec, 0x45, 0xbd,
  0xdf, 0xa0, 0x50, 0x3d, 0xed, 0xb8, 0x41, 0x3a, 0x87, 0x67, 0x48, 0xbe,
  0x4f, 0x2a, 0x1c, 0xbc, 0xde, 0x68, 0xba, 0x3d, 0x6f, 0xae, 0x84, 0xbe,
  0xd7, 0xba, 0x56, 0xbd, 0x7e, 0x9b, 0xb4, 0xbc, 0x9b, 0x0b, 0x7d, 0xbe,
  0xde, 0x3b, 0x5a, 0xbe, 0x31, 0xfd, 0x50, 0xbe, 0x99, 0xa5, 0x5a, 0x3e,
  0x6f, 0x3f, 0x56, 0x3e, 0x82, 0x79, 0x85, 0x3d, 0x6a, 0x09, 0x3f, 0xbe,
  0x21, 0xe1, 0x59, 0xbe, 0xfc, 0x9e, 0xc1, 0x3d, 0xc0, 0x15, 0x9b, 0xbd,
  0x9d, 0x7b, 0x10, 0xbd, 0x5b, 0x75, 0x08, 0xbe, 0xbd, 0xe1, 0xc2, 0x3c,
  0x38, 0xb7, 0xc3, 0x3d, 0xa2, 0xa9, 0xe7, 0x3d, 0x84, 0xf1, 0x53, 0xbe,
  0xf1, 0xd2, 0x48, 0xbe, 0x68, 0xb3, 0x87, 0xbd, 0x74, 0x33, 0xee, 0xbd,
  0x49, 0x42, 0x1e, 0x3d, 0x50, 0x72, 0xe3, 0xbc, 0x2a, 0x37, 0xea, 0x3d,
  0x08, 0x7c, 0x54, 0xbe, 0xb7, 0xa5, 0x0a, 0xbe, 0xc2, 0xa0, 0xcf, 0xbe,
  0x18, 0xad, 0x06, 0xbe, 0xb7, 0x12, 0x04, 0x3e, 0xd1, 0xb0, 0x81, 0xbd,
  0x44, 0xd0, 0xbe, 0x3d, 0x05, 0x7b, 0x68, 0xbb, 0xc8, 0xa3, 0x9d, 0x3d,
  0xf5, 0x89, 0x06, 0xbe, 0x2b, 0xa4, 0xa8, 0xbd, 0x24, 0xed, 0xb7, 0x3c,
  0xdc, 0x47, 0xa7, 0xbe, 0x7c, 0x2c, 0x5e, 0xbe, 0x7a, 0xd0, 0xfe, 0x3d,
  0xb6, 0xbf, 0xb7, 0x3d, 0x21, 0x2f, 0x60, 0x3c, 0x2b, 0xf9, 0x2f, 0x3e,
  0x24, 0x1a, 0x46, 0xbe, 0xa3, 0xc2, 0x46, 0xbe, 0xc3, 0xde, 0x16, 0x3e,
  0xd5, 0x14, 0xf8, 0xbb, 0xb7, 0x50, 0xa5, 0x3d, 0x7c, 0x8f, 0xc8, 0x3d,
  0x62, 0x79, 0x56, 0x3e, 0x49, 0xcb, 0x05, 0xbe, 0xd6, 0x4b, 0x41, 0xbe,
  0x4d, 0x52, 0x89, 0xbd, 0xa8, 0xe1, 0x35, 0xbe, 0x96, 0x14, 0x0e, 0x3c,
  0x9f, 0xd8, 0x0a, 0xbe, 0xa8, 0x00, 0xe8, 0x3c, 0x49, 0xee, 0x28, 0xbe,
  0xf2, 0xd3, 0x8c, 0xbc, 0x7b, 0x10, 0xe8, 0x3b, 0x8c, 0x1b, 0x50, 0xbe,
  0x34, 0x89, 0x48, 0x3d, 0x5a, 0x01, 0x43, 0xbe, 0x31, 0x31, 0x80, 0xbd,
  0x49, 0x1b, 0x2f, 0xbe, 0xab, 0x4d, 0x11, 0x3e, 0x36, 0x0f, 0x03, 0xbd,
  0xe4, 0xd9, 0x02, 0xbe, 0x90, 0xe0, 0xb4, 0xbd, 0x76, 0x1a, 0xfd, 0xbd,
  0x86, 0x6c, 0x55, 0x3e, 0x8e, 0xe7, 0xa8, 0x3d, 0x46, 0xcd, 0xa6, 0x3d,
  0x86, 0x1b, 0x55, 0xbe, 0x98, 0x4d, 0x11, 0xbd, 0xaf, 0x84, 0x5c, 0xbe,
  0xaf, 0xab, 0x00, 0xbe, 0x44, 0x07, 0x23, 0x3e, 0x6b, 0xd9, 0x07, 0x3e,
  0x5b, 0x99, 0xd2, 0x3d, 0xe1, 0x46, 0x30, 0xbe, 0x89, 0x8b, 0xb8, 0x3c,
  0xec, 0x50, 0x84, 0xbd, 0xe6, 0x3d, 0xd8, 0x3d, 0xe5, 0x39, 0x0a, 0x3e,
  0xe2, 0x7f, 0x37, 0xbe, 0x24, 0xc7, 0x11, 0xbe, 0x0d, 0x8f, 0x46, 0x3e,
  0x74, 0x72, 0x54, 0x3d, 0x3f, 0x0d, 0x32, 0xbe, 0x06, 0x21, 0x85, 0x3d,
  0x8a, 0xef, 0x24, 0xbe, 0xba, 0x6d, 0x04, 0x3e, 0x19, 0x1a, 0x14, 0x3e,
  0x05, 0x40, 0x13, 0x3e, 0x52, 0xc4, 0x54, 0xbe, 0xdf, 0x01, 0xba, 0xbd,
  0x8b, 0xe9, 0x66, 0x3d, 0x30, 0x17, 0x4b, 0x3e, 0x53, 0x42, 0x30, 0xbe,
  0xa4, 0xe7, 0xb3, 0xbd, 0x78, 0x73, 0xc6, 0x3d, 0xe2, 0x4e, 0x77, 0x3d,
  0x77, 0x6b, 0x18, 0x3e, 0xd0, 0x39, 0x6e, 0x3d, 0x4b, 0x9b, 0xc9, 0x3d,
  0xa1, 0x55, 0x1b, 0x3e, 0x04, 0x83, 0xe5, 0xbd, 0x49, 0xc6, 0x3c, 0xbd,
  0x99, 0x3a, 0x4f, 0x3d, 0xf3, 0x1e, 0xb7, 0xbd, 0x57, 0xc4, 0xce, 0xbd,
  0x34, 0x8a, 0x36, 0xbc, 0xf4, 0x7d, 0x60, 0x3e, 0x02, 0x3d, 0x45, 0xbd,
  0x8a, 0xde, 0xc8, 0x3c, 0x0d, 0x4a, 0x36, 0x3e, 0x79, 0x24, 0xff, 0x3d,
  0xa2, 0x50, 0x04, 0x3e, 0x0d, 0x64, 0x60, 0xbe, 0x40, 0xb7, 0x03, 0xbe,
  0x76, 0x42, 0xf6, 0x3d, 0xe3, 0x4a, 0x0a, 0x3e, 0x94, 0x5e, 0x76, 0xbd,
  0xa7, 0xf3, 0x43, 0xbe, 0x58, 0xf9, 0x51, 0xbe, 0xa0, 0x07, 0xec, 0x3d,
  0xc5, 0x4d, 0x9b, 0x3e, 0xea, 0x2b, 0x4c, 0xbe, 0xd2, 0x86, 0x92, 0xbe,
  0x07, 0xe6, 0xaf, 0xbd, 0x24, 0xd4, 0x92, 0xbe, 0xfa, 0x5a, 0x4c, 0x3e,
  0xfa, 0x0f, 0xf8, 0x3d, 0x9a, 0x20, 0x8a, 0x3d, 0xeb, 0x98, 0x2b, 0xbe,
  0x40, 0x7e, 0xd7, 0xbc, 0x0e, 0x5d, 0x23, 0x3e, 0x50, 0x81, 0x43, 0x3c,
  0xb2, 0x24, 0x7f, 0x3e, 0x71, 0x1c, 0x5f, 0xbe, 0x90, 0xd0, 0xac, 0xbe,
  0xcf, 0xcc, 0x16, 0xbe, 0xc0, 0x1e, 0x1e, 0x3e, 0xfc, 0x44, 0xb9, 0x3d,
  0xb5, 0x57, 0xa3, 0xbe, 0xd6, 0x9f, 0x85, 0x3b, 0x0e, 0x71, 0x93, 0xbe,
  0xe4, 0x4a, 0x3c, 0xbb, 0xcd, 0xa8, 0x86, 0x3e, 0x99, 0x80, 0x22, 0xbd,
  0x70, 0x7c, 0x1f, 0xbe, 0x7e, 0xac, 0xb8, 0x3d, 0xee, 0xc6, 0x08, 0x3e,
  0x08, 0xed, 0x64, 0x3c, 0x91, 0xc8, 0xcd, 0x3d, 0xdc, 0xca, 0x40, 0x3d,
  0x15, 0xd4, 0x2d, 0xbe, 0xe2, 0xe2, 0x10, 0x3e, 0xfa, 0xee, 0xfd, 0x3d,
  0xc0, 0xf2, 0x4d, 0xbd, 0xda, 0x1c, 0x11, 0xbe, 0x1d, 0xc4, 0x14, 0x3c,
  0x52, 0xda, 0xc2, 0x3d, 0x29, 0x88, 0x00, 0xbd, 0x20, 0xd8, 0x10, 0x3e,
  0xfe, 0xbe, 0x90, 0xbd, 0xdc, 0x42, 0x1e, 0x3c, 0xf6, 0x88, 0xef, 0x3d,
  0x0b, 0xe0, 0x2b, 0xbc, 0x19, 0xa2, 0x9b, 0x3d, 0x5f, 0xff, 0x22, 0xbd,
  0x2b, 0xed, 0xe9, 0xbc, 0x45, 0x88, 0x11, 0xbe, 0x6c, 0xcf, 0x39, 0x3e,
  0x37, 0xd3, 0x94, 0x3e, 0x82, 0x17, 0x2c, 0x3d, 0xa2, 0xe1, 0x30, 0xbe,
  0xbd, 0xea, 0xb8, 0x3d, 0x6d, 0xf7, 0x1e, 0xbe, 0x1b, 0x22, 0x82, 0xbd,
  0xbd, 0x99, 0xff, 0x3d, 0x50, 0x6f, 0x4f, 0x3d, 0x41, 0x1c, 0xd0, 0x3b,
  0xbc, 0x0c, 0x5a, 0xbe, 0x13, 0x28, 0x15, 0x3d, 0xe3, 0x41, 0x2c, 0xbd,
  0x63, 0x54, 0xe0, 0x3c, 0x06, 0x3a, 0xb5, 0xbd, 0xd6, 0x66, 0x46, 0xbe,
  0x7f, 0x98, 0xaf, 0x3d, 0x74, 0x1f, 0xd7, 0xbc, 0xd6, 0x8c, 0xc8, 0xbd,
  0xbb, 0x06, 0xb7, 0xbd, 0x72, 0x25, 0x7a, 0xbe, 0xd1, 0x6c, 0x0a, 0xbe,
  0xda, 0x73, 0x3d, 0x3d, 0x6d, 0xf9, 0x2e, 0x3d, 0x4c, 0x01, 0x4e, 0xbc,
  0x8f, 0x59, 0x3d, 0xbe, 0x59, 0xe8, 0x2d, 0x3e, 0xeb, 0x8f, 0x74, 0x3e,
  0x70, 0x37, 0xc7, 0x3d, 0x51, 0x80, 0x28, 0x3c, 0x7b, 0x7e, 0x91, 0xbd,
  0xdb, 0x6d, 0x4a, 0xbe, 0xbe, 0x86, 0x8a, 0x3c, 0x1c, 0x53, 0x19, 0xbe,
  0x29, 0x01, 0x23, 0xbe, 0x38, 0x70, 0x36, 0xbe, 0xe5, 0x5b, 0xcd, 0x3b,
  0x96, 0x76, 0x88, 0x3d, 0xee, 0x5e, 0x29, 0xbe, 0x6c, 0x19, 0x8f, 0xbd,
  0x1c, 0xa9, 0x4b, 0xbe, 0x86, 0x2a, 0xf0, 0x3c, 0xa6, 0x0c, 0xb6, 0xbe,
  0x54, 0xff, 0x21, 0xbe, 0xe4, 0x76, 0x23, 0xbe, 0x6e, 0xa2, 0xbe, 0x3d,
  0xf0, 0x6d, 0x10, 0xbd, 0x29, 0x5b, 0x57, 0xbe, 0xc8, 0x60, 0x28, 0xbe,
  0xad, 0x2e, 0x7b, 0x3d, 0x31, 0x80, 0xcc, 0xbb, 0x9b, 0xb9, 0x51, 0xbe,
  0xd2, 0xb2, 0xce, 0xbd, 0x41, 0x55, 0xf0, 0x3d, 0x08, 0x92, 0x99, 0x3b,
  0xe4, 0xea, 0x9b, 0xbc, 0x1a, 0x2b, 0x50, 0xbd, 0x81, 0x5e, 0x8a, 0xbd,
  0xb3, 0xdd, 0x33, 0xbd, 0x09, 0x20, 0x4c, 0x3d, 0x83, 0x86, 0xde, 0xbd,
  0x0c, 0x4b, 0x51, 0x3e, 0xda, 0x9c, 0x65, 0xbd, 0x27, 0xea, 0xf9, 0xbd,
  0xb4, 0x75, 0x7d, 0x3c, 0xcc, 0x1b, 0x50, 0x3d, 0x96, 0x52, 0x4c, 0xbe,
  0x4a, 0xc8, 0x41, 0x3e, 0xcc, 0x28, 0x97, 0xbd, 0xca, 0x31, 0x4c, 0xbe,
  0x4b, 0xe7, 0xbf, 0xbd, 0x35, 0x28, 0x3b, 0xbe, 0x30, 0x13, 0xdf, 0xbd,
  0x64, 0x0b, 0x46, 0xbe, 0x3f, 0x78, 0x24, 0x3e, 0x8a, 0x21, 0x4e, 0xbe,
  0x67, 0xd0, 0x8d, 0x3c, 0x35, 0x7f, 0xec, 0x3c, 0x22, 0xb3, 0x4f, 0xbe,
  0x0b, 0x08, 0x33, 0xbe, 0x58, 0x72, 0x18, 0x3e, 0xd8, 0x4a, 0x99, 0xbc,
  0x37, 0x1d, 0x53, 0xbe, 0x3e, 0x18, 0x2d, 0x3e, 0x96, 0x26, 0x6b, 0xbd,
  0xfd, 0x55, 0x2e, 0xbe, 0xd4, 0x0d, 0x47, 0xbe, 0x72, 0xce, 0x24, 0xbe,
  0xb2, 0x2f, 0x00, 0x3e, 0xa8, 0x33, 0x31, 0xbe, 0xe2, 0xf5, 0x47, 0xbe,
  0xdd, 0x31, 0xfa, 0xbd, 0xc5, 0xce, 0xb3, 0xbd, 0x7e, 0x3f, 0x72, 0xbe,
  0x16, 0x14, 0x57, 0xbd, 0x95, 0x50, 0x96, 0x3b, 0x89, 0xe7, 0x2e, 0xbe,
  0xc9, 0x44, 0x9c, 0xbd, 0x94, 0x9c, 0xc9, 0x3b, 0x60, 0x57, 0xc6, 0xbc,
  0xa3, 0xa9, 0xde, 0xbd, 0x77, 0x37, 0x77, 0xbd, 0x91, 0x3a, 0x04, 0x3c,
  0x2a, 0xb3, 0x2f, 0xbe, 0x62, 0x36, 0xd0, 0xbc, 0x0a, 0x7c, 0x46, 0x3d,
  0x80, 0xdc, 0xe3, 0x3b, 0x6a, 0x62, 0x17, 0x3e, 0x87, 0xe0, 0xeb, 0xbd,
  0x19, 0x77, 0x30, 0x3e, 0xc0, 0x7a, 0x02, 0xbe, 0x2d, 0xf2, 0x42, 0xbd,
  0x99, 0x12, 0x26, 0x3c, 0xec, 0xc9, 0x23, 0x3e, 0xf2, 0x98, 0xd5, 0xbd,
  0x81, 0xac, 0x4e, 0x3d, 0xa0, 0x2d, 0x8a, 0xbd, 0x73, 0x2e, 0x8d, 0x3d,
  0xbf, 0xec, 0x0d, 0x3e, 0x65, 0xdf, 0x0d, 0x3e, 0x16, 0xd4, 0x16, 0xbe,
  0xd1, 0x2b, 0x05, 0x3e, 0xa2, 0x32, 0xba, 0xbd, 0x75, 0xb5, 0x0d, 0xbe,
  0x72, 0x66, 0xbc, 0xbd, 0xce, 0xb6, 0x72, 0xbe, 0x9a, 0x20, 0xcf, 0xbd,
  0x97, 0x92, 0x61, 0xbe, 0x98, 0x1f, 0x00, 0x3e, 0x94, 0x0e, 0x49, 0xbd,
  0x24, 0x9f, 0x26, 0x3e, 0x20, 0x7d, 0x18, 0xbd, 0x2f, 0x09, 0xc4, 0xbd,
  0xe7, 0xcc, 0xd7, 0xbd, 0x0e, 0x73, 0x13, 0x3e, 0x68, 0x20, 0x5d, 0xbd,
  0x61, 0x88, 0x54, 0xbd, 0xc1, 0xda, 0x2c, 0xbc, 0xf7, 0x7b, 0x4d, 0xbe,
  0x27, 0x6b, 0xb2, 0xbd, 0x99, 0x85, 0x33, 0x3d, 0x8a, 0x63, 0x61, 0xbd,
  0x4f, 0xf5, 0x4a, 0x3e, 0x4a, 0x1d, 0xd2, 0xbd, 0xaa, 0x28, 0xff, 0x3c,
  0x22, 0xc2, 0xb5, 0x3d, 0xd0, 0xd6, 0xad, 0xbd, 0x6a, 0x21, 0x45, 0xbd,
  0x30, 0x85, 0x7e, 0xbe, 0xb6, 0x98, 0x5a, 0xbe, 0xf7, 0x3a, 0xd0, 0x3d,
  0xbb, 0xfb, 0x07, 0xbe, 0x13, 0xa2, 0xf0, 0x3c, 0xa8, 0x2e, 0x24, 0x3c,
  0x3f, 0xbe, 0x45, 0x3d, 0x50, 0x93, 0x7e, 0xbd, 0x37, 0x64, 0x78, 0x3d,
  0xa0, 0x2b, 0x8b, 0xbe, 0x98, 0x67, 0xb1, 0x3c, 0x63, 0x9d, 0x18, 0xbe,
  0x22, 0x70, 0x01, 0xbe, 0x70, 0xea, 0x09, 0x3e, 0x43, 0xc0, 0x34, 0x3e,
  0x28, 0x2a, 0xa3, 0xbd, 0xac, 0x8c, 0x2d, 0xbe, 0x79, 0xe5, 0xb9, 0x3d,
  0x09, 0x4a, 0xb0, 0xbe, 0xda, 0xf8, 0x5e, 0xbe, 0xea, 0x26, 0xce, 0x3d,
  0x44, 0x82, 0xa1, 0x3d, 0xf4, 0x8b, 0x4d, 0xbd, 0xe8, 0xe1, 0x60, 0x3d,
  0x3d, 0xb1, 0x92, 0xbe, 0x4c, 0xc7, 0xa6, 0x3d, 0xb0, 0xc1, 0xd7, 0x3b,
  0x19, 0x62, 0x42, 0xbe, 0x20, 0x05, 0x0b, 0x3e, 0xb8, 0x75, 0x8a, 0x3d,
  0xf5, 0x72, 0x28, 0xbe, 0x0f, 0x8f, 0x92, 0xbe, 0x5b, 0x25, 0x4b, 0x3d,
  0x20, 0xc7, 0x49, 0x3c, 0xe0, 0x70, 0x2c, 0xbe, 0x07, 0x97, 0x79, 0xbd,
  0x8a, 0x2b, 0x97, 0x3d, 0x8e, 0xd1, 0x55, 0xbe, 0xea, 0x00, 0xd1, 0xbd,
  0xd0, 0x58, 0x75, 0x3d, 0xfc, 0x40, 0x2a, 0x3e, 0xff, 0x6d, 0x85, 0xbd,
  0x35, 0x50, 0x47, 0x3e, 0x51, 0x54, 0x8f, 0xbd, 0xe4, 0x09, 0xe0, 0x3d,
  0x06, 0xca, 0xe8, 0x3d, 0x28, 0xbd, 0x93, 0x3c, 0x6f, 0x6e, 0xe3, 0xbd,
  0xd5, 0xdf, 0xf7, 0xbd, 0x98, 0x64, 0x7c, 0xbc, 0xd8, 0xfd, 0x32, 0xbe,
  0x1d, 0x05, 0x21, 0x3a, 0xef, 0xaa, 0x0d, 0x3d, 0x93, 0xa8, 0x60, 0xbc,
  0xe3, 0xca, 0x5b, 0x3e, 0xa0, 0x78, 0xeb, 0x3c, 0xcd, 0x2d, 0x1a, 0x3e,
  0xd4, 0x5f, 0x21, 0x3e, 0x18, 0xf1, 0xd5, 0x3c, 0xef, 0x74, 0x04, 0xba,
  0x29, 0x15, 0xfa, 0x3d, 0xc1, 0x12, 0x63, 0x3e, 0x59, 0x30, 0x4f, 0x3e,
  0x4e, 0x9a, 0x3e, 0x3d, 0x88, 0x87, 0x89, 0xbb, 0xe3, 0x4d, 0x82, 0xbd,
  0x8f, 0x7b, 0xb7, 0xbc, 0x4f, 0xd0, 0x0c, 0x3e, 0xaf, 0x7e, 0x0a, 0x3e,
  0x10, 0x02, 0x1d, 0x3d, 0xa4, 0x1f, 0x7a, 0x3d, 0x61, 0xaf, 0x5e, 0xbe,
  0x28, 0x2c, 0x2c, 0xbe, 0x6f, 0xf9, 0x2e, 0xbe, 0xa2, 0x6c, 0xe0, 0xbd,
  0x12, 0x1c, 0x3d, 0x3e, 0x07, 0x7a, 0x46, 0xbd, 0x08, 0x91, 0x0d, 0x3e,
  0xbf, 0xb6, 0x35, 0xbe, 0x82, 0x04, 0x1f, 0x3c, 0x99, 0x94, 0x67, 0x3d,
  0xd1, 0xef, 0xdf, 0xbd, 0x3f, 0xa0, 0x27, 0xbe, 0x4c, 0xa4, 0x21, 0xbe,
  0x90, 0xb7, 0x66, 0xbd, 0xde, 0x54, 0x71, 0x3c, 0x92, 0x53, 0xee, 0x3d,
  0xc0, 0xd6, 0xa9, 0x3c, 0x61, 0x1d, 0x10, 0xbe, 0x5a, 0xe9, 0x42, 0x3e,
  0xbe, 0x32, 0x77, 0x3d, 0x52, 0xd0, 0x16, 0x3e, 0xc5, 0xdc, 0x45, 0xbe,
  0xf3, 0xd4, 0x0a, 0x3e, 0xf8, 0x19, 0x87, 0x3c, 0x02, 0x33, 0x8f, 0xbe,
  0x19, 0x5f, 0xf3, 0xbc, 0x06, 0xe2, 0x96, 0x3d, 0xd2, 0x59, 0x40, 0xbe,
  0x86, 0x4e, 0x93, 0xbd, 0xba, 0x0f, 0x02, 0x3e, 0xdf, 0xe9, 0xfa, 0x3d,
  0x6c, 0x9d, 0x03, 0x3d, 0xee, 0x3d, 0x5a, 0xbc, 0xa4, 0xba, 0x58, 0xbd,
  0x70, 0x7d, 0x8e, 0xbd, 0xaf, 0x84, 0x39, 0x3d, 0x58, 0x14, 0xbb, 0x3d,
  0x8a, 0x3b, 0x3b, 0xbe, 0xa6, 0x38, 0x75, 0x3d, 0x4c, 0xc0, 0x74, 0x3e,
  0x84, 0xff, 0x10, 0xbe, 0x0f, 0xec, 0xc8, 0xbd, 0x7f, 0x4d, 0xcf, 0xbd,
  0x8d, 0xc4, 0x34, 0xbe, 0x82, 0xc8, 0x9e, 0xbc, 0x50, 0xb3, 0xa0, 0xbd,
  0xa0, 0x83, 0x72, 0x3d, 0x72, 0xb1, 0xa7, 0x3d, 0xa1, 0x4f, 0x1a, 0x3e,
  0x87, 0xc7, 0x32, 0xbe, 0x4d, 0xb6, 0x2c, 0xbe, 0xb9, 0xf0, 0xf3, 0x3c,
  0xb8, 0xa2, 0x21, 0x3e, 0x99, 0x94, 0xde, 0x3d, 0x61, 0xcf, 0x27, 0x3e,
  0x6e, 0x8a, 0x60, 0xbd, 0x1d, 0xdc, 0x80, 0xbe, 0x33, 0xe4, 0x21, 0xbe,
  0x24, 0xb9, 0x50, 0xbe, 0x25, 0x26, 0x93, 0xbc, 0xad, 0x8e, 0xf4, 0xbc,
  0xba, 0x9e, 0x95, 0x3c, 0xa2, 0xbc, 0x7d, 0x3e, 0x8d, 0xd8, 0xa3, 0x3d,
  0x90, 0x27, 0xcd, 0xbd, 0x07, 0x42, 0x4d, 0xbe, 0xa4, 0xe4, 0x3f, 0xbd,
  0xf5, 0xfc, 0x80, 0x3b, 0xdb, 0x29, 0xff, 0x3d, 0x6f, 0xef, 0x48, 0x3d,
  0xa9, 0x4b, 0x2c, 0xbe, 0xa9, 0x24, 0x05, 0xbe, 0xd8, 0xcb, 0x25, 0x3d,
  0x0c, 0x50, 0x15, 0x3d, 0xd3, 0xa2, 0xd7, 0xbd, 0xb9, 0x83, 0x59, 0x3c,
  0xb5, 0xb6, 0xba, 0x3d, 0x6e, 0x2f, 0x3f, 0x3d, 0x2b, 0x1e, 0x28, 0x3e,
  0xf6, 0x3f, 0xb5, 0x3d, 0x36, 0x7a, 0x21, 0xbe, 0x3b, 0x10, 0x4e, 0xbe,
  0x71, 0x01, 0x88, 0xbe, 0xf5, 0x25, 0x24, 0x3e, 0x36, 0xa6, 0x27, 0xbe,
  0xf5, 0xf3, 0x28, 0x3e, 0x84, 0x5e, 0xc1, 0x3d, 0x94, 0x88, 0x9f, 0x3d,
  0xb5, 0xca, 0x3f, 0x3e, 0x2c, 0x84, 0xc7, 0xbc, 0x27, 0x6f, 0x8b, 0x3d,
  0x26, 0x9d, 0x3e, 0xbe, 0x07, 0x08, 0x51, 0xbc, 0x46, 0x28, 0xf9, 0xbd,
  0xa5, 0xdf, 0x36, 0x3e, 0x1f, 0x82, 0x0c, 0xbe, 0x27, 0xe4, 0x00, 0x3d,
  0x06, 0x98, 0xac, 0x3d, 0x00, 0x1e, 0x40, 0xbb, 0x71, 0xb9, 0xda, 0xbd,
  0xeb, 0x3f, 0x1b, 0x3e, 0x46, 0x29, 0x0f, 0xbe, 0x04, 0xc3, 0x40, 0x3e,
  0x77, 0x6d, 0x4a, 0x3e, 0x4e, 0xfc, 0xc4, 0x3d, 0xd0, 0x96, 0xac, 0x3b,
  0xdf, 0x9d, 0xc8, 0xbc, 0xa2, 0xb0, 0x26, 0xbe, 0x4c, 0x36, 0xa7, 0xbe,
  0xb6, 0x35, 0x0f, 0xbe, 0x89, 0x7e, 0x69, 0x3e, 0x3a, 0x3c, 0x0b, 0x3e,
  0x7d, 0xe9, 0x1e, 0x3e, 0xee, 0x37, 0xd8, 0x3d, 0xa2, 0xbd, 0x49, 0xbe,
  0x49, 0xcd, 0x28, 0xbe, 0x02, 0xe0, 0xb9, 0x3c, 0x6b, 0x32, 0xd5, 0x3c,
  0x98, 0x6b, 0xf4, 0x3c, 0xe0, 0x75, 0xd1, 0x3a, 0x3b, 0x36, 0x25, 0x3e,
  0x5d, 0xbb, 0x23, 0xbe, 0xa4, 0x42, 0xb9, 0xbd, 0xd3, 0x0d, 0x15, 0x3c,
  0x11, 0xd8, 0x1a, 0xbe, 0xc6, 0xf4, 0xeb, 0xbd, 0xd1, 0xa5, 0x83, 0x3e,
  0x62, 0x46, 0x58, 0xbe, 0x7b, 0x06, 0x86, 0x3d, 0x3f, 0xae, 0x07, 0x3e,
  0x7c, 0xe9, 0x99, 0x3c, 0x6d, 0xa7, 0x07, 0x3d, 0xde, 0x5d, 0xb6, 0x3c,
  0x5e, 0x38, 0xa7, 0xbc, 0x80, 0x61, 0xc0, 0x3d, 0xcf, 0x72, 0x10, 0x3d,
  0x58, 0x23, 0x0b, 0xbc, 0x61, 0x24, 0xaf, 0xbc, 0xf0, 0x16, 0x48, 0x3e,
  0x31, 0x5f, 0x13, 0x3e, 0x97, 0x09, 0x61, 0x3d, 0xbd, 0x63, 0xb7, 0xbd,
  0xe0, 0x6c, 0xd0, 0x3d, 0x11, 0xde, 0xf6, 0xbd, 0xf2, 0xfb, 0x0f, 0x3e,
  0x01, 0xda, 0x6f, 0xbd, 0x79, 0xa8, 0x3c, 0xbe, 0xe7, 0x2a, 0x80, 0xbe,
  0xe1, 0x2f, 0xb9, 0xbd, 0x95, 0xd9, 0x0d, 0x3d, 0x40, 0xb6, 0xb4, 0xbd,
  0x57, 0xe9, 0x2d, 0xbe, 0x1d, 0xb0, 0x6f, 0x3e, 0x74, 0xc7, 0x81, 0xbd,
  0x34, 0x2a, 0x5a, 0xbe, 0x63, 0x47, 0x94, 0xbd, 0x31, 0x9d, 0xa6, 0xbd,
  0x20, 0x18, 0x1f, 0x3d, 0x18, 0x10, 0x63, 0x3d, 0x57, 0x3e, 0x38, 0xbe,
  0xac, 0xe3, 0x5b, 0xbe, 0x2d, 0x91, 0x04, 0x3e, 0xbd, 0xbf, 0x33, 0xbd,
  0x59, 0x38, 0x72, 0xbd, 0xd0, 0x62, 0xa0, 0xba, 0x48, 0x39, 0x47, 0xbd,
  0xce, 0x8c, 0xd2, 0xbd, 0xa0, 0x14, 0x08, 0xbe, 0x84, 0x5a, 0x31, 0x3e,
  0x4a, 0xfb, 0x88, 0xbd, 0x9a, 0x76, 0x7c, 0xbe, 0xb0, 0x47, 0x88, 0x3e,
  0xf4, 0x5e, 0x93, 0x3e, 0x56, 0x22, 0x98, 0xbc, 0xe2, 0x9c, 0xde, 0xbd,
  0x8e, 0x1f, 0x10, 0x3e, 0x13, 0x33, 0xc0, 0x3e, 0xce, 0x7c, 0x7d, 0x3e,
  0xea, 0xd5, 0xd5, 0x3c, 0x7b, 0xa3, 0x14, 0xbe, 0x11, 0x7f, 0x35, 0xbe,
  0x52, 0x60, 0xce, 0xbd, 0x8e, 0x63, 0x4a, 0x3e, 0x9e, 0x2b, 0x57, 0x3e,
  0xe7, 0xf1, 0x99, 0xbe, 0x97, 0x94, 0x3f, 0x3e, 0x0d, 0x21, 0xfa, 0xbc,
  0x4a, 0x00, 0x74, 0x3d, 0x00, 0x1b, 0x80, 0x3e, 0x0f, 0x69, 0x3d, 0xbd,
  0xb0, 0xe2, 0x73, 0xbd, 0xc5, 0xb8, 0x03, 0x3e, 0x32, 0xbd, 0xaf, 0x3e,
  0x77, 0x11, 0xaf, 0xbd, 0x2c, 0xf3, 0x49, 0x3e, 0x89, 0x41, 0x81, 0xbe,
  0x63, 0xea, 0x06, 0xbd, 0xbb, 0xea, 0x00, 0xbe, 0xc5, 0x00, 0x5b, 0x3e,
  0x4e, 0x33, 0x0e, 0xbe, 0x8f, 0x4f, 0xfc, 0xbc, 0x8d, 0xfb, 0x01, 0xbe,
  0x2e, 0x12, 0xb6, 0x3c, 0x08, 0xbf, 0x13, 0xbe, 0x16, 0x33, 0xe7, 0x3e,
  0xfe, 0xaf, 0x33, 0x3b, 0x57, 0x1f, 0x84, 0x3b, 0x2a, 0x82, 0xaa, 0x3d,
  0x43, 0x38, 0xb3, 0x3e, 0xaa, 0x93, 0xe2, 0xbd, 0xa4, 0x23, 0x32, 0x3e,
  0x6e, 0x51, 0xa5, 0x3b, 0xc2, 0x4d, 0x22, 0x3d, 0x66, 0x8a, 0x0b, 0x3e,
  0x5a, 0xa0, 0xc2, 0xbd, 0x4b, 0x95, 0xdb, 0xbd, 0xe4, 0xdc, 0xcc, 0xbd,
  0x8d, 0x3d, 0x59, 0xbe, 0xd0, 0x07, 0x53, 0xbd, 0xaa, 0x41, 0x09, 0xbd,
  0x2c, 0x52, 0x81, 0x3e, 0xbc, 0x31, 0x6b, 0xbe, 0xad, 0xba, 0x9c, 0xbd,
  0xa8, 0x7e, 0x74, 0xbe, 0x86, 0x4c, 0x0a, 0xbe, 0xb4, 0x12, 0x91, 0xba,
  0xe2, 0x6d, 0xbb, 0x3d, 0x08, 0x95, 0xdb, 0xbc, 0x6f, 0xb3, 0xb6, 0xbd,
  0x86, 0x3e, 0x16, 0x3d, 0x66, 0x28, 0x1c, 0x3e, 0x7e, 0xe8, 0x15, 0x3e,
  0x22, 0xc3, 0x6c, 0xbe, 0xfe, 0x8c, 0x04, 0x3e, 0xe3, 0x4b, 0x2d, 0xbe,
  0x43, 0x94, 0x02, 0x3e, 0xba, 0x54, 0x7f, 0x3e, 0xd4, 0x7e, 0x90, 0x3d,
  0x8f, 0x86, 0xd3, 0xbd, 0xd6, 0x03, 0xa3, 0x3d, 0xea, 0x13, 0x79, 0xbd,
  0xa6, 0x46, 0x86, 0xbd, 0x9b, 0x99, 0x95, 0xbd, 0xed, 0x22, 0x2f, 0xbe,
  0xd1, 0x8b, 0xa7, 0x3c, 0xe9, 0xc1, 0xb5, 0x3d, 0x59, 0xf6, 0x57, 0xbc,
  0xb9, 0x09, 0x38, 0xbe, 0xf7, 0xf5, 0x91, 0xbe, 0x59, 0x99, 0xcf, 0xbd,
  0x0c, 0x93, 0x0c, 0xbb, 0xf5, 0x8d, 0xe8, 0x3d, 0xd1, 0xe2, 0x79, 0x3e,
  0x3a, 0xcc, 0x60, 0x3d, 0xf9, 0x11, 0x01, 0x3e, 0x80, 0xb1, 0x2e, 0xbb,
  0x38, 0x35, 0x8c, 0x3d, 0x07, 0xec, 0x29, 0xbe, 0xf3, 0xe4, 0x13, 0xbe,
  0x42, 0x61, 0x9e, 0xbc, 0xcd, 0x5f, 0x60, 0x3c, 0x01, 0x7c, 0xf5, 0xbd,
  0x06, 0x76, 0x7e, 0x3d, 0xb7, 0xd5, 0x77, 0xbe, 0x3e, 0x6f, 0x1d, 0xbe,
  0x91, 0x70, 0x07, 0x3e, 0xe7, 0xf6, 0xc2, 0xbb, 0x6f, 0x9e, 0xce, 0x3d,
  0xd5, 0x23, 0xb1, 0x3b, 0x8d, 0x3e, 0x45, 0xbe, 0x39, 0x23, 0x1a, 0xbe,
  0x75, 0x7c, 0x8d, 0xbe, 0x9e, 0x3b, 0x15, 0xbe, 0x2c, 0x97, 0x3e, 0xbd,
  0xab, 0xf1, 0x16, 0x3e, 0xfd, 0x43, 0x7c, 0xbe, 0x23, 0xe3, 0x03, 0xbc,
  0x30, 0x1f, 0x14, 0x3e, 0xb9, 0x1e, 0xa5, 0x3d, 0xa6, 0xce, 0xd2, 0x3d,
  0x29, 0xad, 0x75, 0xbe, 0xba, 0xe2, 0xf1, 0x3d, 0xe5, 0x22, 0x06, 0xbe,
  0x0e, 0xae, 0xd5, 0x3d, 0x76, 0xc9, 0x77, 0x3e, 0x60, 0x7a, 0x25, 0xbd,
  0x5d, 0xd5, 0xd5, 0xbd, 0x90, 0xe7, 0x1b, 0x3d, 0xe3, 0x43, 0x34, 0xbc,
  0xc8, 0x1d, 0x92, 0x3e, 0x2f, 0xc2, 0x65, 0x3e, 0x40, 0x9d, 0xb3, 0xbe,
  0xe6, 0x9f, 0xdf, 0xbd, 0xf7, 0xce, 0x03, 0x3d, 0x83, 0x2a, 0x9b, 0x3b,
  0x1e, 0x7d, 0xdd, 0xbc, 0xf3, 0x14, 0xe6, 0xbd, 0x59, 0x30, 0xbf, 0xbd,
  0x13, 0x1f, 0x1a, 0xbe, 0xf6, 0x74, 0x98, 0xbd, 0x4a, 0x18, 0xe7, 0x3d,
  0xdf, 0xa9, 0x86, 0xbe, 0x19, 0x9b, 0x28, 0xbe, 0xac, 0x62, 0x28, 0xbe,
  0x9a, 0xcb, 0x45, 0x3e, 0xd0, 0xea, 0xf9, 0x3c, 0xe3, 0x58, 0x83, 0x3e,
  0x4d, 0xdc, 0x40, 0xbe, 0x7f, 0x9b, 0xa4, 0xbe, 0x2e, 0x83, 0xf7, 0x3d,
  0x68, 0x9b, 0x1c, 0x3e, 0xb9, 0x35, 0x9f, 0xbd, 0x62, 0x71, 0x2d, 0xbe,
  0x01, 0x04, 0x1e, 0xbe, 0x83, 0xf3, 0x68, 0x3e, 0x3a, 0xb6, 0xb1, 0x3d,
  0x9a, 0xb0, 0x0b, 0x3e, 0x66, 0x7e, 0x87, 0xbe, 0x18, 0xae, 0x93, 0xbe,
  0x11, 0x4b, 0x08, 0x3e, 0xf3, 0xe0, 0x7f, 0x3e, 0xfe, 0x53, 0x58, 0xbe,
  0x4c, 0x7e, 0x48, 0x3e, 0x00, 0xf3, 0x4f, 0x3b, 0xc6, 0x0d, 0x00, 0xbe,
  0x14, 0x54, 0xfd, 0xbd, 0xe5, 0xbb, 0x84, 0xbd, 0x3e, 0x92, 0x0b, 0x3e,
  0x28, 0x39, 0xe4, 0xbd, 0xbd, 0xae, 0xad, 0xbd, 0x4e, 0x1c, 0x05, 0xbd,
  0xe8, 0x89, 0x42, 0x3d, 0xcf, 0x27, 0x21, 0xbd, 0x9c, 0x04, 0x05, 0xbe,
  0xcd, 0x50, 0x70, 0x3d, 0x0b, 0x71, 0x4f, 0x3d, 0x6b, 0x12, 0x76, 0xbd,
  0xe2, 0x36, 0xff, 0xbd, 0xe3, 0x75, 0x24, 0xbd, 0xff, 0xc5, 0x4f, 0xbe,
  0x48, 0x64, 0x14, 0x3d, 0x79, 0x7b, 0x4c, 0x3d, 0xbf, 0x52, 0x00, 0x3e,
  0x66, 0x56, 0x35, 0xbe, 0x53, 0x67, 0x00, 0xbe, 0xa1, 0x13, 0x4e, 0xbe,
  0x22, 0xdb, 0xfc, 0x3d, 0x4b, 0x43, 0x42, 0x3d, 0x5a, 0x7b, 0x66, 0x3e,
  0x6c, 0xe4, 0x06, 0xbe, 0x7d, 0x16, 0xca, 0x3d, 0xa0, 0xe8, 0x2d, 0x3e,
  0x51, 0xbc, 0x77, 0x3e, 0x6d, 0xa2, 0x74, 0xbc, 0x4e, 0x8b, 0x29, 0xbe,
  0xf2, 0xf1, 0xc1, 0xbc, 0xa1, 0xb9, 0x62, 0x3d, 0x24, 0x06, 0x35, 0x3e,
  0x2d, 0xc5, 0x18, 0xbd, 0x16, 0xac, 0x40, 0x3d, 0x8f, 0xa6, 0xc6, 0xbe,
  0x95, 0x5d, 0xf6, 0xbc, 0x9b, 0x6e, 0x51, 0xbe, 0xec, 0x1e, 0xb8, 0xbd,
  0x5b, 0xe2, 0xc1, 0x3d, 0x8a, 0x86, 0x75, 0xbd, 0x49, 0xe9, 0x52, 0x3c,
  0x60, 0x50, 0x71, 0x3c, 0x52, 0xc2, 0x85, 0x3d, 0x27, 0xae, 0x85, 0xbd,
  0x53, 0xbb, 0x35, 0x3e, 0x80, 0x50, 0x82, 0xbe, 0x19, 0xe2, 0xa6, 0xbd,
  0x0b, 0xc3, 0x57, 0x3b, 0xd0, 0x79, 0xfd, 0x3d, 0xf8, 0xe2, 0xf8, 0xbd,
  0xc2, 0xff, 0x04, 0xbe, 0x7e, 0x31, 0xe8, 0xbd, 0x89, 0x28, 0x20, 0xbe,
  0x65, 0x1f, 0xb2, 0x3d, 0xdb, 0x42, 0x37, 0x3d, 0x92, 0x33, 0x90, 0xbe,
  0xe0, 0xe0, 0x0d, 0xbe, 0x1c, 0x86, 0xad, 0xbd, 0xff, 0x10, 0xf2, 0x3d,
  0x60, 0xcf, 0x31, 0xbe, 0xed, 0xab, 0xcf, 0xbd, 0xc8, 0xfb, 0x8c, 0x3b,
  0x35, 0x93, 0x5b, 0xbe, 0x06, 0xc7, 0x82, 0x3c, 0x58, 0x4b, 0x88, 0xbe,
  0xf1, 0xbd, 0xe3, 0xbd, 0xe1, 0xc5, 0x39, 0xbe, 0x19, 0xda, 0x62, 0xbe,
  0xd8, 0x50, 0x10, 0x3e, 0x60, 0xb0, 0x1a, 0x3e, 0xaf, 0xd1, 0xb9, 0xbb,
  0x3f, 0x1b, 0x82, 0xbe, 0x6e, 0x2d, 0x8c, 0x3d, 0x56, 0xdb, 0x9e, 0xbd,
  0xfd, 0x92, 0x67, 0xbc, 0x45, 0x93, 0x3f, 0xbd, 0x71, 0x06, 0x82, 0xbe,
  0x01, 0x5d, 0x18, 0x3e, 0x04, 0xcb, 0x4f, 0xbe, 0x57, 0xea, 0xf0, 0xbd,
  0xc8, 0x6f, 0x33, 0xbe, 0x40, 0x22, 0xc9, 0x3b, 0x67, 0x7d, 0x02, 0xbe,
  0x72, 0x63, 0x69, 0xbe, 0xef, 0xba, 0x66, 0xbe, 0x1a, 0x43, 0x23, 0xbe,
  0x75, 0xae, 0xfe, 0x3c, 0xf4, 0xa5, 0xb5, 0x3d, 0xe9, 0x69, 0x8a, 0x3d,
  0xfa, 0x72, 0xbe, 0x3d, 0x09, 0x73, 0x9f, 0xbd, 0x96, 0xa5, 0x0b, 0xbe,
  0x24, 0xfb, 0xe8, 0xbc, 0x67, 0x66, 0xf0, 0xbd, 0x71, 0xc5, 0xde, 0x3d,
  0xc0, 0x75, 0xf3, 0x3d, 0xa8, 0x3f, 0x17, 0x3e, 0x1d, 0x2c, 0xdb, 0x3d,
  0xc5, 0x87, 0xba, 0xbd, 0xcd, 0x96, 0xdb, 0x3c, 0x1d, 0x05, 0xd9, 0x3d,
  0x2c, 0x34, 0x18, 0xbe, 0xec, 0x31, 0xdb, 0x3b, 0x2a, 0x22, 0xd4, 0xbd,
  0x46, 0x24, 0xf9, 0xbd, 0x25, 0x04, 0x43, 0xbe, 0x32, 0x58, 0x53, 0x3c,
  0x93, 0x39, 0x2b, 0x3d, 0xdc, 0x08, 0x0b, 0x3e, 0x3b, 0xba, 0xe0, 0x3d,
  0x4c, 0x2d, 0x0b, 0x3e, 0x57, 0x26, 0x35, 0x3e, 0x50, 0x8a, 0x1e, 0xbd,
  0x30, 0x84, 0x1d, 0x3d, 0x2d, 0xcc, 0x3f, 0xbe, 0x63, 0x2a, 0x08, 0xbe,
  0x0a, 0x84, 0xc8, 0x3d, 0x07, 0xa8, 0x59, 0xbd, 0x84, 0xb9, 0x9c, 0xbd,
  0xa4, 0x48, 0x87, 0xbd, 0x8e, 0x82, 0x05, 0xbe, 0x96, 0xfd, 0x19, 0xbd,
  0xdf, 0xe7, 0x1f, 0xbd, 0xf3, 0x37, 0x5e, 0x3b, 0xc1, 0x7e, 0xcb, 0x3d,
  0x80, 0x83, 0x3f, 0x3b, 0xf9, 0xcb, 0x78, 0x3d, 0x8c, 0xa5, 0x30, 0x3e,
  0x28, 0x02, 0x10, 0x3e, 0x57, 0x14, 0xa5, 0xbd, 0x3e, 0x8f, 0x54, 0xbe,
  0xde, 0x84, 0x6d, 0x3d, 0x25, 0xd6, 0x21, 0xbe, 0xbb, 0x0a, 0x2d, 0xbe,
  0xae, 0xd9, 0x2a, 0xbe, 0x15, 0xdc, 0xf4, 0x3c, 0x94, 0xb2, 0x94, 0xbc,
  0x9e, 0x9e, 0xb3, 0x3d, 0xf0, 0x17, 0xeb, 0x3d, 0xb6, 0x81, 0x21, 0x3d,
  0x0b, 0x87, 0x99, 0xbd, 0xfc, 0x09, 0x86, 0xbd, 0xc5, 0x5b, 0x15, 0xbe,
  0xab, 0xe5, 0xba, 0x3d, 0xe9, 0x55, 0x0e, 0xbe, 0x81, 0x1e, 0x6d, 0xbe,
  0x10, 0x0c, 0xfa, 0x3d, 0xa5, 0xec, 0x11, 0xbe, 0x65, 0xa6, 0xdb, 0xbc,
  0x74, 0x5c, 0x85, 0xbc, 0x1c, 0x94, 0x71, 0xbe, 0x22, 0x37, 0xde, 0xbd,
  0x7e, 0xff, 0xcf, 0x3d, 0x4c, 0x0b, 0xf6, 0xbd, 0xb8, 0xca, 0x9c, 0xbd,
  0x3f, 0xac, 0x43, 0xbc, 0x77, 0x10, 0x4a, 0xbe, 0x96, 0x5e, 0x6b, 0xbe,
  0x0c, 0x7e, 0x93, 0xbd, 0xc7, 0xb6, 0xb3, 0x3d, 0x69, 0x1b, 0x60, 0xbe,
  0x34, 0x4d, 0x97, 0x3b, 0x98, 0x96, 0x1b, 0x3d, 0x6e, 0xdd, 0x3a, 0xbe,
  0xdc, 0x39, 0x87, 0xbe, 0xbc, 0x72, 0xc5, 0x3d, 0x4d, 0xfe, 0xf6, 0x3d,
  0x96, 0x35, 0xca, 0x3c, 0x78, 0x50, 0x62, 0xbe, 0xd7, 0x94, 0x85, 0x3d,
  0xb4, 0x4a, 0x24, 0xbd, 0x73, 0xf2, 0x03, 0x3e, 0x33, 0x5e, 0x46, 0xbe,
  0xd6, 0xb6, 0xe2, 0x3d, 0x34, 0x3c, 0xbc, 0xbd, 0x27, 0x9f, 0x41, 0xbe,
  0xc9, 0xc7, 0x48, 0x3e, 0x5e, 0xf7, 0xfe, 0x3b, 0x02, 0x12, 0x8a, 0x3d,
  0xc7, 0x9d, 0x9a, 0x3d, 0x5d, 0xe5, 0x35, 0xbe, 0xd9, 0x67, 0x58, 0x3d,
  0xa4, 0xb8, 0xe1, 0xbc, 0x3f, 0x79, 0x2f, 0xbd, 0x33, 0x8a, 0x39, 0x3e,
  0xf2, 0xa6, 0xca, 0x3d, 0xff, 0xd8, 0x98, 0xbd, 0x45, 0x06, 0x28, 0xbe,
  0x8e, 0xa2, 0x95, 0xbd, 0xbb, 0xb7, 0x15, 0x3e, 0xaf, 0x6e, 0x5d, 0xbd,
  0x6f, 0xdd, 0xb8, 0xbd, 0xcb, 0x0e, 0x9c, 0xbb, 0x00, 0x85, 0x61, 0xbc,
  0x4a, 0xad, 0x45, 0x3e, 0xf4, 0x84, 0x87, 0xbe, 0x6f, 0xdf, 0x14, 0x3e,
  0x73, 0x8f, 0x85, 0xbc, 0xf9, 0x22, 0xa9, 0xbe, 0x40, 0x8c, 0x42, 0xbe,
  0xdc, 0x9d, 0xe8, 0x3c, 0x83, 0xd1, 0x05, 0x3e, 0xc7, 0x77, 0x59, 0x3d,
  0x01, 0x79, 0x5e, 0x3e, 0xd3, 0x33, 0xc1, 0xbe, 0x13, 0x6f, 0xa7, 0x3c,
  0x28, 0xbc, 0x1d, 0xbd, 0xbc, 0x50, 0x94, 0x3d, 0xb2, 0xc6, 0xd8, 0xbd,
  0x7d, 0x81, 0x09, 0x3e, 0x4c, 0x41, 0x9b, 0xbd, 0x81, 0x84, 0xaf, 0xbd,
  0x09, 0x19, 0x87, 0xbe, 0xf7, 0x80, 0xba, 0xbd, 0x43, 0x4d, 0xa2, 0xbd,
  0x5d, 0x35, 0x1d, 0xbe, 0xd7, 0x86, 0x35, 0x3e, 0x16, 0xb4, 0xa6, 0x3d,
  0x62, 0x0f, 0x9a, 0xbb, 0x02, 0x95, 0x19, 0x3e, 0x4d, 0xf0, 0x1d, 0xbe,
  0x01, 0xbb, 0xbf, 0x3d, 0x98, 0x70, 0xa7, 0xbb, 0x47, 0xa6, 0x6f, 0xbe,
  0x4c, 0x9d, 0x3e, 0xbd, 0x36, 0x7b, 0x68, 0xbe, 0xdb, 0xb6, 0x48, 0x3e,
  0xfd, 0xb9, 0xb9, 0xbd, 0xfc, 0x29, 0x9d, 0xbd, 0x94, 0x83, 0xf0, 0x3c,
  0x1c, 0x79, 0xc6, 0x3d, 0x0f, 0xe7, 0x23, 0xbe, 0xec, 0xd6, 0x2d, 0x3e,
  0x3a, 0xdf, 0x27, 0x3e, 0x10, 0xfc, 0xe6, 0x3d, 0x5f, 0x45, 0x13, 0xbe,
  0x0c, 0xe7, 0x99, 0x3b, 0x51, 0x1b, 0x73, 0x3d, 0x23, 0x76, 0x27, 0xbe,
  0x50, 0xd4, 0xf1, 0x3d, 0x29, 0x75, 0x95, 0x3d, 0xab, 0x19, 0x1d, 0x3e,
  0x4c, 0x84, 0x17, 0x3e, 0x8f, 0xd1, 0x4b, 0xbe, 0x75, 0x25, 0x83, 0xbe,
  0x52, 0x55, 0x20, 0xbd, 0x91, 0xe5, 0xd4, 0xbd, 0x20, 0x2a, 0x84, 0x3d,
  0x36, 0x3b, 0x36, 0x3e, 0x62, 0x57, 0x4c, 0xbe, 0x9c, 0xa3, 0x10, 0xbe,
  0xaf, 0x57, 0xd6, 0xbd, 0x2c, 0x5a, 0x00, 0xbe, 0x8d, 0x68, 0x93, 0xbd,
  0x14, 0x50, 0x0e, 0x3e, 0xd9, 0xe1, 0xc2, 0x3b, 0x21, 0x7f, 0x8d, 0xbd,
  0xa4, 0xbe, 0x6f, 0x3d, 0xff, 0xf6, 0x7e, 0x3e, 0x6f, 0x3c, 0x81, 0xbd,
  0xb7, 0x6a, 0xee, 0xbd, 0x3d, 0x54, 0xe5, 0x3d, 0x37, 0x16, 0x40, 0xbd,
  0x2c, 0x1c, 0xac, 0x3d, 0x37, 0xbf, 0xa7, 0xbd, 0x3d, 0x1a, 0x4f, 0x3e,
  0x12, 0xd0, 0xb4, 0xbd, 0xe5, 0xe8, 0xdc, 0x3c, 0x2a, 0x5b, 0xb7, 0xbd,
  0x5d, 0x35, 0xb7, 0xbd, 0xce, 0x78, 0x8b, 0x3d, 0x81, 0x9c, 0xbe, 0x3d,
  0x5a, 0x06, 0x4c, 0xbe, 0x70, 0x47, 0x97, 0xbc, 0xe9, 0xef, 0x8d, 0x3e,
  0x6a, 0x4d, 0xcc, 0x3d, 0x56, 0xfa, 0x2b, 0xbe, 0xb2, 0x45, 0x81, 0xbd,
  0x35, 0xbd, 0xdf, 0x3d, 0x04, 0x62, 0x4e, 0xbe, 0xf7, 0xb6, 0x09, 0x3d,
  0x1a, 0x5d, 0x11, 0xbd, 0x5c, 0x37, 0x01, 0xbd, 0x72, 0xde, 0xdb, 0xbd,
  0x09, 0xf0, 0x3f, 0xbe, 0xdb, 0xe4, 0x4e, 0xbc, 0x95, 0x71, 0x8c, 0x3c,
  0x33, 0xf1, 0xfa, 0x3d, 0x38, 0x3d, 0xde, 0xbc, 0x67, 0xc5, 0x81, 0x3d,
  0xbd, 0x02, 0x44, 0x3e, 0xca, 0xd6, 0x14, 0xbd, 0x63, 0x7c, 0xd1, 0xbd,
  0x15, 0x14, 0xc9, 0x3d, 0x4f, 0x45, 0x2d, 0xbe, 0x8a, 0x5b, 0xa2, 0xbd,
  0x4c, 0x9c, 0xa8, 0x3d, 0x90, 0xf8, 0x55, 0x3c, 0x99, 0x05, 0xba, 0xbc,
  0x87, 0x50, 0x62, 0xbe, 0xa4, 0xc5, 0x5a, 0xbd, 0xf6, 0x13, 0xaf, 0x3d,
  0xda, 0x6a, 0xc1, 0x3b, 0x4a, 0xb2, 0x0f, 0xbd, 0x8a, 0x3e, 0xf7, 0xbc,
  0x12, 0x76, 0x1e, 0xbd, 0x76, 0x4d, 0x1f, 0x3e, 0xec, 0x9e, 0x79, 0xbe,
  0x06, 0x28, 0x46, 0xbe, 0x8c, 0xa3, 0x4f, 0xbe, 0xea, 0x9a, 0x20, 0xbe,
  0x50, 0x96, 0x7e, 0xbd, 0xfe, 0x09, 0xac, 0x3d, 0xbf, 0x16, 0x1d, 0x3e,
  0x7b, 0x8e, 0x97, 0x3c, 0x52, 0x69, 0x71, 0xbe, 0xcb, 0x40, 0x29, 0xbc,
  0x51, 0x4d, 0xed, 0x3d, 0x1a, 0x0b, 0x1a, 0xbe, 0xa7, 0x0a, 0x00, 0x3e,
  0x20, 0xb8, 0x18, 0xbe, 0xc3, 0x12, 0x3c, 0x3e, 0x84, 0x99, 0x12, 0xbe,
  0x09, 0xcc, 0x47, 0xbe, 0x4b, 0x92, 0xa3, 0xbd, 0x4f, 0xe3, 0xb3, 0xbd,
  0xd9, 0xf6, 0x29, 0x3d, 0x43, 0x94, 0x99, 0xbd, 0x6b, 0xe8, 0x4a, 0x3d,
  0x97, 0xff, 0x05, 0x3e, 0x59, 0xf4, 0x67, 0xbe, 0x88, 0x36, 0x09, 0xbe,
  0xd2, 0xeb, 0xbc, 0xbd, 0x95, 0xf3, 0xbf, 0xbd, 0xed, 0x98, 0x41, 0x3d,
  0x6e, 0x2e, 0xaa, 0x3d, 0x2a, 0x99, 0x84, 0x3d, 0x50, 0x85, 0xb7, 0x3d,
  0x1f, 0x49, 0x8e, 0x3c, 0x85, 0x22, 0x65, 0xbd, 0xc9, 0x67, 0x03, 0xbe,
  0xbd, 0x34, 0x77, 0xbe, 0x81, 0x12, 0x50, 0x3d, 0x32, 0x28, 0x98, 0xbd,
  0x0c, 0xdf, 0x07, 0x3e, 0x80, 0xc4, 0x5b, 0xbb, 0x7e, 0x1c, 0x54, 0xbe,
  0x2d, 0x61, 0xe7, 0x3d, 0x90, 0xdc, 0x5c, 0xbe, 0x66, 0x2b, 0x62, 0xbe,
  0x51, 0x53, 0xf3, 0x3d, 0x2b, 0x78, 0xa3, 0xbd, 0xcc, 0xa4, 0x14, 0xbd,
  0x5c, 0xe2, 0x01, 0xbe, 0x2b, 0x0e, 0xdc, 0xbd, 0x8f, 0x1d, 0xea, 0x3d,
  0xee, 0xd3, 0xc6, 0xbc, 0x57, 0x8d, 0x46, 0x3d, 0xb0, 0x1b, 0xab, 0xbd,
  0xed, 0x06, 0x2b, 0xbe, 0x60, 0xae, 0x39, 0xbe, 0xb8, 0x05, 0xf1, 0xbc,
  0xa4, 0xaf, 0x1e, 0xbe, 0xc7, 0xf0, 0x32, 0x3c, 0x94, 0xdc, 0x97, 0xbd,
  0x69, 0x40, 0x2e, 0xbe, 0x18, 0xac, 0x05, 0xbe, 0x69, 0xda, 0xeb, 0x3d,
  0x73, 0x3e, 0xe4, 0x3d, 0xfc, 0xdd, 0x34, 0xbe, 0xc7, 0x05, 0x55, 0xbe,
  0x4d, 0xf5, 0xc9, 0x3d, 0x95, 0xec, 0xda, 0x3d, 0x8a, 0x72, 0xe1, 0xbd,
  0x78, 0x4f, 0xff, 0x3d, 0xea, 0x7d, 0x32, 0xbd, 0xa1, 0xe4, 0xb4, 0xbd,
  0xc4, 0x5b, 0x5b, 0x3d, 0xc0, 0xd5, 0x2c, 0xbd, 0x76, 0x5e, 0x0a, 0x3c,
  0x58, 0x75, 0x1c, 0xbe, 0xd4, 0xa5, 0xab, 0xbc, 0xf7, 0x6c, 0x8e, 0x3a,
  0xe5, 0x07, 0x1b, 0x3e, 0xaf, 0xe9, 0x0a, 0x3d, 0x59, 0xce, 0x53, 0xbe,
  0xe9, 0x7b, 0x59, 0xbd, 0xfa, 0x8d, 0x52, 0xbe, 0xfb, 0x80, 0x81, 0xbe,
  0xf0, 0x88, 0xa1, 0x3d, 0xa2, 0x71, 0x45, 0x3d, 0x69, 0x7f, 0xfd, 0xbc,
  0xa1, 0xd0, 0x35, 0xbe, 0x48, 0xb0, 0xcb, 0x3d, 0x8b, 0xf8, 0xd0, 0x3d,
  0x67, 0x6b, 0x2e, 0x3e, 0x2c, 0x3b, 0xe1, 0xbd, 0x80, 0x58, 0xca, 0x3d,
  0x27, 0x3f, 0xaf, 0x3b, 0xa9, 0xd6, 0x44, 0xbd, 0x58, 0x4b, 0xcd, 0x3d,
  0xe5, 0x4d, 0x01, 0x3e, 0x68, 0x98, 0xb7, 0xbd, 0xb4, 0xeb, 0xb0, 0xbb,
  0x3a, 0x63, 0x3f, 0xbc, 0x04, 0xaf, 0x21, 0xbe, 0xaa, 0xe2, 0x1b, 0xbd,
  0xe4, 0xe0, 0xdb, 0x3d, 0x4e, 0x2d, 0xec, 0xbd, 0x38, 0x39, 0x44, 0xbe,
  0xbb, 0xbd, 0x63, 0x3d, 0xc5, 0xde, 0x87, 0xbe, 0x4f, 0xf6, 0x62, 0xbd,
  0x80, 0x5a, 0xca, 0x3c, 0x67, 0x55, 0x03, 0x3c, 0x83, 0x41, 0x0a, 0xbd,
  0x2a, 0x08, 0x11, 0xbe, 0x96, 0xea, 0x83, 0xbd, 0x81, 0xf5, 0x82, 0xbd,
  0xc8, 0xf4, 0x6c, 0xbe, 0x90, 0x22, 0x85, 0x3e, 0xc9, 0xe1, 0x7e, 0x3c,
  0x56, 0x06, 0x98, 0xbe, 0x9d, 0xbc, 0x5a, 0xbc, 0xfa, 0x3d, 0x50, 0xbe,
  0x1c, 0x70, 0x34, 0xbd, 0x4b, 0x44, 0xad, 0x3b, 0x29, 0x2a, 0xad, 0xbd,
  0x79, 0x20, 0x4b, 0xbe, 0xc8, 0xbf, 0x8c, 0x3e, 0x1b, 0xc1, 0x26, 0x3e,
  0x8b, 0x68, 0x02, 0xbe, 0xfc, 0xa2, 0x4a, 0x3e, 0xf4, 0x70, 0x65, 0xbd,
  0x1d, 0x11, 0x8a, 0x3d, 0x8b, 0x7f, 0x87, 0xbd, 0x02, 0x21, 0x70, 0x3d,
  0x43, 0x4c, 0xb5, 0xbb, 0xb2, 0x56, 0xee, 0xbd, 0x17, 0x66, 0x34, 0x3d,
  0x9d, 0xb5, 0x87, 0xbe, 0x1a, 0x85, 0x8c, 0xbd, 0xd2, 0x6c, 0x00, 0xbe,
  0xe3, 0x88, 0x12, 0xbe, 0x98, 0x4d, 0x0c, 0x3b, 0x0a, 0xf0, 0x03, 0x3e,
  0x7b, 0x7c, 0x99, 0x3c, 0xbb, 0x22, 0x8f, 0xbd, 0x16, 0xba, 0x33, 0xbd,
  0x10, 0xdf, 0x89, 0x3d, 0xf6, 0xf6, 0x5f, 0xbb, 0xd8, 0x7f, 0xf4, 0xbd,
  0x86, 0x26, 0x10, 0x3e, 0x3b, 0xed, 0x75, 0xbe, 0x39, 0x9c, 0xe6, 0xbd,
  0x54, 0x78, 0xce, 0x3c, 0x98, 0x6d, 0x9d, 0x3d, 0xcb, 0xdf, 0x47, 0xbe,
  0xe6, 0x24, 0x7c, 0xbd, 0x0c, 0x04, 0x44, 0x3e, 0x04, 0x26, 0xe2, 0x3d,
  0x3a, 0x21, 0x8f, 0xbd, 0x15, 0xad, 0xfb, 0xbd, 0x9c, 0xba, 0x23, 0x3d,
  0x54, 0xd4, 0x3e, 0x3e, 0x66, 0x37, 0x26, 0xbe, 0x6d, 0xf7, 0x63, 0xbe,
  0xb6, 0x9b, 0xad, 0x3c, 0x49, 0x84, 0x15, 0x3e, 0x82, 0x69, 0x45, 0xbe,
  0x28, 0x95, 0x1f, 0x3e, 0x20, 0x92, 0xf9, 0xbc, 0x30, 0x2c, 0xf8, 0xbc,
  0x5c, 0x33, 0x2d, 0xbd, 0xe5, 0x3f, 0xf4, 0x3c, 0xee, 0x67, 0xb5, 0x3c,
  0x77, 0x27, 0x8e, 0xbc, 0x85, 0xc8, 0x74, 0x3d, 0x1c, 0x93, 0x94, 0x3d,
  0xc5, 0xf7, 0x18, 0xbe, 0xfc, 0x7c, 0x42, 0x3e, 0x75, 0xe1, 0x45, 0x3e,
  0xbf, 0x87, 0x07, 0x3d, 0xce, 0x22, 0xe3, 0xbd, 0x86, 0xc7, 0x09, 0xbe,
  0xfd, 0xfa, 0x53, 0x3d, 0x03, 0x6f, 0x1c, 0x3e, 0x3c, 0xe6, 0x21, 0x3e,
  0xd7, 0x77, 0x61, 0xbe, 0x41, 0x75, 0x5f, 0xbc, 0x9c, 0xae, 0x6f, 0xbe,
  0xfd, 0xf2, 0x1c, 0xbe, 0x58, 0xde, 0x11, 0xbe, 0x75, 0x5b, 0x59, 0xbc,
  0xc7, 0x8f, 0x87, 0x3d, 0x25, 0x3a, 0x5e, 0x3e, 0xd8, 0x78, 0x63, 0xbd,
  0x15, 0xf1, 0x20, 0x3e, 0x33, 0x6b, 0xcd, 0xbd, 0xe4, 0x54, 0xd6, 0x3d,
  0x4c, 0x18, 0x91, 0x3d, 0x73, 0xf2, 0x5f, 0xbe, 0x70, 0x84, 0xa1, 0x3d,
  0x0e, 0x7d, 0x2c, 0x3e, 0x1f, 0x41, 0x7c, 0xbe, 0x08, 0x4e, 0xa4, 0x3d,
  0x89, 0xec, 0x18, 0x3e, 0x94, 0xe6, 0x82, 0xbe, 0x48, 0x6f, 0xf2, 0x3c,
  0xda, 0xbc, 0x89, 0x3e, 0xc8, 0x4f, 0xd1, 0xbd, 0x7e, 0x16, 0x19, 0x3e,
  0x53, 0xe2, 0xe5, 0xbd, 0xf9, 0x1b, 0x5c, 0x3e, 0xbf, 0xbd, 0x73, 0xbd,
  0x66, 0xfd, 0xff, 0xff, 0x10, 0x00, 0x00, 0x00, 0x07, 0x00, 0x00, 0x00,
  0x14, 0x00, 0x00, 0x00, 0x2c, 0x00, 0x00, 0x00, 0x02, 0x00, 0x00, 0x00,
  0x10, 0x00, 0x00, 0x00, 0x70, 0x00, 0x00, 0x00, 0x17, 0x00, 0x00, 0x00,
  0x73, 0x65, 0x71, 0x75, 0x65, 0x6e, 0x74, 0x69, 0x61, 0x6c, 0x2f, 0x64,
  0x65, 0x6e, 0x73, 0x65, 0x2f, 0x4d, 0x61, 0x74, 0x4d, 0x75, 0x6c, 0x00,
  0xd0, 0xfc, 0xff, 0xff, 0xda, 0xfd, 0xff, 0xff, 0x04, 0x00, 0x00, 0x00,
  0x08, 0x00, 0x00, 0x00, 0xff, 0xff, 0xff, 0xff, 0x70, 0x00, 0x00, 0x00,
  0x00, 0x00, 0x0e, 0x00, 0x18, 0x00, 0x08, 0x00, 0x07, 0x00, 0x0c, 0x00,
  0x10, 0x00, 0x14, 0x00, 0x0e, 0x00, 0x00, 0x00, 0x00, 0x00, 0x00, 0x02,
  0x10, 0x00, 0x00, 0x00, 0x06, 0x00, 0x00, 0x00, 0x10, 0x00, 0x00, 0x00,
  0x2c, 0x00, 0x00, 0x00, 0x01, 0x00, 0x00, 0x00, 0x02, 0x00, 0x00, 0x00,
  0x18, 0x00, 0x00, 0x00, 0x73, 0x65, 0x71, 0x75, 0x65, 0x6e, 0x74, 0x69,
  0x61, 0x6c, 0x2f, 0x66, 0x6c, 0x61, 0x74, 0x74, 0x65, 0x6e, 0x2f, 0x43,
  0x6f, 0x6e, 0x73, 0x74, 0x00, 0x00, 0x00, 0x00, 0x38, 0xfd, 0xff, 0xff,
  0x42, 0xfe, 0xff, 0xff, 0x04, 0x00, 0x00, 0x00, 0x0c, 0x00, 0x00, 0x00,
  0xf6, 0x8f, 0xc7, 0xbf, 0xdc, 0x91, 0x30, 0xc0, 0x77, 0x9c, 0xfb, 0x3f,
  0x26, 0xfe, 0xff, 0xff, 0x10, 0x00, 0x00, 0x00, 0x05, 0x00, 0x00, 0x00,
  0x10, 0x00, 0x00, 0x00, 0x44, 0x00, 0x00, 0x00, 0x01, 0x00, 0x00, 0x00,
  0x03, 0x00, 0x00, 0x00, 0x32, 0x00, 0x00, 0x00, 0x73, 0x65, 0x71, 0x75,
  0x65, 0x6e, 0x74, 0x69, 0x61, 0x6c, 0x2f, 0x64, 0x65, 0x6e, 0x73, 0x65,
  0x5f, 0x31, 0x2f, 0x42, 0x69, 0x61, 0x73, 0x41, 0x64, 0x64, 0x2f, 0x52,
  0x65, 0x61, 0x64, 0x56, 0x61, 0x72, 0x69, 0x61, 0x62, 0x6c, 0x65, 0x4f,
  0x70, 0x2f, 0x72, 0x65, 0x73, 0x6f, 0x75, 0x72, 0x63, 0x65, 0x00, 0x00,
  0xa8, 0xfd, 0xff, 0xff, 0xb2, 0xfe, 0xff, 0xff, 0x04, 0x00, 0x00, 0x00,
  0x40, 0x00, 0x00, 0x00, 0xc8, 0x50, 0xcb, 0xbd, 0x5a, 0x1a, 0x85, 0xbd,
  0x81, 0x72, 0xd9, 0x3a, 0x38, 0xa0, 0x9a, 0xbd, 0xa1, 0xa4, 0x5b, 0xbd,
  0xad, 0x79, 0xa7, 0xbd, 0x96, 0xa6, 0x06, 0xbd, 0x7b, 0x3e, 0x49, 0xbd,
  0xf0, 0x8d, 0x19, 0xbd, 0xfd, 0x2d, 0x51, 0x3c, 0x5d, 0x91, 0xaa, 0x3d,
  0x31, 0x9c, 0xaf, 0xbb, 0x25, 0x32, 0xa2, 0xbd, 0x21, 0x24, 0x84, 0xbd,
  0x86, 0x45, 0x84, 0xbd, 0xcb, 0x80, 0xfd, 0xbd, 0xca, 0xfe, 0xff, 0xff,
  0x10, 0x00, 0x00, 0x00, 0x04, 0x00, 0x00, 0x00, 0x10, 0x00, 0x00, 0x00,
  0x44, 0x00, 0x00, 0x00, 0x01, 0x00, 0x00, 0x00, 0x10, 0x00, 0x00, 0x00,
  0x30, 0x00, 0x00, 0x00, 0x73, 0x65, 0x71, 0x75, 0x65, 0x6e, 0x74, 0x69,
  0x61, 0x6c, 0x2f, 0x64, 0x65, 0x6e, 0x73, 0x65, 0x2f, 0x42, 0x69, 0x61,
  0x73, 0x41, 0x64, 0x64, 0x2f, 0x52, 0x65, 0x61, 0x64, 0x56, 0x61, 0x72,
  0x69, 0x61, 0x62, 0x6c, 0x65, 0x4f, 0x70, 0x2f, 0x72, 0x65, 0x73, 0x6f,
  0x75, 0x72, 0x63, 0x65, 0x00, 0x00, 0x00, 0x00, 0x4c, 0xfe, 0xff, 0xff,
  0x56, 0xff, 0xff, 0xff, 0x04, 0x00, 0x00, 0x00, 0x40, 0x00, 0x00, 0x00,
  0xc5, 0xf2, 0x06, 0xbe, 0xd9, 0x34, 0xc8, 0xbb, 0xb9, 0x89, 0x82, 0xbd,
  0x6b, 0x09, 0xa6, 0xbd, 0x8a, 0xb0, 0x58, 0xbd, 0x24, 0xad, 0x71, 0xbd,
  0x14, 0x1d, 0x48, 0xbd, 0x80, 0xb3, 0xfb, 0x3c, 0xc5, 0x84, 0x88, 0x3c,
  0x7c, 0xb4, 0x59, 0x3d, 0xab, 0xce, 0xa5, 0xbc, 0x3e, 0x20, 0xd4, 0xbc,
  0x23, 0xe4, 0x03, 0xbe, 0x8f, 0x30, 0x05, 0x3d, 0xe5, 0x3a, 0x28, 0xbe,
  0xec, 0xbf, 0xfd, 0xbc, 0x6e, 0xff, 0xff, 0xff, 0x10, 0x00, 0x00, 0x00,
  0x03, 0x00, 0x00, 0x00, 0x10, 0x00, 0x00, 0x00, 0x48, 0x00, 0x00, 0x00,
  0x01, 0x00, 0x00, 0x00, 0x10, 0x00, 0x00, 0x00, 0x33, 0x00, 0x00, 0x00,
  0x73, 0x65, 0x71, 0x75, 0x65, 0x6e, 0x74, 0x69, 0x61, 0x6c, 0x2f, 0x63,
  0x6f, 0x6e, 0x76, 0x32, 0x64, 0x5f, 0x31, 0x2f, 0x42, 0x69, 0x61, 0x73,
  0x41, 0x64, 0x64, 0x2f, 0x52, 0x65, 0x61, 0x64, 0x56, 0x61, 0x72, 0x69,
  0x61, 0x62, 0x6c, 0x65, 0x4f, 0x70, 0x2f, 0x72, 0x65, 0x73, 0x6f, 0x75,
  0x72, 0x63, 0x65, 0x00, 0x04, 0x00, 0x06, 0x00, 0x04, 0x00, 0x00, 0x00,
  0x00, 0x00, 0x06, 0x00, 0x08, 0x00, 0x04, 0x00, 0x06, 0x00, 0x00, 0x00,
  0x04, 0x00, 0x00, 0x00, 0x20, 0x00, 0x00, 0x00, 0x16, 0x68, 0x12, 0xbe,
  0x5f, 0x1b, 0xc8, 0xbd, 0xed, 0x85, 0xb6, 0x3d, 0x06, 0x5c, 0xd5, 0x3d,
  0x1d, 0x68, 0x77, 0xbe, 0xe2, 0xed, 0xc7, 0xbd, 0x6c, 0x5e, 0x15, 0xbe,
  0xa7, 0xfa, 0xec, 0xbd, 0x00, 0x00, 0x0e, 0x00, 0x14, 0x00, 0x04, 0x00,
  0x00, 0x00, 0x08, 0x00, 0x0c, 0x00, 0x10, 0x00, 0x0e, 0x00, 0x00, 0x00,
  0x10, 0x00, 0x00, 0x00, 0x02, 0x00, 0x00, 0x00, 0x10, 0x00, 0x00, 0x00,
  0x44, 0x00, 0x00, 0x00, 0x01, 0x00, 0x00, 0x00, 0x08, 0x00, 0x00, 0x00,
  0x31, 0x00, 0x00, 0x00, 0x73, 0x65, 0x71, 0x75, 0x65, 0x6e, 0x74, 0x69,
  0x61, 0x6c, 0x2f, 0x63, 0x6f, 0x6e, 0x76, 0x32, 0x64, 0x2f, 0x42, 0x69,
  0x61, 0x73, 0x41, 0x64, 0x64, 0x2f, 0x52, 0x65, 0x61, 0x64, 0x56, 0x61,
  0x72, 0x69, 0x61, 0x62, 0x6c, 0x65, 0x4f, 0x70, 0x2f, 0x72, 0x65, 0x73,
  0x6f, 0x75, 0x72, 0x63, 0x65, 0x00, 0x00, 0x00, 0x90, 0xff, 0xff, 0xff,
  0x14, 0x00, 0x18, 0x00, 0x04, 0x00, 0x00, 0x00, 0x08, 0x00, 0x0c, 0x00,
  0x10, 0x00, 0x00, 0x00, 0x00, 0x00, 0x14, 0x00, 0x14, 0x00, 0x00, 0x00,
  0x14, 0x00, 0x00, 0x00, 0x01, 0x00, 0x00, 0x00, 0x20, 0x00, 0x00, 0x00,
  0x44, 0x00, 0x00, 0x00, 0x2c, 0x00, 0x00, 0x00, 0x04, 0x00, 0x00, 0x00,
  0x01, 0x00, 0x00, 0x00, 0x40, 0x00, 0x00, 0x00, 0x03, 0x00, 0x00, 0x00,
  0x01, 0x00, 0x00, 0x00, 0x0c, 0x00, 0x00, 0x00, 0x63, 0x6f, 0x6e, 0x76,
  0x32, 0x64, 0x5f, 0x69, 0x6e, 0x70, 0x75, 0x74, 0x00, 0x00, 0x00, 0x00,
  0x04, 0x00, 0x00, 0x00, 0xff, 0xff, 0xff, 0xff, 0x40, 0x00, 0x00, 0x00,
  0x03, 0x00, 0x00, 0x00, 0x01, 0x00, 0x00, 0x00, 0xfc, 0xff, 0xff, 0xff,
  0x04, 0x00, 0x04, 0x00, 0x04, 0x00, 0x00, 0x00




};


unsigned int model_tflite_len = 13052;// Fill the int in `src/model.cc` here
